{
  "version": "1.0",
  "truncation": null,
  "padding": null,
  "added_tokens": [
    {
      "id": 0,
      "content": "[UNK]",
      "single_word": false,
      "lstrip": false,
      "rstrip": false,
      "normalized": false,
      "special": true
    },
    {
      "id": 1,
      "content": "[CLS]",
      "single_word": false,
      "lstrip": false,
      "rstrip": false,
      "normalized": false,
      "special": true
    },
    {
      "id": 2,
      "content": "[SEP]",
      "single_word": false,
      "lstrip": false,
      "rstrip": false,
      "normalized": false,
      "special": true
    },
    {
      "id": 3,
      "content": "[PAD]",
      "single_word": false,
      "lstrip": false,
      "rstrip": false,
      "normalized": false,
      "special": true
    },
    {
      "id": 4,
      "content": "[MASK]",
      "single_word": false,
      "lstrip": false,
      "rstrip": false,
      "normalized": false,
      "special": true
    }
  ],
  "normalizer": null,
  "pre_tokenizer": {
    "type": "ByteLevel",
    "add_prefix_space": false,
    "trim_offsets": true,
    "use_regex": true
  },
  "post_processor": null,
  "decoder": {
    "type": "ByteLevel",
    "add_prefix_space": true,
    "trim_offsets": true,
    "use_regex": true
  },
  "model": {
    "type": "BPE",
    "dropout": null,
    "unk_token": "[UNK]",
    "continuing_subword_prefix": null,
    "end_of_word_suffix": null,
    "fuse_unk": false,
    "byte_fallback": false,
    "ignore_merges": false,
    "vocab": {
      "[UNK]": 0,
      "[CLS]": 1,
      "[SEP]": 2,
      "[PAD]": 3,
      "[MASK]": 4,
      "!": 5,
      "&": 6,
      "(": 7,
      ")": 8,
      "*": 9,
      "+": 10,
      ",": 11,
      "-": 12,
      ".": 13,
      "/": 14,
      "0": 15,
      "1": 16,
      "2": 17,
      "3": 18,
      "4": 19,
      "5": 20,
      "6": 21,
      "7": 22,
      "8": 23,
      "9": 24,
      ":": 25,
      ";": 26,
      "=": 27,
      ">": 28,
      "?": 29,
      "A": 30,
      "B": 31,
      "C": 32,
      "D": 33,
      "E": 34,
      "F": 35,
      "G": 36,
      "H": 37,
      "I": 38,
      "J": 39,
      "K": 40,
      "L": 41,
      "M": 42,
      "N": 43,
      "O": 44,
      "P": 45,
      "Q": 46,
      "R": 47,
      "S": 48,
      "T": 49,
      "U": 50,
      "V": 51,
      "W": 52,
      "X": 53,
      "Y": 54,
      "Z": 55,
      "[": 56,
      "]": 57,
      "^": 58,
      "_": 59,
      "a": 60,
      "b": 61,
      "c": 62,
      "d": 63,
      "e": 64,
      "f": 65,
      "g": 66,
      "h": 67,
      "i": 68,
      "j": 69,
      "k": 70,
      "l": 71,
      "m": 72,
      "n": 73,
      "o": 74,
      "p": 75,
      "q": 76,
      "r": 77,
      "s": 78,
      "t": 79,
      "u": 80,
      "v": 81,
      "w": 82,
      "x": 83,
      "y": 84,
      "z": 85,
      "{": 86,
      "}": 87,
      "¢": 88,
      "¤": 89,
      "¦": 90,
      "§": 91,
      "¨": 92,
      "©": 93,
      "ª": 94,
      "«": 95,
      "°": 96,
      "´": 97,
      "¶": 98,
      "·": 99,
      "¼": 100,
      "Â": 101,
      "Ã": 102,
      "Å": 103,
      "â": 104,
      "ĉ": 105,
      "Ċ": 106,
      "Ġ": 107,
      "Ģ": 108,
      "Ĩ": 109,
      "ĭ": 110,
      "Ĵ": 111,
      "ĵ": 112,
      "Ķ": 113,
      "ĸ": 114,
      "ĺ": 115,
      "Ļ": 116,
      "ľ": 117,
      "Ŀ": 118,
      "ł": 119,
      "Ġt": 120,
      "he": 121,
      "Ġa": 122,
      "in": 123,
      "Ġo": 124,
      "Ġthe": 125,
      "re": 126,
      "on": 127,
      "Ġs": 128,
      "er": 129,
      "it": 130,
      "en": 131,
      "Ġof": 132,
      "at": 133,
      "Ġw": 134,
      "is": 135,
      "Ġc": 136,
      "Ġb": 137,
      "nd": 138,
      "es": 139,
      "ed": 140,
      "Ġin": 141,
      "ion": 142,
      "Ġp": 143,
      "Ġf": 144,
      "an": 145,
      "Ġm": 146,
      "ou": 147,
      "al": 148,
      "or": 149,
      "Ġto": 150,
      "Ġth": 151,
      "ing": 152,
      "ic": 153,
      "ar": 154,
      "Ġh": 155,
      "Ġand": 156,
      "Ġn": 157,
      "ly": 158,
      "Ġd": 159,
      "Ġbe": 160,
      "ct": 161,
      "le": 162,
      "as": 163,
      "Ġe": 164,
      "om": 165,
      "ce": 166,
      "se": 167,
      "st": 168,
      "ent": 169,
      "Ġre": 170,
      "ot": 171,
      "âĢ": 172,
      "ll": 173,
      "ve": 174,
      "ĠĠ": 175,
      "her": 176,
      "Ġwh": 177,
      "Ġis": 178,
      "im": 179,
      "Ġit": 180,
      "Ġcon": 181,
      "Ġl": 182,
      "ut": 183,
      "Ġthat": 184,
      "Ġas": 185,
      "Ġg": 186,
      "Ġha": 187,
      "Ġon": 188,
      "ow": 189,
      "ich": 190,
      "ation": 191,
      "Ġan": 192,
      "Ġu": 193,
      "et": 194,
      "Ġfor": 195,
      "ver": 196,
      "ĠI": 197,
      "ro": 198,
      "id": 199,
      "Ġwhich": 200,
      "ir": 201,
      "ect": 202,
      "ld": 203,
      "if": 204,
      "ur": 205,
      "Ġnot": 206,
      "ith": 207,
      "Ġex": 208,
      "gh": 209,
      "ec": 210,
      "Ġwe": 211,
      "os": 212,
      "ies": 213,
      "Ġwith": 214,
      "Ġor": 215,
      "ch": 216,
      "Ġsu": 217,
      "ition": 218,
      "ay": 219,
      "ist": 220,
      "ity": 221,
      "ess": 222,
      "ab": 223,
      "am": 224,
      "ĠĠĠĠ": 225,
      "Ġby": 226,
      "ain": 227,
      "the": 228,
      "ter": 229,
      "Ġhave": 230,
      "Ġthis": 231,
      "Ġsp": 232,
      "res": 233,
      "Ġare": 234,
      "ould": 235,
      "rom": 236,
      "th": 237,
      "and": 238,
      "qu": 239,
      "pt": 240,
      "ul": 241,
      "ere": 242,
      "il": 243,
      "Ġse": 244,
      "ure": 245,
      "pp": 246,
      "ence": 247,
      "Ġall": 248,
      "Ġfrom": 249,
      "Ġat": 250,
      "Ġpro": 251,
      "Ġmo": 252,
      "ate": 253,
      "ad": 254,
      "Ġst": 255,
      "ĠT": 256,
      "ri": 257,
      "us": 258,
      "og": 259,
      "âĢĶ": 260,
      "ical": 261,
      "ther": 262,
      "ge": 263,
      "end": 264,
      "ill": 265,
      "ant": 266,
      "Ġhe": 267,
      "Ġy": 268,
      "Ġv": 269,
      "ject": 270,
      "li": 271,
      "ght": 272,
      "iv": 273,
      "Ġcan": 274,
      "Ġbut": 275,
      "ive": 276,
      "âĢľ": 277,
      "Ġher": 278,
      "bject": 279,
      "ol": 280,
      "âĢĿ": 281,
      "cept": 282,
      "ust": 283,
      "hen": 284,
      "ous": 285,
      "our": 286,
      "Ġso": 287,
      "Ġwas": 288,
      "est": 289,
      "Ġcom": 290,
      "ĠM": 291,
      "um": 292,
      "ib": 293,
      "em": 294,
      "ĠB": 295,
      "per": 296,
      "ception": 297,
      "nt": 298,
      "ame": 299,
      "Ġspec": 300,
      "sel": 301,
      "Ġal": 302,
      "ction": 303,
      "ci": 304,
      "cc": 305,
      "oss": 306,
      "Ġother": 307,
      "Ġint": 308,
      "very": 309,
      "Ġform": 310,
      "con": 311,
      "Ġbeen": 312,
      "Ġun": 313,
      "Ġsh": 314,
      "ans": 315,
      "Ġde": 316,
      "od": 317,
      "ig": 318,
      "Ġr": 319,
      "ome": 320,
      "nder": 321,
      "able": 322,
      "Ġman": 323,
      "ough": 324,
      "Ġtheir": 325,
      "ance": 326,
      "Ġper": 327,
      "all": 328,
      "Ġne": 329,
      "ari": 330,
      "ke": 331,
      "tain": 332,
      "Ġthey": 333,
      "art": 334,
      "ĠThe": 335,
      "Ġspecies": 336,
      "Ġits": 337,
      "ard": 338,
      "pl": 339,
      "iff": 340,
      "act": 341,
      "ĠA": 342,
      "ple": 343,
      "Ġch": 344,
      "ason": 345,
      "ose": 346,
      "Ġme": 347,
      "Ġnat": 348,
      "ment": 349,
      "of": 350,
      "Ġhas": 351,
      "Ġthere": 352,
      "Ġobject": 353,
      "dition": 354,
      "Ġno": 355,
      "ĠĠĠĠĠĠĠĠ": 356,
      "ally": 357,
      "ations": 358,
      "Ġyou": 359,
      "Ġim": 360,
      "ong": 361,
      "ind": 362,
      "Ġhis": 363,
      "Ġdo": 364,
      "ore": 365,
      "Ġany": 366,
      "Ġshe": 367,
      "Ġone": 368,
      "self": 369,
      "Ġhad": 370,
      "are": 371,
      "resent": 372,
      "ossib": 373,
      "ary": 374,
      "Ġwould": 375,
      "Ġk": 376,
      "Ġmay": 377,
      "Ġonly": 378,
      "Ġsame": 379,
      "Ġwill": 380,
      "Ġunder": 381,
      "ud": 382,
      "Ġconception": 383,
      "Ġad": 384,
      "Ġtr": 385,
      "ac": 386,
      "Ġab": 387,
      "ff": 388,
      "Ġpl": 389,
      "Ġmust": 390,
      "ide": 391,
      "ĠS": 392,
      "ers": 393,
      "Ġour": 394,
      "Ġmore": 395,
      "ener": 396,
      "ated": 397,
      "not": 398,
      "Ġdiff": 399,
      "Ġthem": 400,
      "ord": 401,
      "ort": 402,
      "Ġreason": 403,
      "ime": 404,
      "ĠMr": 405,
      "ens": 406,
      "Ġpart": 407,
      "ĠW": 408,
      "erm": 409,
      "now": 410,
      "Ġpr": 411,
      "ound": 412,
      "Ġle": 413,
      "au": 414,
      "ap": 415,
      "Ġexist": 416,
      "op": 417,
      "ĠC": 418,
      ".âĢĿ": 419,
      "ace": 420,
      "ach": 421,
      "Ġgr": 422,
      "Ġsome": 423,
      "reat": 424,
      "ility": 425,
      "Ġthese": 426,
      "Ġmy": 427,
      "eth": 428,
      "Ġtime": 429,
      "Ġif": 430,
      "Ġvari": 431,
      "out": 432,
      "Ġem": 433,
      "Ġapp": 434,
      "ĠBut": 435,
      "Ġthan": 436,
      "du": 437,
      "Ġsuch": 438,
      "Ġqu": 439,
      "Ġgener": 440,
      "sp": 441,
      "fore": 442,
      "ĠH": 443,
      "one": 444,
      "ings": 445,
      "ult": 446,
      "Ġdis": 447,
      "Ġcondition": 448,
      "Ġ(": 449,
      "ex": 450,
      "ru": 451,
      "uch": 452,
      "Ġpossib": 453,
      "ire": 454,
      "stand": 455,
      "Ġcas": 456,
      "ĠâĢľ": 457,
      "ite": 458,
      "peri": 459,
      "âĢĻ": 460,
      "un": 461,
      "als": 462,
      "Ġus": 463,
      "Ġvery": 464,
      "Ġev": 465,
      "ĠL": 466,
      "Ġhim": 467,
      "Ġwere": 468,
      "ĠE": 469,
      "ural": 470,
      "Ġwhen": 471,
      "Ġind": 472,
      "aw": 473,
      "ine": 474,
      "ertain": 475,
      "pos": 476,
      "be": 477,
      "Ġrel": 478,
      "ecess": 479,
      "ight": 480,
      "Ġrep": 481,
      "inci": 482,
      "Ġcont": 483,
      "ree": 484,
      "Ġcould": 485,
      "wh": 486,
      "ag": 487,
      "Ġwho": 488,
      "we": 489,
      "ĠF": 490,
      "Ġj": 491,
      "other": 492,
      "Ġreg": 493,
      "ak": 494,
      "Ġacc": 495,
      "Ġhow": 496,
      "omen": 497,
      "Ġknow": 498,
      "ast": 499,
      "ogn": 500,
      "Ġfe": 501,
      "perience": 502,
      "cend": 503,
      "for": 504,
      "Ġcl": 505,
      "ond": 506,
      "Ġdiffere": 507,
      "Ġwor": 508,
      "eterm": 509,
      "Ġimp": 510,
      "Ġgiv": 511,
      "to": 512,
      "ause": 513,
      "Ġdist": 514,
      "henomen": 515,
      "av": 516,
      "Ġam": 517,
      "Ġbeing": 518,
      "ently": 519,
      "itt": 520,
      "Ġcons": 521,
      "ĠD": 522,
      "Ġtw": 523,
      "oll": 524,
      "Ġmere": 525,
      "ces": 526,
      "Ġsy": 527,
      "ass": 528,
      "ced": 529,
      "Ġgreat": 530,
      "ants": 531,
      "Ġwhat": 532,
      "Ġeach": 533,
      "here": 534,
      "Ġcannot": 535,
      "cl": 536,
      "standing": 537,
      "ie": 538,
      "Ġar": 539,
      "ĠN": 540,
      "ori": 541,
      "Ġpre": 542,
      "Ġup": 543,
      "ear": 544,
      "Ġbec": 545,
      "Ġ_": 546,
      "uition": 547,
      "Ġprinci": 548,
      "Ġnecess": 549,
      "Ġext": 550,
      "inct": 551,
      "ake": 552,
      "Ġnature": 553,
      "ality": 554,
      "ions": 555,
      "ress": 556,
      "Ġpure": 557,
      "Ġrem": 558,
      "Ġtwo": 559,
      "Ġmany": 560,
      "Ġexperience": 561,
      "Ġnatural": 562,
      "cy": 563,
      "Ġmod": 564,
      "way": 565,
      "Ġgiven": 566,
      "Ġcertain": 567,
      "Ġcogn": 568,
      "that": 569,
      "etermin": 570,
      "age": 571,
      "ise": 572,
      "int": 573,
      "ount": 574,
      "su": 575,
      "ves": 576,
      "ved": 577,
      "ood": 578,
      "Ġag": 579,
      "ĠTh": 580,
      "irst": 581,
      "ked": 582,
      "ental": 583,
      "ied": 584,
      "Ġphenomen": 585,
      "ish": 586,
      "Ġbet": 587,
      "The": 588,
      "pir": 589,
      "Ġmuch": 590,
      "ĠIt": 591,
      "Ġmost": 592,
      "ĠP": 593,
      "liz": 594,
      "olog": 595,
      "ĠO": 596,
      "Ġpossible": 597,
      "pirical": 598,
      "lection": 599,
      "Ġinto": 600,
      "ought": 601,
      "Ġcase": 602,
      "aid": 603,
      "sequ": 604,
      "abeth": 605,
      "lizabeth": 606,
      "ĠIn": 607,
      "Ãł": 608,
      "aract": 609,
      "Ġevery": 610,
      "Ġitself": 611,
      "its": 612,
      "ber": 613,
      "ific": 614,
      "Ġatt": 615,
      "ever": 616,
      "ost": 617,
      "te": 618,
      "Ġshould": 619,
      "ffect": 620,
      "el": 621,
      "Ġtrans": 622,
      "red": 623,
      "ute": 624,
      "Ġintuition": 625,
      "Ġide": 626,
      "Ġeven": 627,
      "Ġfirst": 628,
      "riori": 629,
      "Ġorg": 630,
      "Ġdes": 631,
      "ink": 632,
      "ered": 633,
      "iz": 634,
      "ry": 635,
      "lie": 636,
      "Ġser": 637,
      "ving": 638,
      "Ġpresent": 639,
      "Ġwithout": 640,
      "hed": 641,
      "ert": 642,
      "Ġsub": 643,
      "which": 644,
      "Ġen": 645,
      "Ġinter": 646,
      "ang": 647,
      "pro": 648,
      "Ġsubject": 649,
      "ĠFor": 650,
      "hy": 651,
      "ict": 652,
      "Ġforms": 653,
      ",âĢĿ": 654,
      "hing": 655,
      "ĠÃł": 656,
      "oo": 657,
      "fect": 658,
      "Ġ1": 659,
      "Ġconditions": 660,
      "Ġcognition": 661,
      "rough": 662,
      "Ġli": 663,
      "ness": 664,
      "Ġfar": 665,
      "Ġcomm": 666,
      "Ġconceptions": 667,
      "Ġrepresent": 668,
      "ck": 669,
      "Ġinst": 670,
      "led": 671,
      "Ġsee": 672,
      "ĠĠĠĠĠĠĠĠĠĠĠĠĠĠĠĠ": 673,
      "ell": 674,
      "Ġunderstanding": 675,
      "ave": 676,
      "Ġexistence": 677,
      "ween": 678,
      "Ġdetermin": 679,
      "Ġempirical": 680,
      "Ġpriori": 681,
      "Ġworld": 682,
      "ppos": 683,
      "ful": 684,
      "nthe": 685,
      "position": 686,
      "so": 687,
      "fin": 688,
      "Ġnever": 689,
      "Ġregard": 690,
      "Ġthus": 691,
      "Ġprodu": 692,
      "Ġdifferent": 693,
      "ue": 694,
      "ual": 695,
      "Ġlong": 696,
      "ner": 697,
      "Ġcomp": 698,
      "Ġmeans": 699,
      "ile": 700,
      "cendental": 701,
      "--": 702,
      "ĠG": 703,
      "ory": 704,
      "atter": 705,
      "Ġtherefore": 706,
      "Ġcharact": 707,
      "ither": 708,
      "Ġthose": 709,
      "Ġsaid": 710,
      "ative": 711,
      "ep": 712,
      "ten": 713,
      "Ġvariet": 714,
      "Ġob": 715,
      "Ġanim": 716,
      "med": 717,
      "Ġthen": 718,
      "fter": 719,
      "sol": 720,
      "ife": 721,
      "ited": 722,
      "Ġthrough": 723,
      "selves": 724,
      "ways": 725,
      "ial": 726,
      "ane": 727,
      "wn": 728,
      "Ġsens": 729,
      "Ġnum": 730,
      "ingle": 731,
      "nal": 732,
      "ather": 733,
      "Ġbelie": 734,
      "ove": 735,
      "Ġnow": 736,
      "Ġass": 737,
      "ower": 738,
      "Ġwell": 739,
      "Ġphenomena": 740,
      "Ġbetween": 741,
      "sequently": 742,
      "Ġconsid": 743,
      "me": 744,
      "Ġobjects": 745,
      "Ġsay": 746,
      "ange": 747,
      "com": 748,
      "Ġlaw": 749,
      "Ġcomple": 750,
      "ruct": 751,
      "arly": 752,
      "Ġfl": 753,
      "nce": 754,
      "ording": 755,
      "Ġlike": 756,
      "Ġthink": 757,
      "vers": 758,
      "Ġunity": 759,
      "ples": 760,
      "Ġyour": 761,
      "ollow": 762,
      "Ġfact": 763,
      "Ġmerely": 764,
      "Ġmight": 765,
      "Ġthough": 766,
      "Ġnothing": 767,
      "ĠElizabeth": 768,
      "Ġexp": 769,
      "âĢĶ,": 770,
      "nect": 771,
      "Ġsynthe": 772,
      "sis": 773,
      "Ġthings": 774,
      "ros": 775,
      "ily": 776,
      "iss": 777,
      "Ġfound": 778,
      "Ġthought": 779,
      "though": 780,
      "ady": 781,
      "own": 782,
      "Ġgeneral": 783,
      "hether": 784,
      "Ġalways": 785,
      "ng": 786,
      "Ġown": 787,
      "ade": 788,
      "Ġupon": 789,
      "arcy": 790,
      "),": 791,
      "Ġdoes": 792,
      "br": 793,
      "Ġrelation": 794,
      "Ġorgan": 795,
      "form": 796,
      "Ġplants": 797,
      "Ġ3": 798,
      "ious": 799,
      "Ġwhole": 800,
      "Ġsim": 801,
      "ense": 802,
      "ign": 803,
      "old": 804,
      "ates": 805,
      "oub": 806,
      "Ġless": 807,
      "oth": 808,
      "Ġlar": 809,
      "Ġselection": 810,
      "Ġshall": 811,
      "ross": 812,
      "light": 813,
      "with": 814,
      "Ġnecessary": 815,
      "Ġsom": 816,
      "Ġlife": 817,
      "ivid": 818,
      "Ġperfect": 819,
      "udge": 820,
      "Ġocc": 821,
      "app": 822,
      "Ġent": 823,
      "Ġvarieties": 824,
      "land": 825,
      "Ġfollow": 826,
      "Ġdisc": 827,
      "Ġpo": 828,
      "ook": 829,
      "iate": 830,
      "Ġout": 831,
      "reed": 832,
      "solute": 833,
      "ism": 834,
      "str": 835,
      "ĠDarcy": 836,
      "less": 837,
      "ia": 838,
      "ably": 839,
      "ser": 840,
      "veral": 841,
      "Ġbr": 842,
      "ittle": 843,
      "but": 844,
      "vel": 845,
      "oy": 846,
      "Ġ2": 847,
      "hil": 848,
      "tical": 849,
      "ice": 850,
      "Ġhaving": 851,
      "ulty": 852,
      "Ġagain": 853,
      "long": 854,
      "ether": 855,
      "ĠWe": 856,
      "Ġformer": 857,
      "Ġprinciple": 858,
      "ward": 859,
      "ick": 860,
      "Ġafter": 861,
      "Ġcommon": 862,
      "over": 863,
      "Ġuse": 864,
      "Ġord": 865,
      "mat": 866,
      "Ġcall": 867,
      "Ġcause": 868,
      "Ġanother": 869,
      "uth": 870,
      "ird": 871,
      "aus": 872,
      "condition": 873,
      "spect": 874,
      "mediate": 875,
      "ark": 876,
      "Ġidea": 877,
      "Ġanimals": 878,
      "Ġconnect": 879,
      "Ġadm": 880,
      "stem": 881,
      "urn": 882,
      "Ġmanner": 883,
      "rit": 884,
      "Ġkind": 885,
      "uous": 886,
      "ĠJ": 887,
      "enn": 888,
      "most": 889,
      "ici": 890,
      "man": 891,
      "Ġhowever": 892,
      "iod": 893,
      "Ġstr": 894,
      "igin": 895,
      "Ġtranscendental": 896,
      "oup": 897,
      "urp": 898,
      "Ġalso": 899,
      "Ġparts": 900,
      "Ġact": 901,
      "Ġconst": 902,
      "Ġspace": 903,
      "Ġperiod": 904,
      "Ġbefore": 905,
      "Ġlim": 906,
      "Ġnew": 907,
      "Ġmake": 908,
      "Ġbecause": 909,
      "Ġoften": 910,
      "uring": 911,
      "ccess": 912,
      "Ġaccording": 913,
      "tr": 914,
      "Ġseem": 915,
      "Ġprob": 916,
      "Ġcontain": 917,
      "ments": 918,
      "ater": 919,
      "Ġseveral": 920,
      "iew": 921,
      "ĠThis": 922,
      "Ġfind": 923,
      "Ġalone": 924,
      "ennet": 925,
      "Ġend": 926,
      "Ġdeg": 927,
      "Ġimport": 928,
      "oubt": 929,
      "Ġdistinct": 930,
      "Ġseries": 931,
      "Ġoff": 932,
      "ished": 933,
      "ified": 934,
      "Ġadv": 935,
      "spec": 936,
      "Ġlittle": 937,
      "Ġjudge": 938,
      "sh": 939,
      "thing": 940,
      "Ġcharacter": 941,
      "Ġstill": 942,
      "Ġdid": 943,
      "Ġeffect": 944,
      "Ġprinciples": 945,
      "ĠR": 946,
      "ossess": 947,
      "Ġappear": 948,
      "Ġwhether": 949,
      "Ã¦": 950,
      "Ġstate": 951,
      "Ġabsolute": 952,
      "ances": 953,
      "ins": 954,
      "ents": 955,
      "ible": 956,
      "Ġcontin": 957,
      "Ġhapp": 958,
      "Ġover": 959,
      "ological": 960,
      "Ġproper": 961,
      "arent": 962,
      "ceed": 963,
      "ists": 964,
      "igh": 965,
      "Ġboth": 966,
      "Ġinc": 967,
      "Ġyet": 968,
      "ploy": 969,
      "ne": 970,
      "Ġpres": 971,
      "Ġmar": 972,
      "Ġhy": 973,
      "Ġcases": 974,
      "ase": 975,
      "ification": 976,
      "Ġproposition": 977,
      "Ġnumber": 978,
      "Ġsense": 979,
      "ething": 980,
      "ingley": 981,
      "velop": 982,
      "ĠBennet": 983,
      "Ġac": 984,
      "Ġsm": 985,
      "Ġquest": 986,
      "ised": 987,
      "Ġcaus": 988,
      "Ġsupp": 989,
      "ossible": 990,
      "by": 991,
      "Ġgood": 992,
      "Ġstruct": 993,
      "Ġsec": 994,
      "Ġconsequently": 995,
      "Ġview": 996,
      "hab": 997,
      "Ġgive": 998,
      "Ġyoung": 999,
      "bl": 1000,
      "reme": 1001,
      "Ġnor": 1002,
      "Ġrec": 1003,
      "cious": 1004,
      "Ġconsider": 1005,
      "Ġcor": 1006,
      "Ġrespect": 1007,
      "Ġthing": 1008,
      "Ġsystem": 1009,
      "Ġinf": 1010,
      "ĠIf": 1011,
      "Ġpossibility": 1012,
      "Ġsc": 1013,
      "Ġhere": 1014,
      "?âĢĿ": 1015,
      "Ġval": 1016,
      "ustr": 1017,
      "Ġcomplete": 1018,
      "Ġmade": 1019,
      "lect": 1020,
      "Ġfew": 1021,
      "rel": 1022,
      "Ġrequ": 1023,
      "osop": 1024,
      "conception": 1025,
      "Ġgroup": 1026,
      "hilosop": 1027,
      "hys": 1028,
      "Ġexpl": 1029,
      "Ġplace": 1030,
      "ĠMrs": 1031,
      "Ġpoint": 1032,
      "Ġro": 1033,
      "hes": 1034,
      "ived": 1035,
      "Ġthemselves": 1036,
      "Ġquite": 1037,
      "ail": 1038,
      "Ġtoo": 1039,
      "Ġhand": 1040,
      "Ġsuccess": 1041,
      "Ġbelong": 1042,
      "ular": 1043,
      "Ġwhere": 1044,
      "ledge": 1045,
      "Ġcross": 1046,
      "Ġindivid": 1047,
      "Ġdegree": 1048,
      "Ġpossess": 1049,
      "Ġgo": 1050,
      "de": 1051,
      "under": 1052,
      "Ġemploy": 1053,
      "avour": 1054,
      "Ġmind": 1055,
      "Ġsoon": 1056,
      "ctions": 1057,
      "ĠHe": 1058,
      "Ġjust": 1059,
      "Ġeither": 1060,
      "ared": 1061,
      "Ġclass": 1062,
      "gg": 1063,
      "Ġorigin": 1064,
      "ĠBingley": 1065,
      "ivers": 1066,
      "ually": 1067,
      "Ġway": 1068,
      "Ġbelieve": 1069,
      "Ġlaws": 1070,
      "species": 1071,
      "ĠMiss": 1072,
      "imes": 1073,
      "Ġbecome": 1074,
      "eed": 1075,
      "hap": 1076,
      "Ġsist": 1077,
      "omest": 1078,
      "clud": 1079,
      "Ġfam": 1080,
      "par": 1081,
      "ty": 1082,
      "Ġlatter": 1083,
      "ize": 1084,
      "Ġlarge": 1085,
      "ention": 1086,
      "Th": 1087,
      "Ġclose": 1088,
      "omestic": 1089,
      "up": 1090,
      "ating": 1091,
      "iment": 1092,
      "Ġchang": 1093,
      "lied": 1094,
      "have": 1095,
      "Ġexam": 1096,
      "Ġsomething": 1097,
      "ph": 1098,
      "Ġhig": 1099,
      "gr": 1100,
      "Ġaff": 1101,
      "Ġinv": 1102,
      "ried": 1103,
      "Ġground": 1104,
      "ĠJane": 1105,
      "But": 1106,
      "Ġduring": 1107,
      "Ġsynthesis": 1108,
      "Ġever": 1109,
      "ip": 1110,
      "Ġterm": 1111,
      "Ġdoubt": 1112,
      "ternal": 1113,
      "ĠAnd": 1114,
      "Ġfac": 1115,
      "Ġreal": 1116,
      "Ġhab": 1117,
      "Ġstructure": 1118,
      "habit": 1119,
      "this": 1120,
      "Ġalthough": 1121,
      "Ġdiffic": 1122,
      "exist": 1123,
      "sect": 1124,
      "right": 1125,
      "Ġop": 1126,
      "Ġslight": 1127,
      "Ġres": 1128,
      "Ġalmost": 1129,
      "Ġdevelop": 1130,
      "Ġcalled": 1131,
      "Ġpower": 1132,
      "Ġorder": 1133,
      "nces": 1134,
      "Ġobser": 1135,
      "ateg": 1136,
      "Ġanal": 1137,
      "Ġleast": 1138,
      "Ġbeg": 1139,
      "ains": 1140,
      "Ġbird": 1141,
      "ffici": 1142,
      "Ġgenerally": 1143,
      "In": 1144,
      "sw": 1145,
      "Ġthree": 1146,
      "usion": 1147,
      "Ġcontr": 1148,
      "Ġword": 1149,
      "Ġphilosop": 1150,
      "Ġwhile": 1151,
      "ning": 1152,
      "present": 1153,
      "port": 1154,
      "Ġill": 1155,
      "Ġcount": 1156,
      "Ġref": 1157,
      "Ġday": 1158,
      "imate": 1159,
      "ident": 1160,
      "ĠShe": 1161,
      "diff": 1162,
      "ham": 1163,
      "empt": 1164,
      "gether": 1165,
      "Ġtogether": 1166,
      "Ġlet": 1167,
      ".âĢĶ": 1168,
      "nat": 1169,
      "Ġcol": 1170,
      "Ġhop": 1171,
      "cons": 1172,
      "Ġsmall": 1173,
      "ody": 1174,
      "Ġlook": 1175,
      "Ġremark": 1176,
      "Ġadd": 1177,
      "wards": 1178,
      "You": 1179,
      "wise": 1180,
      ".,": 1181,
      "Ġple": 1182,
      "Ġge": 1183,
      "Ġherself": 1184,
      "Ġknowledge": 1185,
      "Ġlog": 1186,
      "owers": 1187,
      "itted": 1188,
      "Ġdec": 1189,
      "Ġquestion": 1190,
      "part": 1191,
      "ven": 1192,
      "Ġwide": 1193,
      "Ġbreed": 1194,
      "Ġansw": 1195,
      "rop": 1196,
      "finite": 1197,
      "Ġsci": 1198,
      "Ġdire": 1199,
      "ased": 1200,
      "asion": 1201,
      "Ġshow": 1202,
      "ack": 1203,
      "ution": 1204,
      "ĠNow": 1205,
      "Ġname": 1206,
      "brid": 1207,
      "ities": 1208,
      "Ġbl": 1209,
      "eds": 1210,
      "Ġhum": 1211,
      "stance": 1212,
      "resp": 1213,
      "ulative": 1214,
      "ourse": 1215,
      "Ġtend": 1216,
      "It": 1217,
      "ency": 1218,
      "Ġpass": 1219,
      "Ġmor": 1220,
      "Ġchange": 1221,
      "mer": 1222,
      "Ġhigh": 1223,
      "aking": 1224,
      "ule": 1225,
      "ination": 1226,
      "yond": 1227,
      "lands": 1228,
      "urpose": 1229,
      "bers": 1230,
      "king": 1231,
      "ene": 1232,
      "ale": 1233,
      "Ġexpress": 1234,
      "Ġdomestic": 1235,
      "Ġlast": 1236,
      "Ġgenera": 1237,
      "Ġconf": 1238,
      "ability": 1239,
      "from": 1240,
      "arily": 1241,
      "haps": 1242,
      "can": 1243,
      "pr": 1244,
      "Ġothers": 1245,
      "Ġmanif": 1246,
      "ged": 1247,
      "pec": 1248,
      "sem": 1249,
      "vari": 1250,
      "Ġequ": 1251,
      "there": 1252,
      "Ġfeel": 1253,
      "know": 1254,
      "Ġtake": 1255,
      "Ġsl": 1256,
      "Ġreality": 1257,
      "iving": 1258,
      "ft": 1259,
      "uals": 1260,
      "iness": 1261,
      "att": 1262,
      "Ġabout": 1263,
      "aken": 1264,
      "ors": 1265,
      "Ġwithin": 1266,
      "Ġrepresentation": 1267,
      "ogit": 1268,
      "ĠOn": 1269,
      "apt": 1270,
      "iar": 1271,
      "sy": 1272,
      "Ġaffect": 1273,
      "Ġele": 1274,
      "irc": 1275,
      "Ġindeed": 1276,
      "ield": 1277,
      "Ġdescend": 1278,
      "Ġsecond": 1279,
      "ained": 1280,
      "Ġsphere": 1281,
      "ended": 1282,
      "aces": 1283,
      "ickham": 1284,
      "atis": 1285,
      "Ġstand": 1286,
      "ired": 1287,
      "pposed": 1288,
      "antage": 1289,
      "Ġinstance": 1290,
      "Ġproduced": 1291,
      "Ġsister": 1292,
      "ics": 1293,
      "Ġseen": 1294,
      "Ġtrue": 1295,
      "ollins": 1296,
      "Mr": 1297,
      "ught": 1298,
      "Ġmat": 1299,
      "Ġant": 1300,
      "Ġgrad": 1301,
      "Ġsensuous": 1302,
      "reg": 1303,
      "Ġcateg": 1304,
      "ince": 1305,
      "Ġcome": 1306,
      "Ġinsect": 1307,
      "Ġconc": 1308,
      "Ġgen": 1309,
      "riend": 1310,
      "Ġsynthetical": 1311,
      "Ġfamily": 1312,
      "ring": 1313,
      "Ġinhabit": 1314,
      "Ġwork": 1315,
      "Ġexpect": 1316,
      "Ġbirds": 1317,
      "Elizabeth": 1318,
      "ially": 1319,
      "lt": 1320,
      "lic": 1321,
      "Ġpurpose": 1322,
      "ĠAs": 1323,
      "ustration": 1324,
      "Ġought": 1325,
      "Ġparent": 1326,
      "ories": 1327,
      "Ġpartic": 1328,
      "Ġimpossible": 1329,
      "Ġinternal": 1330,
      "Ġdetermined": 1331,
      "inction": 1332,
      "arm": 1333,
      "Ġdep": 1334,
      "Ġperception": 1335,
      "Ġmodified": 1336,
      "ellig": 1337,
      "object": 1338,
      "Ġcle": 1339,
      "Ġmet": 1340,
      "Ġknown": 1341,
      "Ġhybrid": 1342,
      "Ġacqu": 1343,
      "Ġfaculty": 1344,
      "ern": 1345,
      "Ġprog": 1346,
      "Ġrule": 1347,
      "ology": 1348,
      "Ġseems": 1349,
      "gum": 1350,
      "Ġbeyond": 1351,
      "Ġear": 1352,
      "etimes": 1353,
      "ilar": 1354,
      "Ġabove": 1355,
      "Ġconstit": 1356,
      "Ġset": 1357,
      "Ġmem": 1358,
      "Ġexternal": 1359,
      "ured": 1360,
      "Ġmyself": 1361,
      "Ġorgans": 1362,
      "Ġimportant": 1363,
      "yd": 1364,
      "Ġfert": 1365,
      "ears": 1366,
      "Ġjudgement": 1367,
      "Ġabsolutely": 1368,
      "edu": 1369,
      "Ġspe": 1370,
      "ouse": 1371,
      "stances": 1372,
      "idence": 1373,
      "uliar": 1374,
      "erence": 1375,
      "epend": 1376,
      "ER": 1377,
      "ted": 1378,
      "will": 1379,
      "any": 1380,
      "Ġey": 1381,
      "erest": 1382,
      "dis": 1383,
      "Ġreally": 1384,
      "Ġobjective": 1385,
      "Ġcertainly": 1386,
      "Ġaway": 1387,
      "Ġcourse": 1388,
      "rodu": 1389,
      "Ġcharacters": 1390,
      "Ġincre": 1391,
      "Ġclosely": 1392,
      "ix": 1393,
      "les": 1394,
      "Ġest": 1395,
      "hemat": 1396,
      "ĠCollins": 1397,
      "Ġbetter": 1398,
      "ciousness": 1399,
      "atisf": 1400,
      "ild": 1401,
      "ibility": 1402,
      "Ġperfectly": 1403,
      "Ġgenus": 1404,
      "ydia": 1405,
      "air": 1406,
      "und": 1407,
      "hest": 1408,
      "atic": 1409,
      "cont": 1410,
      "Ġable": 1411,
      "augh": 1412,
      "Ġaction": 1413,
      "Ġsur": 1414,
      "ĠThey": 1415,
      "Ġprev": 1416,
      "Ġside": 1417,
      "Ġread": 1418,
      "adict": 1419,
      "ĠWickham": 1420,
      "Ġrelations": 1421,
      "fficient": 1422,
      "reason": 1423,
      "Ġel": 1424,
      "Ġquant": 1425,
      "Ġhard": 1426,
      "Ġbeings": 1427,
      "Ġtruth": 1428,
      "ĠThus": 1429,
      "Ġgroups": 1430,
      "Ġco": 1431,
      "ica": 1432,
      "Ġproceed": 1433,
      "son": 1434,
      "Ġpec": 1435,
      "Ġfriend": 1436,
      "Ġsimple": 1437,
      "Ġoccasion": 1438,
      "understanding": 1439,
      "Ġscience": 1440,
      "Ġcogit": 1441,
      "Ġanswer": 1442,
      "respond": 1443,
      "Ġrest": 1444,
      "Ill": 1445,
      "lf": 1446,
      "Ġcrit": 1447,
      "outh": 1448,
      "Ġnecessity": 1449,
      "Ġhope": 1450,
      "gener": 1451,
      "Ġcar": 1452,
      "ceived": 1453,
      "Ġmode": 1454,
      "Illustration": 1455,
      "certain": 1456,
      "she": 1457,
      "ĠU": 1458,
      "Ġster": 1459,
      "like": 1460,
      "ivis": 1461,
      "ages": 1462,
      "Ġphenomenon": 1463,
      "Ġconsidered": 1464,
      "Ġvalid": 1465,
      "Ġeas": 1466,
      "their": 1467,
      "anscendental": 1468,
      "Ġdear": 1469,
      "Ġideas": 1470,
      "Ġadvantage": 1471,
      "ined": 1472,
      "inary": 1473,
      "rib": 1474,
      "necess": 1475,
      "Ġinher": 1476,
      "ingu": 1477,
      "Ġret": 1478,
      "Ġfacts": 1479,
      "Ġpleas": 1480,
      "Ġhuman": 1481,
      "Ġpeculiar": 1482,
      "cess": 1483,
      "ribut": 1484,
      "Ġvis": 1485,
      "Ġunderstand": 1486,
      "Ġoccur": 1487,
      "Ġnamely": 1488,
      "ble": 1489,
      "oc": 1490,
      "Ġimmediate": 1491,
      "aut": 1492,
      "Ġmatter": 1493,
      "ides": 1494,
      "Ġperhaps": 1495,
      "Ġdifferences": 1496,
      "conditioned": 1497,
      "acc": 1498,
      "Ġsingle": 1499,
      "Ġcirc": 1500,
      "Ġmain": 1501,
      "Ġwhy": 1502,
      "ĠLady": 1503,
      "ĠLydia": 1504,
      "Ġhimself": 1505,
      "etermine": 1506,
      "Ġintermediate": 1507,
      "Ġresult": 1508,
      "ath": 1509,
      "Ġdifference": 1510,
      "Ġattempt": 1511,
      "Ġdirect": 1512,
      "ures": 1513,
      "ready": 1514,
      "Ġfavour": 1515,
      "Ġconcl": 1516,
      "Ġnearly": 1517,
      "Ġinstinct": 1518,
      "Ġindividuals": 1519,
      "Ġes": 1520,
      "ret": 1521,
      "ude": 1522,
      "Ġconnection": 1523,
      "Ġimportance": 1524,
      "Ġmanifold": 1525,
      "._": 1526,
      "bour": 1527,
      "requ": 1528,
      "ont": 1529,
      "Ġsure": 1530,
      "hat": 1531,
      "err": 1532,
      "ters": 1533,
      "Ġargum": 1534,
      "Ġsometimes": 1535,
      "Ġexample": 1536,
      "much": 1537,
      "use": 1538,
      "represent": 1539,
      "Ġbest": 1540,
      "Ġrather": 1541,
      "Ġmean": 1542,
      "Ġvarious": 1543,
      "posed": 1544,
      "Ġmodification": 1545,
      "action": 1546,
      "raw": 1547,
      "Ġtheory": 1548,
      "Ġonce": 1549,
      "Ġshown": 1550,
      "unity": 1551,
      "Ġaccount": 1552,
      "Ġdesc": 1553,
      "Ġorganic": 1554,
      "Ġcountry": 1555,
      "ON": 1556,
      "ian": 1557,
      "iver": 1558,
      "oid": 1559,
      "ued": 1560,
      "would": 1561,
      "Ġimag": 1562,
      "Ġwidely": 1563,
      "dist": 1564,
      "phenomen": 1565,
      "Ġresem": 1566,
      "them": 1567,
      "Ġimpro": 1568,
      "Ġextreme": 1569,
      "existence": 1570,
      "Ġparticular": 1571,
      "Ġauth": 1572,
      "ened": 1573,
      "Ġwish": 1574,
      "isation": 1575,
      "Ġself": 1576,
      "Ġnecessarily": 1577,
      "Ġlimits": 1578,
      "Ġhabits": 1579,
      "Ġke": 1580,
      "Ġsepar": 1581,
      "Ġexisting": 1582,
      ",--": 1583,
      "Ġoppos": 1584,
      "Ġinterest": 1585,
      "Ġpract": 1586,
      "Ġhighest": 1587,
      "pot": 1588,
      "Ġdem": 1589,
      "amm": 1590,
      "Ġpred": 1591,
      "Ġfollows": 1592,
      "Ġdifficulty": 1593,
      "Ġold": 1594,
      "rees": 1595,
      "Ġsatisf": 1596,
      "Ġfin": 1597,
      "Ġdest": 1598,
      "Ġgl": 1599,
      "Ġproof": 1600,
      "Ġshort": 1601,
      "ĠThere": 1602,
      "ĠAmer": 1603,
      "Ġleft": 1604,
      "Ġenough": 1605,
      "Ġentire": 1606,
      "Ġprobably": 1607,
      "Ġchanges": 1608,
      "row": 1609,
      "ull": 1610,
      "erous": 1611,
      "Ġmother": 1612,
      "they": 1613,
      "apable": 1614,
      "experience": 1615,
      "akes": 1616,
      "Ġgreater": 1617,
      "Ġassert": 1618,
      "Ġinsects": 1619,
      "fe": 1620,
      "icate": 1621,
      "Ġgu": 1622,
      "Ġintellig": 1623,
      "Ġemb": 1624,
      "Ġdepend": 1625,
      "den": 1626,
      "lu": 1627,
      "some": 1628,
      "Ġallied": 1629,
      "hens": 1630,
      "Ġrepresentations": 1631,
      "conceptions": 1632,
      "We": 1633,
      "do": 1634,
      "go": 1635,
      "sens": 1636,
      "ĠV": 1637,
      "irm": 1638,
      "Ġvariations": 1639,
      "ĠHence": 1640,
      "overed": 1641,
      "Ġunivers": 1642,
      "ĠWhen": 1643,
      "Ġsimilar": 1644,
      "ĠRe": 1645,
      "Ġsuccessive": 1646,
      "Ġright": 1647,
      "onstr": 1648,
      "eng": 1649,
      "Ġdetermine": 1650,
      "ately": 1651,
      "Ġran": 1652,
      "Ġanything": 1653,
      "been": 1654,
      "oured": 1655,
      "alk": 1656,
      "orm": 1657,
      "Ġformed": 1658,
      "If": 1659,
      "TI": 1660,
      "_,": 1661,
      "ock": 1662,
      "Ġsince": 1663,
      "Ġpar": 1664,
      "Ġstri": 1665,
      "ĠCh": 1666,
      "what": 1667,
      "urpr": 1668,
      "Ġcauses": 1669,
      "ales": 1670,
      "Ġdog": 1671,
      "ceive": 1672,
      "abl": 1673,
      "Ġalready": 1674,
      "Ġcategories": 1675,
      "was": 1676,
      "Ġtot": 1677,
      "Ġconv": 1678,
      "urther": 1679,
      "Ġallow": 1680,
      "uss": 1681,
      "Ġsubstance": 1682,
      "atherine": 1683,
      "comm": 1684,
      "conditions": 1685,
      "Ġhybrids": 1686,
      "ĠK": 1687,
      "ons": 1688,
      "Ġdown": 1689,
      "ext": 1690,
      "Ġ18": 1691,
      "Ġcontains": 1692,
      "Ġcorrespond": 1693,
      "Ġut": 1694,
      "only": 1695,
      "Ġislands": 1696,
      "Ġland": 1697,
      "Ġliving": 1698,
      "Ġadapt": 1699,
      "sub": 1700,
      "Ġstrong": 1701,
      "ead": 1702,
      "perfect": 1703,
      "Ġdeveloped": 1704,
      "Ġphilosophy": 1705,
      "known": 1706,
      "Ġquantity": 1707,
      "Ġhardly": 1708,
      "inter": 1709,
      "rehens": 1710,
      "Ġinfinite": 1711,
      "Ġarri": 1712,
      "Ġdetermination": 1713,
      "Ġflowers": 1714,
      "Ġdiscover": 1715,
      "Ġsuppose": 1716,
      "cas": 1717,
      "ger": 1718,
      "ishes": 1719,
      "Ġcare": 1720,
      "ules": 1721,
      "Ġstru": 1722,
      "Ġspeculative": 1723,
      "igr": 1724,
      "Ġanimal": 1725,
      "Ġlogical": 1726,
      "ma": 1727,
      "unt": 1728,
      "Ġturn": 1729,
      "ences": 1730,
      "Ġphys": 1731,
      "oment": 1732,
      "ety": 1733,
      "erent": 1734,
      "aced": 1735,
      "Ġdiffer": 1736,
      "ĠĠĠĠĠĠĠĠĠĠĠĠĠĠĠĠĠĠĠĠĠĠĠĠĠĠĠĠĠĠĠĠ": 1737,
      "Ġassum": 1738,
      "Ġbegin": 1739,
      "Ġslow": 1740,
      "Ġreturn": 1741,
      "Ġtaken": 1742,
      "Ġfree": 1743,
      "Ġfather": 1744,
      "arked": 1745,
      "Ġearly": 1746,
      "Ġseeds": 1747,
      "tained": 1748,
      "unction": 1749,
      "urop": 1750,
      "Ġwant": 1751,
      "Ġfour": 1752,
      "Ġhouse": 1753,
      "Ġdaugh": 1754,
      "osm": 1755,
      "ively": 1756,
      "Ġcontent": 1757,
      "Ġcausality": 1758,
      "On": 1759,
      "ĠYou": 1760,
      "itude": 1761,
      "org": 1762,
      "Ġourselves": 1763,
      "onder": 1764,
      "aves": 1765,
      "Ġconnected": 1766,
      "Ġanalog": 1767,
      "princi": 1768,
      "urope": 1769,
      "cogn": 1770,
      "sist": 1771,
      "val": 1772,
      "inion": 1773,
      "Ġsaw": 1774,
      "Ġdone": 1775,
      "Ġdedu": 1776,
      "lem": 1777,
      "Ġpreser": 1778,
      "Ġcompletely": 1779,
      "Ġindividual": 1780,
      "cing": 1781,
      "Ġaim": 1782,
      "Ġyears": 1783,
      "estig": 1784,
      "Ġconsciousness": 1785,
      "ized": 1786,
      "Ġagainst": 1787,
      "Ġroom": 1788,
      "AL": 1789,
      "possible": 1790,
      "read": 1791,
      "Ġdivis": 1792,
      "Ġhead": 1793,
      "aphys": 1794,
      "Ġindepend": 1795,
      "ollen": 1796,
      "Ġeffects": 1797,
      "Ġanaly": 1798,
      "AP": 1799,
      "you": 1800,
      "Ġsex": 1801,
      "Ġhear": 1802,
      "Ġentirely": 1803,
      "wor": 1804,
      "Ġcre": 1805,
      "Ġlead": 1806,
      "spring": 1807,
      "ĠOf": 1808,
      "Ġhighly": 1809,
      "CH": 1810,
      "must": 1811,
      "ising": 1812,
      "Ġtowards": 1813,
      "Ġvary": 1814,
      "Ġexists": 1815,
      "produ": 1816,
      "ooked": 1817,
      "aneous": 1818,
      "This": 1819,
      "Ġconcern": 1820,
      "Ġinhabitants": 1821,
      "ige": 1822,
      "Ġte": 1823,
      "ines": 1824,
      "erc": 1825,
      "Ġpos": 1826,
      "these": 1827,
      "Ġfelt": 1828,
      "fully": 1829,
      "Ġhigher": 1830,
      "ength": 1831,
      "des": 1832,
      "hav": 1833,
      "tic": 1834,
      "ational": 1835,
      "Ġsum": 1836,
      "atever": 1837,
      "riage": 1838,
      "ĠCon": 1839,
      "being": 1840,
      "Ġextinct": 1841,
      "Ġdevelopment": 1842,
      "Ġmathemat": 1843,
      "sc": 1844,
      "Ġden": 1845,
      "ote": 1846,
      "Ġwhose": 1847,
      "ĠCatherine": 1848,
      "Ġapplic": 1849,
      "Ġdistingu": 1850,
      "ignor": 1851,
      "Ġimmediately": 1852,
      "II": 1853,
      "TER": 1854,
      "ery": 1855,
      "aint": 1856,
      "ĠAll": 1857,
      "new": 1858,
      "Ġcrossed": 1859,
      "Ġbreeds": 1860,
      "Ġspeak": 1861,
      ").": 1862,
      "body": 1863,
      "more": 1864,
      "ata": 1865,
      "Ġbody": 1866,
      "anation": 1867,
      "Ġmis": 1868,
      "alf": 1869,
      "Ġdraw": 1870,
      "Ġexcept": 1871,
      "Ġsole": 1872,
      "cient": 1873,
      "Ġneither": 1874,
      "intuition": 1875,
      "Ġsensibility": 1876,
      "Ġinfer": 1877,
      "determin": 1878,
      "fort": 1879,
      "lar": 1880,
      "Ġtill": 1881,
      "Ġaid": 1882,
      "Ġsou": 1883,
      "Ġfurther": 1884,
      "Ġsupposed": 1885,
      "ape": 1886,
      "ruction": 1887,
      "Ġamong": 1888,
      "Ġadmit": 1889,
      "Ġcircum": 1890,
      "Ġpractical": 1891,
      "Ġsurpr": 1892,
      "Ġformation": 1893,
      "Ġregress": 1894,
      "ĠThat": 1895,
      "Ġlikewise": 1896,
      "uck": 1897,
      "vation": 1898,
      "rem": 1899,
      "Ġbas": 1900,
      "Ġinqu": 1901,
      "Ġmoment": 1902,
      "orph": 1903,
      "ĠThese": 1904,
      "Ġaccord": 1905,
      "Ġcompar": 1906,
      "Ġjudgements": 1907,
      "Ġemployed": 1908,
      "imentary": 1909,
      "Ġwords": 1910,
      "Ġletter": 1911,
      "ax": 1912,
      "how": 1913,
      "ra": 1914,
      "Ġcame": 1915,
      "ember": 1916,
      "Ġabs": 1917,
      "Ġamount": 1918,
      "Ġdiscuss": 1919,
      "Ġcontrary": 1920,
      "natural": 1921,
      "Ġerr": 1922,
      "Ġwr": 1923,
      "Ġconsequ": 1924,
      "Ġpropositions": 1925,
      "Ġsystematic": 1926,
      "Ġdifficult": 1927,
      "bec": 1928,
      "fl": 1929,
      "Ġpur": 1930,
      "Ġprof": 1931,
      "Ġrare": 1932,
      "ĠWith": 1933,
      "Ġleg": 1934,
      "Ġproduce": 1935,
      "Ġvariety": 1936,
      "Ġhabit": 1937,
      "Ġconclusion": 1938,
      "enit": 1939,
      "Ġcur": 1940,
      "asmuch": 1941,
      "Ġlove": 1942,
      "theless": 1943,
      "contr": 1944,
      "Ġperman": 1945,
      "ardin": 1946,
      "Ġeverything": 1947,
      "ifications": 1948,
      "Ġbelief": 1949,
      "pothe": 1950,
      "EN": 1951,
      "Ġsour": 1952,
      "Ġconclud": 1953,
      "ĠTo": 1954,
      "olly": 1955,
      "ossil": 1956,
      "Ġunconditioned": 1957,
      "Ġcognitions": 1958,
      "Ġcolour": 1959,
      "Ġeyes": 1960,
      "APTER": 1961,
      "CHAPTER": 1962,
      "where": 1963,
      "Ġder": 1964,
      "Ġbear": 1965,
      "charact": 1966,
      "Ġsea": 1967,
      "Ġprocess": 1968,
      "Ġneg": 1969,
      "Ġextent": 1970,
      "Ġattention": 1971,
      "Ġregarded": 1972,
      "Ġopinion": 1973,
      "pecially": 1974,
      "ev": 1975,
      "ob": 1976,
      "Ġmamm": 1977,
      "Ġbeaut": 1978,
      "Ġwhom": 1979,
      "ection": 1980,
      "Ġneed": 1981,
      "Ġpresented": 1982,
      "Ġpresu": 1983,
      "Ġcontradict": 1984,
      "ĠAmerica": 1985,
      "num": 1986,
      "pre": 1987,
      "Ġsize": 1988,
      "Ġwonder": 1989,
      "Ġpollen": 1990,
      "Ġfall": 1991,
      "Ġperson": 1992,
      "Ġexisted": 1993,
      "ĠEurope": 1994,
      "Ġrelated": 1995,
      "ĠDr": 1996,
      "Ġarr": 1997,
      "ĠPro": 1998,
      "comple": 1999,
      "Ġbelonging": 2000,
      "necessary": 2001,
      "phenomena": 2002,
      "ison": 2003,
      "Ġlength": 2004,
      "Ġformations": 2005,
      "Ġdefin": 2006,
      "ĠSt": 2007,
      "Ġgrow": 2008,
      "ethod": 2009,
      "Ġconditioned": 2010,
      "Ġreplied": 2011,
      "Ġpret": 2012,
      "Ġremains": 2013,
      "izz": 2014,
      "ialect": 2015,
      "Ġlimit": 2016,
      "Ġappearance": 2017,
      "ggle": 2018,
      "Ġopen": 2019,
      "Ġestabl": 2020,
      "contin": 2021,
      "dden": 2022,
      "ires": 2023,
      "lp": 2024,
      "same": 2025,
      "xt": 2026,
      "Ġancient": 2027,
      "Ġplant": 2028,
      "Ġfollowing": 2029,
      "Ġperiods": 2030,
      "Ġende": 2031,
      "Ġpoints": 2032,
      "Ġwater": 2033,
      "Ġcell": 2034,
      "Ġsudden": 2035,
      "ĠSo": 2036,
      "Ġvariation": 2037,
      "reedom": 2038,
      "Ġexplanation": 2039,
      "Ġelse": 2040,
      "She": 2041,
      "him": 2042,
      "may": 2043,
      "mod": 2044,
      "oint": 2045,
      "sim": 2046,
      "ton": 2047,
      "Ġignor": 2048,
      "Ġav": 2049,
      "Ġfore": 2050,
      "Ġgir": 2051,
      "Ġund": 2052,
      "ically": 2053,
      "empirical": 2054,
      "Ġrational": 2055,
      "udimentary": 2056,
      "Ġleave": 2057,
      "Ġkinds": 2058,
      "Ġinflu": 2059,
      "Ġadded": 2060,
      "Ġpleasure": 2061,
      "izzy": 2062,
      "aim": 2063,
      "ched": 2064,
      "great": 2065,
      "arl": 2066,
      "Ġlow": 2067,
      "Ġstep": 2068,
      "ached": 2069,
      "ĠLong": 2070,
      "Ġconting": 2071,
      "Ġregards": 2072,
      "ĠGardin": 2073,
      "Ġgeological": 2074,
      "Ġsterility": 2075,
      "Ġeasily": 2076,
      "Ġresembl": 2077,
      "cognition": 2078,
      "Ġpe": 2079,
      "Ġfrequ": 2080,
      "orn": 2081,
      "Ġegg": 2082,
      "Ġsufficient": 2083,
      "umul": 2084,
      "const": 2085,
      "Ġdisapp": 2086,
      "Ġgives": 2087,
      "Ġpreced": 2088,
      "Ġextens": 2089,
      "Ġoffspring": 2090,
      "Ġinvestig": 2091,
      "Ġdescendants": 2092,
      "Ġembry": 2093,
      "HE": 2094,
      "ew": 2095,
      "Ġ[": 2096,
      "Ġtell": 2097,
      "icates": 2098,
      "ctr": 2099,
      "Ġgent": 2100,
      "Ġeng": 2101,
      "Ġfoundation": 2102,
      "nature": 2103,
      "consid": 2104,
      "eared": 2105,
      "his": 2106,
      "such": 2107,
      "Ġsign": 2108,
      "ndered": 2109,
      "Ġful": 2110,
      "Ġmin": 2111,
      "iles": 2112,
      "Ġdef": 2113,
      "Ġplay": 2114,
      "without": 2115,
      "Ġargument": 2116,
      "cle": 2117,
      "Ġback": 2118,
      "Ġmater": 2119,
      "icism": 2120,
      "Ġseed": 2121,
      "Ġmeet": 2122,
      "aph": 2123,
      "ĠNor": 2124,
      "Ġcomplex": 2125,
      "Ġflower": 2126,
      "Ġincrease": 2127,
      "Ġopposite": 2128,
      "ĠReason": 2129,
      "When": 2130,
      "iam": 2131,
      "lim": 2132,
      "Ġident": 2133,
      "Ġcried": 2134,
      "alse": 2135,
      "Ġhalf": 2136,
      "Ġget": 2137,
      "roy": 2138,
      "Ġrules": 2139,
      "Ġapplied": 2140,
      "exp": 2141,
      "ief": 2142,
      "Ġgrounds": 2143,
      "Ġprogress": 2144,
      "every": 2145,
      "Ġtal": 2146,
      "ises": 2147,
      "Ġcapable": 2148,
      "Ġinclud": 2149,
      "selection": 2150,
      "Ġline": 2151,
      "Ġlooked": 2152,
      "utes": 2153,
      "Ġplain": 2154,
      "Ġproductions": 2155,
      "Ġnumbers": 2156,
      "Ġbran": 2157,
      "Ġrequire": 2158,
      "Ġdescended": 2159,
      "Ġmembers": 2160,
      "aci": 2161,
      "has": 2162,
      "time": 2163,
      "ucas": 2164,
      "Ġbene": 2165,
      "ley": 2166,
      "eties": 2167,
      "ify": 2168,
      "Ġexc": 2169,
      "resh": 2170,
      "thern": 2171,
      "Ġimm": 2172,
      "Ġevidence": 2173,
      "Ġextend": 2174,
      "Ġdiscovered": 2175,
      "Ġcontained": 2176,
      "shire": 2177,
      "Ġhappiness": 2178,
      "Ġsuccession": 2179,
      "Ġequal": 2180,
      "Ġsett": 2181,
      "And": 2182,
      "pe": 2183,
      "Ġche": 2184,
      "Ġnest": 2185,
      "Ġdivers": 2186,
      "subject": 2187,
      "Ġobli": 2188,
      "Ġuseful": 2189,
      "Ġobserved": 2190,
      "different": 2191,
      "Ġtendency": 2192,
      "bourn": 2193,
      "Ġtotality": 2194,
      "ercise": 2195,
      "Ġapplication": 2196,
      "ĠGardiner": 2197,
      "As": 2198,
      "day": 2199,
      "occ": 2200,
      "tw": 2201,
      "Ġess": 2202,
      "otte": 2203,
      "ided": 2204,
      "antly": 2205,
      "ousand": 2206,
      "Ġnaturalists": 2207,
      "pposition": 2208,
      "Ġcompet": 2209,
      "Ġthinking": 2210,
      "Ġbrought": 2211,
      "Ġsupport": 2212,
      "lected": 2213,
      "relation": 2214,
      "Ġespecially": 2215,
      "Ġauthor": 2216,
      "Ġdemonstr": 2217,
      "rehension": 2218,
      "arlotte": 2219,
      "had": 2220,
      "mere": 2221,
      "Ġsk": 2222,
      "Ġinasmuch": 2223,
      "Ġmethod": 2224,
      "Ġnon": 2225,
      "Ġlay": 2226,
      "uture": 2227,
      "ounds": 2228,
      "Ġrepresented": 2229,
      "Ġlonger": 2230,
      "iously": 2231,
      "Ġexplain": 2232,
      "Ġlogic": 2233,
      "therefore": 2234,
      "AN": 2235,
      "my": 2236,
      "when": 2237,
      "Ġsol": 2238,
      "eness": 2239,
      "Ġfossil": 2240,
      "origin": 2241,
      "Ġdue": 2242,
      "Ġwhatever": 2243,
      "Ġfort": 2244,
      "tern": 2245,
      "Ġheard": 2246,
      "ives": 2247,
      "Ġchap": 2248,
      "Ġserv": 2249,
      "Ġstrict": 2250,
      "Ġemployment": 2251,
      "Ġaffin": 2252,
      "cannot": 2253,
      "Ġclear": 2254,
      "Ġdescent": 2255,
      "Ġdivision": 2256,
      "!âĢĿ": 2257,
      "cceed": 2258,
      "get": 2259,
      "ks": 2260,
      "ped": 2261,
      "rust": 2262,
      "Ġmot": 2263,
      "omy": 2264,
      "Ġlower": 2265,
      "Ġexact": 2266,
      "Ġproved": 2267,
      "ĠBe": 2268,
      "Ġremain": 2269,
      "Ġformerly": 2270,
      "matical": 2271,
      "transcendental": 2272,
      "Ġvalue": 2273,
      "Ġfeelings": 2274,
      "Ġbeginning": 2275,
      "organ": 2276,
      "Ġsolely": 2277,
      "fr": 2278,
      "field": 2279,
      "anim": 2280,
      "Ġmention": 2281,
      "Ġhom": 2282,
      "etr": 2283,
      "adies": 2284,
      "Ġintrodu": 2285,
      "ĠSir": 2286,
      "ĠHow": 2287,
      "Ġsubjective": 2288,
      "iqu": 2289,
      "som": 2290,
      "water": 2291,
      "Ġaunt": 2292,
      "ining": 2293,
      "rest": 2294,
      "Ġsil": 2295,
      "Ġce": 2296,
      "Ġbased": 2297,
      "Ġfem": 2298,
      "Ġfull": 2299,
      "ossibility": 2300,
      "Ġplaced": 2301,
      "ordin": 2302,
      "duct": 2303,
      "forms": 2304,
      "isms": 2305,
      "Ġprobable": 2306,
      "Ġquestions": 2307,
      "Ġsche": 2308,
      "Ġrock": 2309,
      "Ġchanged": 2310,
      "Ġprevent": 2311,
      "Ġinherited": 2312,
      "ĠX": 2313,
      "rect": 2314,
      "erable": 2315,
      "Ġfalse": 2316,
      "Ġmigr": 2317,
      "term": 2318,
      "Ġspecial": 2319,
      "well": 2320,
      "Ġaccumul": 2321,
      "ĠNo": 2322,
      "Ġintuitions": 2323,
      "ĠGe": 2324,
      "Ġhypothe": 2325,
      "Ġvisit": 2326,
      "Ġ&": 2327,
      "Ġage": 2328,
      "inc": 2329,
      "Ġcosm": 2330,
      "Ġlies": 2331,
      "ours": 2332,
      "Ġnext": 2333,
      "ĠWhat": 2334,
      "rupt": 2335,
      "comp": 2336,
      "Ġcontinued": 2337,
      "Ġhappy": 2338,
      "Ġearth": 2339,
      "Ġextremely": 2340,
      "Ġaccordance": 2341,
      "isp": 2342,
      "arn": 2343,
      "import": 2344,
      "Ġlight": 2345,
      "ularly": 2346,
      "ĠMy": 2347,
      "Ġunknown": 2348,
      "ĠĠĠĠĠĠĠĠĠĠĠĠ": 2349,
      "Ġabstr": 2350,
      "ĠHer": 2351,
      "ĠLucas": 2352,
      "Ġfeet": 2353,
      "Ġdistinction": 2354,
      "ĠPure": 2355,
      "Ġthroughout": 2356,
      "Ġremarks": 2357,
      "Ġprogenit": 2358,
      "Ġintelligible": 2359,
      "ctrine": 2360,
      "bet": 2361,
      "cross": 2362,
      "jo": 2363,
      "ranscendental": 2364,
      "Ġtimes": 2365,
      "Ġpu": 2366,
      "Ġfuture": 2367,
      "Ġmen": 2368,
      "Ġhome": 2369,
      "Ġdiver": 2370,
      "cean": 2371,
      "ĠTHE": 2372,
      "connect": 2373,
      "ĠAt": 2374,
      "Ġchance": 2375,
      "Ġappro": 2376,
      "Ġapparent": 2377,
      "Ġevident": 2378,
      "formed": 2379,
      "Ġremarkable": 2380,
      "Ġpassed": 2381,
      "Ġmoral": 2382,
      "attle": 2383,
      "Ġvalidity": 2384,
      "Ġutter": 2385,
      "Ġgirl": 2386,
      "ĠLongbourn": 2387,
      "Ġfully": 2388,
      "could": 2389,
      "equ": 2390,
      "ling": 2391,
      "ting": 2392,
      "Â§": 2393,
      "Ġ4": 2394,
      "ĠY": 2395,
      "Ġtem": 2396,
      "itz": 2397,
      "Ġciv": 2398,
      "alog": 2399,
      "ingly": 2400,
      "Ġhold": 2401,
      "ctive": 2402,
      "Ġrender": 2403,
      "Ġprov": 2404,
      "usions": 2405,
      "ogether": 2406,
      "who": 2407,
      "ĠNat": 2408,
      "Ġbecom": 2409,
      "Ġagree": 2410,
      "Ġlarger": 2411,
      "synthe": 2412,
      "Ġmetaphys": 2413,
      "Ġfertility": 2414,
      "ribution": 2415,
      "Ġinfluence": 2416,
      "He": 2417,
      "inced": 2418,
      "anced": 2419,
      "lying": 2420,
      "Ġrendered": 2421,
      "lls": 2422,
      "Ġlost": 2423,
      "Ġgone": 2424,
      "Ġotherwise": 2425,
      "ĠLizzy": 2426,
      "Ġadmitted": 2427,
      "should": 2428,
      "Ġphilosopher": 2429,
      "Ġaffection": 2430,
      "Ġcogitated": 2431,
      "TION": 2432,
      "Ġstruggle": 2433,
      "Ġdaughter": 2434,
      "Ġinquir": 2435,
      "Ġpermanent": 2436,
      "For": 2437,
      "mitted": 2438,
      "whether": 2439,
      "Ġsort": 2440,
      "erception": 2441,
      "ati": 2442,
      "Ġfreedom": 2443,
      "Ġmount": 2444,
      "Ġdialect": 2445,
      "Ġladies": 2446,
      "Ġspo": 2447,
      "Ġnear": 2448,
      "Ġvariability": 2449,
      "onel": 2450,
      "Ġused": 2451,
      "Ġclimate": 2452,
      "cedure": 2453,
      "ressed": 2454,
      "Ġnumerous": 2455,
      "Ġaffected": 2456,
      "Ġinherit": 2457,
      "Ġfavourable": 2458,
      "Ġcorresponding": 2459,
      "call": 2460,
      "ering": 2461,
      "itive": 2462,
      "Ġpowers": 2463,
      "Ġfresh": 2464,
      "Ġmon": 2465,
      "Ġtold": 2466,
      "Ġdet": 2467,
      "ster": 2468,
      "enty": 2469,
      "Ġconfin": 2470,
      "Ġann": 2471,
      "Ġsucceed": 2472,
      "used": 2473,
      "Ġformal": 2474,
      "consequently": 2475,
      "ĠAr": 2476,
      "Ġchief": 2477,
      "ĠCol": 2478,
      "Ġrelate": 2479,
      "itty": 2480,
      "Ġgreatly": 2481,
      "Ġlimited": 2482,
      "Ġendeavour": 2483,
      "ken": 2484,
      "together": 2485,
      "Ġtreat": 2486,
      "hend": 2487,
      "Ġsit": 2488,
      "ĠĠĠ": 2489,
      "Ġexercise": 2490,
      "Ġsuff": 2491,
      "than": 2492,
      "ilies": 2493,
      "ement": 2494,
      "Ġra": 2495,
      "Ġrange": 2496,
      "Ġrudimentary": 2497,
      "Ġevent": 2498,
      "itting": 2499,
      "Ġ11": 2500,
      "Ġbrother": 2501,
      "etherfield": 2502,
      "Ġsisters": 2503,
      "Ġuniversal": 2504,
      "Ġslowly": 2505,
      "Ġdistinguish": 2506,
      "Ġeggs": 2507,
      "Ġchapter": 2508,
      "ford": 2509,
      "were": 2510,
      "Ġwal": 2511,
      "Ġmaking": 2512,
      "although": 2513,
      "Ġwholly": 2514,
      "Ġlive": 2515,
      "iful": 2516,
      "Ġprop": 2517,
      "rial": 2518,
      "aged": 2519,
      "Ġremarked": 2520,
      "Ġevening": 2521,
      "Ġexpected": 2522,
      "Ġinstincts": 2523,
      "Ġphysical": 2524,
      "ĠProf": 2525,
      "no": 2526,
      "itation": 2527,
      "Ġput": 2528,
      "Ġfood": 2529,
      "oman": 2530,
      "Ġconver": 2531,
      "Ġconduct": 2532,
      "urally": 2533,
      "erences": 2534,
      "Ġvol": 2535,
      "ĠHis": 2536,
      "belie": 2537,
      "Ġcognize": 2538,
      "Ġorganisation": 2539,
      "Ġseemed": 2540,
      "Ġmorning": 2541,
      "Ġclearly": 2542,
      "Ġeye": 2543,
      "Ġsoul": 2544,
      "bit": 2545,
      "men": 2546,
      "preme": 2547,
      "Ġair": 2548,
      "Ġsix": 2549,
      "Ġbar": 2550,
      "Ġbeak": 2551,
      "omin": 2552,
      "Ġattain": 2553,
      "individ": 2554,
      "aws": 2555,
      "Ġoccup": 2556,
      "Ġexpression": 2557,
      "Ġpredicate": 2558,
      "Ġbasis": 2559,
      "contradict": 2560,
      "each": 2561,
      "ony": 2562,
      "Ġwent": 2563,
      "Ġhon": 2564,
      "Ġhist": 2565,
      "Ġbees": 2566,
      "ston": 2567,
      "Ġconform": 2568,
      "Ġasked": 2569,
      "Ġunt": 2570,
      "Ġarea": 2571,
      "Ġprove": 2572,
      "Ġprim": 2573,
      "Ġmodifications": 2574,
      "ĠOF": 2575,
      "Ġseeing": 2576,
      "Ġproperly": 2577,
      "Ġexplained": 2578,
      "That": 2579,
      "Ġdecl": 2580,
      "ixed": 2581,
      "Ġoccasionally": 2582,
      "Ġimproved": 2583,
      "Ġdestroy": 2584,
      "going": 2585,
      "Ġadapted": 2586,
      "Ġessent": 2587,
      "Now": 2588,
      "zo": 2589,
      "Ġsent": 2590,
      "Ġprom": 2591,
      "arce": 2592,
      "cell": 2593,
      "iments": 2594,
      "Ġunless": 2595,
      "Ġvariable": 2596,
      "Ġgenerations": 2597,
      "Ġjo": 2598,
      "Ġdistant": 2599,
      "proc": 2600,
      "Ġsenses": 2601,
      "varieties": 2602,
      "Ġconstitution": 2603,
      "disc": 2604,
      "Ġimagination": 2605,
      "Ġkeep": 2606,
      "Ġmammals": 2607,
      "Ġarrange": 2608,
      "acial": 2609,
      "_.": 2610,
      "Ġve": 2611,
      "ites": 2612,
      "Ġbre": 2613,
      "let": 2614,
      "Ġcomb": 2615,
      "Ġdelight": 2616,
      "Ġplan": 2617,
      "Ġideal": 2618,
      "Ġ14": 2619,
      "Ġordinary": 2620,
      "Ġrequires": 2621,
      "Ġbelongs": 2622,
      "Ġclasses": 2623,
      "Ġtermed": 2624,
      "portion": 2625,
      "regard": 2626,
      "ĠUn": 2627,
      "Ġkept": 2628,
      "igeon": 2629,
      "Ġposition": 2630,
      "Ġexactly": 2631,
      "Ġpubl": 2632,
      "arcely": 2633,
      "My": 2634,
      "Oh": 2635,
      "oice": 2636,
      "Ġopp": 2637,
      "itself": 2638,
      "Ġwild": 2639,
      "Ġthird": 2640,
      "Ġthousand": 2641,
      "arr": 2642,
      "Ġlist": 2643,
      "Ġlines": 2644,
      "ected": 2645,
      "Ġhelp": 2646,
      "Ġuncle": 2647,
      "ĠSouth": 2648,
      "une": 2649,
      "ellect": 2650,
      "iction": 2651,
      "formation": 2652,
      "Ġhappens": 2653,
      "Ġbegan": 2654,
      "Ġsterile": 2655,
      "Ġmeaning": 2656,
      "Ġconvinced": 2657,
      "IN": 2658,
      "even": 2659,
      "face": 2660,
      "gment": 2661,
      "oved": 2662,
      "priori": 2663,
      "ries": 2664,
      "ram": 2665,
      "vals": 2666,
      "yn": 2667,
      "asing": 2668,
      "Ġprocedure": 2669,
      "Ġstage": 2670,
      "nothing": 2671,
      "duced": 2672,
      "Ġrepe": 2673,
      "Ġjud": 2674,
      "Ġregion": 2675,
      "aving": 2676,
      "ĠNew": 2677,
      "Ġappears": 2678,
      "Ġequally": 2679,
      "principle": 2680,
      "Ġconsequence": 2681,
      "after": 2682,
      "Ġaw": 2683,
      "rehend": 2684,
      "Ġcent": 2685,
      "Ġbus": 2686,
      "Ġins": 2687,
      "Ġfo": 2688,
      "Ġmist": 2689,
      "Ġreceived": 2690,
      "Ġconvers": 2691,
      "ulation": 2692,
      "Ġaddition": 2693,
      "acy": 2694,
      "Ġparty": 2695,
      "Ġapply": 2696,
      "expl": 2697,
      "Ġdistribution": 2698,
      "Ġgreatest": 2699,
      "ishment": 2700,
      "Ġdesign": 2701,
      "Ġbring": 2702,
      "ustral": 2703,
      "Ġcrosses": 2704,
      "Ġoriginal": 2705,
      "Ġelement": 2706,
      "Ġacquired": 2707,
      "ĠCharlotte": 2708,
      "ĠKitty": 2709,
      "Ġcircumstances": 2710,
      "Ġsource": 2711,
      "Ġcells": 2712,
      "two": 2713,
      "Ġtemper": 2714,
      "All": 2715,
      "OR": 2716,
      "ches": 2717,
      "possibility": 2718,
      "ren": 2719,
      "Ġfive": 2720,
      "omp": 2721,
      "uted": 2722,
      "Ġsupreme": 2723,
      "Ġspir": 2724,
      "Ġstud": 2725,
      "riv": 2726,
      "Ġcoming": 2727,
      "ciproc": 2728,
      "arest": 2729,
      "ĠSuch": 2730,
      "Ġappeared": 2731,
      "Ġapprehension": 2732,
      "ĠNetherfield": 2733,
      "sufficient": 2734,
      "ouble": 2735,
      "Ġactual": 2736,
      "ighbour": 2737,
      "upreme": 2738,
      "Ġparents": 2739,
      "objects": 2740,
      "aintance": 2741,
      "Ġdefinition": 2742,
      "rustace": 2743,
      "called": 2744,
      "ĠColonel": 2745,
      "There": 2746,
      "ople": 2747,
      "pi": 2748,
      "ties": 2749,
      "Ġed": 2750,
      "Ġoper": 2751,
      "always": 2752,
      "alÃ¦": 2753,
      "Ġtown": 2754,
      "Ġdim": 2755,
      "Ġnotion": 2756,
      "Ġareas": 2757,
      "Ġheart": 2758,
      "Ġhence": 2759,
      "ume": 2760,
      "Ġconsists": 2761,
      "Ġtransition": 2762,
      "Ġmarry": 2763,
      "Ġgoing": 2764,
      "Ġaffirm": 2765,
      "Ġcogitate": 2766,
      "ribute": 2767,
      "character": 2768,
      "ique": 2769,
      "happ": 2770,
      "lies": 2771,
      "pres": 2772,
      "Ġ5": 2773,
      "Ġ7": 2774,
      "Ġow": 2775,
      "ones": 2776,
      "Ġsa": 2777,
      "esides": 2778,
      "Ġmult": 2779,
      "orse": 2780,
      "Ġgave": 2781,
      "ption": 2782,
      "Ġdev": 2783,
      "odies": 2784,
      "Ġpersu": 2785,
      "Ġdoctrine": 2786,
      "Ġknew": 2787,
      "ordinary": 2788,
      "Ġdisp": 2789,
      "Ġrelates": 2790,
      "Ġreprodu": 2791,
      "Ġarise": 2792,
      "Ġpurely": 2793,
      "Ġsubstances": 2794,
      "anges": 2795,
      "teness": 2796,
      "Ġbelieved": 2797,
      "Ġslightly": 2798,
      "Mrs": 2799,
      "according": 2800,
      "Ġrank": 2801,
      "Ġerror": 2802,
      "complete": 2803,
      "00": 2804,
      "How": 2805,
      "eal": 2806,
      "first": 2807,
      "giv": 2808,
      "never": 2809,
      "Ġtrees": 2810,
      "Ġap": 2811,
      "inst": 2812,
      "Ġfurn": 2813,
      "Ġfunction": 2814,
      "Ġmut": 2815,
      "Ġmale": 2816,
      "Ġresol": 2817,
      "ĠIs": 2818,
      "istic": 2819,
      "Ġstay": 2820,
      "Ġround": 2821,
      "Ġimperfect": 2822,
      "ondon": 2823,
      "Ġafterwards": 2824,
      "Ġadmir": 2825,
      "Ġaccept": 2826,
      "sych": 2827,
      "Ġmaintain": 2828,
      "Ġabsence": 2829,
      "Ġresemblance": 2830,
      "animals": 2831,
      "Ġprogenitor": 2832,
      "IS": 2833,
      "With": 2834,
      "cor": 2835,
      "found": 2836,
      "itable": 2837,
      "Ġwoman": 2838,
      "Ġinj": 2839,
      "Ġfan": 2840,
      "Ġexposed": 2841,
      "then": 2842,
      "through": 2843,
      "Ġcompl": 2844,
      "off": 2845,
      "Ġplaces": 2846,
      "Ġextinction": 2847,
      "proposition": 2848,
      "Ġcommunity": 2849,
      "Ġnevertheless": 2850,
      "Ġcompared": 2851,
      "Ġlikely": 2852,
      "Ġelements": 2853,
      "Ġstrongly": 2854,
      "Ġdeduction": 2855,
      "Ġpreserved": 2856,
      "ĠConsequently": 2857,
      "Ġcomparison": 2858,
      "Ġderived": 2859,
      "Ġfrequently": 2860,
      "Ġmaterial": 2861,
      "Ġbenef": 2862,
      "Ġinheritance": 2863,
      "Ġuntil": 2864,
      "ES": 2865,
      "IC": 2866,
      "kind": 2867,
      "Ġaston": 2868,
      "ats": 2869,
      "Ġcold": 2870,
      "Ġthick": 2871,
      "Ġbehav": 2872,
      "asure": 2873,
      "iform": 2874,
      "Ġexcl": 2875,
      "absolute": 2876,
      "adv": 2877,
      "ĠTranscendental": 2878,
      "Ġthereby": 2879,
      "Ġworth": 2880,
      "success": 2881,
      "angu": 2882,
      "Ġ15": 2883,
      "Ġinstead": 2884,
      "Ġassured": 2885,
      "appear": 2886,
      "Ġconstruct": 2887,
      "Ġproblem": 2888,
      "Ġcontinuous": 2889,
      "Ġmarriage": 2890,
      "Ġscarcely": 2891,
      "Ġarguments": 2892,
      "distinct": 2893,
      "does": 2894,
      "Ġassume": 2895,
      "because": 2896,
      "Ġconclude": 2897,
      "given": 2898,
      ");": 2899,
      "bs": 2900,
      "band": 2901,
      "breed": 2902,
      "iour": 2903,
      "iary": 2904,
      "isite": 2905,
      "Ġharm": 2906,
      "Ġisland": 2907,
      "Ġconce": 2908,
      "Ġexper": 2909,
      "Ġstre": 2910,
      "Ġnaturally": 2911,
      "ulties": 2912,
      "ĠFrom": 2913,
      "avoured": 2914,
      "Ġtransport": 2915,
      "Ġserve": 2916,
      "Ġfollowed": 2917,
      "oubted": 2918,
      "Ġcontinent": 2919,
      "Ġrecord": 2920,
      "ailed": 2921,
      "Ġfertile": 2922,
      "themselves": 2923,
      "Ġseparated": 2924,
      "Ġindependently": 2925,
      "eryton": 2926,
      "Ġextension": 2927,
      "Ġsettled": 2928,
      "merely": 2929,
      "Ġhypothesis": 2930,
      "between": 2931,
      "Ġutterly": 2932,
      "aff": 2933,
      "good": 2934,
      "hood": 2935,
      "mit": 2936,
      "ners": 2937,
      "pes": 2938,
      "round": 2939,
      "Ġten": 2940,
      "Ġmales": 2941,
      "Ġlab": 2942,
      "room": 2943,
      "Ġexception": 2944,
      "Ġspont": 2945,
      "thus": 2946,
      "ppose": 2947,
      "usband": 2948,
      "Ġraces": 2949,
      "Ġfear": 2950,
      "Ġclim": 2951,
      "Ġconsist": 2952,
      "Ġattribut": 2953,
      "Ġsubs": 2954,
      "Ġinstances": 2955,
      "Ġdetermining": 2956,
      "ship": 2957,
      "Ġstructures": 2958,
      "Ġconsideration": 2959,
      "Ġtook": 2960,
      "hapter": 2961,
      "Ġmanifest": 2962,
      "aneously": 2963,
      "Ġservice": 2964,
      "Ġhistory": 2965,
      "ellectual": 2966,
      "pure": 2967,
      "ray": 2968,
      "Ġocean": 2969,
      "Ġsake": 2970,
      "Ġsides": 2971,
      "Ġbodies": 2972,
      "Ġincl": 2973,
      "Ġpain": 2974,
      "Ġma": 2975,
      "Ġmakes": 2976,
      "oun": 2977,
      "ican": 2978,
      "Ġnone": 2979,
      "vere": 2980,
      "Ġled": 2981,
      "Ġlink": 2982,
      "Ġproportion": 2983,
      "aded": 2984,
      "ogr": 2985,
      "ending": 2986,
      "Ġyield": 2987,
      "ĠAustral": 2988,
      "ĠSupreme": 2989,
      "many": 2990,
      "Ġmarried": 2991,
      "Ġcorrect": 2992,
      "Ġdays": 2993,
      "Ġperceptions": 2994,
      "Ġcriter": 2995,
      "general": 2996,
      "Ġdirectly": 2997,
      "representations": 2998,
      "Ġranked": 2999,
      "Ġallowed": 3000,
      "Ġcreated": 3001,
      "orphic": 3002,
      "emberley": 3003,
      "Ġpursu": 3004,
      "Ġobliged": 3005,
      "Ch": 3006,
      "What": 3007,
      "col": 3008,
      "count": 3009,
      "ging": 3010,
      "judge": 3011,
      "met": 3012,
      "Ġtable": 3013,
      "Ġactions": 3014,
      "rew": 3015,
      "Ġcous": 3016,
      "Ġpast": 3017,
      "Ġlib": 3018,
      "essor": 3019,
      "pper": 3020,
      "Ġvain": 3021,
      "conc": 3022,
      "ĠSe": 3023,
      "Ġapperception": 3024,
      "irect": 3025,
      "ĠLondon": 3026,
      "Ġclaim": 3027,
      "ĠNot": 3028,
      "oriz": 3029,
      "Ġremote": 3030,
      "Ġdeterminations": 3031,
      "Ġaccordingly": 3032,
      "Ġafford": 3033,
      "Ġfriends": 3034,
      "ribed": 3035,
      "Ġinvestigation": 3036,
      "ĠBeing": 3037,
      "To": 3038,
      "Yes": 3039,
      "gu": 3040,
      "ior": 3041,
      "Ġty": 3042,
      "Ġwings": 3043,
      "Ġpost": 3044,
      "Ġfine": 3045,
      "Ġfish": 3046,
      "orough": 3047,
      "Ġask": 3048,
      "amental": 3049,
      "Ġyear": 3050,
      "Ġprot": 3051,
      "Ġtranscend": 3052,
      "Ġdeser": 3053,
      "Ġenab": 3054,
      "Ġintervals": 3055,
      "pposes": 3056,
      "atively": 3057,
      "Ġ32": 3058,
      "Ġ34": 3059,
      "Ġ35": 3060,
      "Ġmarked": 3061,
      "Ġpossesses": 3062,
      "Ġfamilies": 3063,
      "group": 3064,
      "fficiently": 3065,
      "Ġillusion": 3066,
      "Ġcategory": 3067,
      "Ġsurv": 3068,
      "Ġsurface": 3069,
      "Ġeasy": 3070,
      "Ġresults": 3071,
      "Ġsatisfied": 3072,
      "Ġbeautiful": 3073,
      "Ġgrowth": 3074,
      "Ġsuddenly": 3075,
      "Ġpeople": 3076,
      "Ġschema": 3077,
      ".[": 3078,
      "possess": 3079,
      "uated": 3080,
      "ĠÂ§": 3081,
      "Ġter": 3082,
      "iting": 3083,
      "Ġwalk": 3084,
      "Ġpath": 3085,
      "alle": 3086,
      "Ġlady": 3087,
      "utive": 3088,
      "Ġforce": 3089,
      "osed": 3090,
      "chip": 3091,
      "those": 3092,
      "rie": 3093,
      "Ġrate": 3094,
      "Ġrise": 3095,
      "ĠSp": 3096,
      "Ġart": 3097,
      "Ġextra": 3098,
      "elag": 3099,
      "icip": 3100,
      "Ġactually": 3101,
      "Ġproperties": 3102,
      "Ġgradations": 3103,
      "Ġinhabiting": 3104,
      "Ġmember": 3105,
      "Ġincreased": 3106,
      "undamental": 3107,
      "sensuous": 3108,
      "principles": 3109,
      "Ġindependent": 3110,
      "Ġavoid": 3111,
      "Ġgentle": 3112,
      "Ġstrictly": 3113,
      "Ġarrangement": 3114,
      "Ġbusiness": 3115,
      "chipelag": 3116,
      "cent": 3117,
      "come": 3118,
      "case": 3119,
      "dom": 3120,
      "lant": 3121,
      "rary": 3122,
      "rict": 3123,
      "xi": 3124,
      "Ġver": 3125,
      "Ġir": 3126,
      "Ġsw": 3127,
      "Ġfru": 3128,
      "Ġfun": 3129,
      "Ġmas": 3130,
      "icated": 3131,
      "stood": 3132,
      "Ġexterm": 3133,
      "eced": 3134,
      "Ġintu": 3135,
      "Ġunited": 3136,
      "Ġmeant": 3137,
      "ĠWill": 3138,
      "Ġusual": 3139,
      "Ġgiving": 3140,
      "anger": 3141,
      "ĠGod": 3142,
      "Ġperfection": 3143,
      "Ġentered": 3144,
      "Ġpresence": 3145,
      "Ġviews": 3146,
      "Ġspeaking": 3147,
      "iverse": 3148,
      "Ġdepends": 3149,
      "Ġanalogous": 3150,
      "Ġsexual": 3151,
      "however": 3152,
      "Ġignorant": 3153,
      "Ġcontingent": 3154,
      "Ġpreceding": 3155,
      "cellent": 3156,
      "ihil": 3157,
      "vol": 3158,
      "Ġ6": 3159,
      "inated": 3160,
      "Ġwit": 3161,
      "Ġbu": 3162,
      "Ġinfin": 3163,
      "ank": 3164,
      "Ġdut": 3165,
      "struct": 3166,
      "Ġreciproc": 3167,
      "llog": 3168,
      "Ġlie": 3169,
      "quest": 3170,
      "seless": 3171,
      "Ġunable": 3172,
      "ode": 3173,
      "Ġrun": 3174,
      "Ġneighbour": 3175,
      "ĠAl": 3176,
      "ĠAn": 3177,
      "Ġtwenty": 3178,
      "Ġago": 3179,
      "Ġproduction": 3180,
      "Ġsensation": 3181,
      "Ġ23": 3182,
      "Ġrequired": 3183,
      "ails": 3184,
      "Ġcreation": 3185,
      "Ġsurprise": 3186,
      "Ġsteps": 3187,
      "important": 3188,
      "ĠNatural": 3189,
      "Ġbecomes": 3190,
      "Ġconversation": 3191,
      "Ġbehaviour": 3192,
      "ograph": 3193,
      "chipelago": 3194,
      "AR": 3195,
      "either": 3196,
      "hib": 3197,
      "junction": 3198,
      "miss": 3199,
      "uation": 3200,
      "Ġtest": 3201,
      "Ġack": 3202,
      "Ġapart": 3203,
      "into": 3204,
      "enc": 3205,
      "Ġbot": 3206,
      "Ġbro": 3207,
      "Ġfitted": 3208,
      "orge": 3209,
      "orous": 3210,
      "Ġthorough": 3211,
      "Ġet": 3212,
      "Ġisol": 3213,
      "imp": 3214,
      "Ġang": 3215,
      "osings": 3216,
      "think": 3217,
      "Ġstock": 3218,
      "Ġshape": 3219,
      "Ġdepos": 3220,
      "Ġadult": 3221,
      "Ġmoreover": 3222,
      "Ġdisposition": 3223,
      "poses": 3224,
      "Ġregulative": 3225,
      "They": 3226,
      "Ġsubordin": 3227,
      "anged": 3228,
      "Ġsaying": 3229,
      "Ġpoor": 3230,
      "trans": 3231,
      "Ġadvanced": 3232,
      "Ġeffected": 3233,
      "Ġcrossing": 3234,
      "develop": 3235,
      "conscious": 3236,
      "consciousness": 3237,
      "Ġlooking": 3238,
      "Ġfertil": 3239,
      "Ġoccurred": 3240,
      "Ġstriking": 3241,
      "Ġmathematical": 3242,
      "Ġmathematics": 3243,
      "something": 3244,
      "restrial": 3245,
      "Ġconfined": 3246,
      "Ġrepeated": 3247,
      "Ġacknow": 3248,
      "14": 3249,
      "94": 3250,
      "fam": 3251,
      "just": 3252,
      "po": 3253,
      "Ġball": 3254,
      "Ġfig": 3255,
      "alt": 3256,
      "ĠInd": 3257,
      "idental": 3258,
      "ech": 3259,
      "change": 3260,
      "Ġsuper": 3261,
      "ĠMeryton": 3262,
      "Ġmanners": 3263,
      "Ġthereof": 3264,
      "ope": 3265,
      "Ġgrat": 3266,
      "Ġquar": 3267,
      "ĠEx": 3268,
      "ĠEng": 3269,
      "Ġindiff": 3270,
      "class": 3271,
      "Ġprey": 3272,
      "Ġbecame": 3273,
      "ologists": 3274,
      "Ġdeterminate": 3275,
      "Ġ33": 3276,
      "Ġlarv": 3277,
      "Ġorders": 3278,
      "Ġoffer": 3279,
      "related": 3280,
      "Thus": 3281,
      "Ġblind": 3282,
      "Ġdomestication": 3283,
      "undred": 3284,
      "Ġreader": 3285,
      "Ġcriticism": 3286,
      "Ġesc": 3287,
      "Ġresemble": 3288,
      "Ġdaughters": 3289,
      "Ġaims": 3290,
      "world": 3291,
      "descend": 3292,
      "large": 3293,
      "Ġidentical": 3294,
      "Ġhonour": 3295,
      "ographical": 3296,
      "No": 3297,
      "ference": 3298,
      "gence": 3299,
      "iable": 3300,
      "sm": 3301,
      "say": 3302,
      "ying": 3303,
      "your": 3304,
      "reated": 3305,
      "itimate": 3306,
      "Ġcap": 3307,
      "Ġface": 3308,
      "Ġfield": 3309,
      "Ġmiles": 3310,
      "arch": 3311,
      "Ġhusband": 3312,
      "Ġdyn": 3313,
      "ash": 3314,
      "Ġreceive": 3315,
      "Ġlived": 3316,
      "Ġlately": 3317,
      "owed": 3318,
      "Ġspread": 3319,
      "things": 3320,
      "thought": 3321,
      "Ġsevere": 3322,
      "lier": 3323,
      "Ġcomfort": 3324,
      "Ġlearn": 3325,
      "aught": 3326,
      "Ġdisuse": 3327,
      "Ġdistrict": 3328,
      "Ġcertainty": 3329,
      "Ġdesire": 3330,
      "prob": 3331,
      "Ġyourself": 3332,
      "respect": 3333,
      "system": 3334,
      "Ġseparate": 3335,
      "Ġopposition": 3336,
      "Ġreturned": 3337,
      "having": 3338,
      "ENT": 3339,
      "Ġcontradiction": 3340,
      "Ġwonderful": 3341,
      "constit": 3342,
      "Ġengaged": 3343,
      "Jane": 3344,
      "mon": 3345,
      "Ġens": 3346,
      "inhabit": 3347,
      "Ġwing": 3348,
      "Ġwife": 3349,
      "Ġfishes": 3350,
      "Ġfixed": 3351,
      "Ġmark": 3352,
      "oud": 3353,
      "see": 3354,
      "vement": 3355,
      "irt": 3356,
      "Ġweight": 3357,
      "Ġstates": 3358,
      "ogene": 3359,
      "Ġcomes": 3360,
      "emb": 3361,
      "ĠBy": 3362,
      "Ġspecific": 3363,
      "play": 3364,
      "Ġobjections": 3365,
      "Ġpride": 3366,
      "apid": 3367,
      "Ġsomewhat": 3368,
      "Ġquick": 3369,
      "Ġdistance": 3370,
      "Ġattribute": 3371,
      "former": 3372,
      "Ġenter": 3373,
      "manner": 3374,
      "Ġrecent": 3375,
      "Ġreflection": 3376,
      "diffic": 3377,
      "Ġacquaintance": 3378,
      "representation": 3379,
      "Ġdemand": 3380,
      "Ġfinally": 3381,
      "Ġanalytical": 3382,
      "igeons": 3383,
      "Ġlegs": 3384,
      "Ġbranch": 3385,
      "Ġapparently": 3386,
      "individuals": 3387,
      "rustaceans": 3388,
      "Ġowing": 3389,
      "Ġduty": 3390,
      "Ġdynam": 3391,
      "An": 3392,
      "EC": 3393,
      "dem": 3394,
      "gin": 3395,
      "hum": 3396,
      "jor": 3397,
      "lacial": 3398,
      "Ġtri": 3399,
      "icial": 3400,
      "Ġreach": 3401,
      "Ġrestr": 3402,
      "irth": 3403,
      "Ġwee": 3404,
      "Ġcompos": 3405,
      "Ġchild": 3406,
      "Ġpartly": 3407,
      "Ġleaves": 3408,
      "Ġgeneration": 3409,
      "exam": 3410,
      "Ġpossibly": 3411,
      "iece": 3412,
      "Ġextended": 3413,
      "Ġcognized": 3414,
      "Ġages": 3415,
      "ĠPemberley": 3416,
      "Ġ10": 3417,
      "Ġ17": 3418,
      "Ġempirically": 3419,
      "pposing": 3420,
      "ivided": 3421,
      "Ġ24": 3422,
      "Ġcommonly": 3423,
      "Ġstrange": 3424,
      "Ġconstruction": 3425,
      "Ġdegrees": 3426,
      "ĠRosings": 3427,
      "Ġrecogn": 3428,
      "Ġrequisite": 3429,
      "Ġterms": 3430,
      "Ġdirection": 3431,
      "Ġnegative": 3432,
      "Ġfemale": 3433,
      "ĠGeorge": 3434,
      "ominant": 3435,
      "Ġessential": 3436,
      "Ġsafe": 3437,
      "Ġcousin": 3438,
      "allel": 3439,
      "bird": 3440,
      "fer": 3441,
      "follow": 3442,
      "nest": 3443,
      "Ã©": 3444,
      "Ġsing": 3445,
      "atch": 3446,
      "atum": 3447,
      "Ġcattle": 3448,
      "Ġfr": 3449,
      "Ġfair": 3450,
      "another": 3451,
      "Ġmed": 3452,
      "ars": 3453,
      "ctic": 3454,
      "Ġupper": 3455,
      "amb": 3456,
      "ula": 3457,
      "ccording": 3458,
      "Ġintellectual": 3459,
      "Ġuniform": 3460,
      "place": 3461,
      "ongrel": 3462,
      "intellig": 3463,
      "ĠPr": 3464,
      "Ġcomprehend": 3465,
      "Ġ28": 3466,
      "Ġclassification": 3467,
      "Ġinvol": 3468,
      "Ġanswered": 3469,
      "Ġshows": 3470,
      "ltimate": 3471,
      "airs": 3472,
      "Ġoccasional": 3473,
      "common": 3474,
      "Ġignorance": 3475,
      "Ġplainly": 3476,
      "Ġcosmological": 3477,
      "Ġmetaphysics": 3478,
      "Ġdialectical": 3479,
      "Ġwalked": 3480,
      "ĠProfessor": 3481,
      "Ġconformity": 3482,
      "Ġgentleman": 3483,
      "ĠWilliam": 3484,
      "TR": 3485,
      "fert": 3486,
      "iag": 3487,
      "look": 3488,
      "name": 3489,
      "ts": 3490,
      "ub": 3491,
      "Ġwished": 3492,
      "Ġwax": 3493,
      "ancing": 3494,
      "aly": 3495,
      "leg": 3496,
      "ĠIde": 3497,
      "ths": 3498,
      "ĠBrit": 3499,
      "Ġdeep": 3500,
      "Ġtrust": 3501,
      "ĠSome": 3502,
      "ager": 3503,
      "Ġconscious": 3504,
      "ishing": 3505,
      "tebr": 3506,
      "Ġpresents": 3507,
      "Ġdetermines": 3508,
      "means": 3509,
      "Ġcompleteness": 3510,
      "Ġproperty": 3511,
      "Ġconsiderable": 3512,
      "upon": 3513,
      "Ġstands": 3514,
      "Ġstandard": 3515,
      "Ġreadily": 3516,
      "Ġdogmatical": 3517,
      "Ġbeauty": 3518,
      "Ġestablished": 3519,
      "consider": 3520,
      "ĠNorth": 3521,
      "Ġcompetition": 3522,
      "Ġaffinity": 3523,
      "whole": 3524,
      "Ġagreeable": 3525,
      "Ġbreak": 3526,
      "Ġfunctions": 3527,
      "From": 3528,
      "io": 3529,
      "little": 3530,
      "marked": 3531,
      "ores": 3532,
      "ply": 3533,
      "philosop": 3534,
      "Ġri": 3535,
      "Ġtried": 3536,
      "Ġsat": 3537,
      "Ġfill": 3538,
      "Ġfundamental": 3539,
      "Ġmouth": 3540,
      "oumen": 3541,
      "icable": 3542,
      "sec": 3543,
      "several": 3544,
      "Ġgain": 3545,
      "ows": 3546,
      "Ġforward": 3547,
      "urity": 3548,
      "urious": 3549,
      "ceptions": 3550,
      "Ġdeal": 3551,
      "Ġperceive": 3552,
      "aria": 3553,
      "ĠChapter": 3554,
      "Ġgra": 3555,
      "Ġusually": 3556,
      "Ġinde": 3557,
      "again": 3558,
      "wel": 3559,
      "Ġremained": 3560,
      "Ġattended": 3561,
      "teen": 3562,
      "proper": 3563,
      "Ġcommun": 3564,
      "Ġregarding": 3565,
      "Ġhappened": 3566,
      "Ġrecol": 3567,
      "Ġrespects": 3568,
      "Ġcountries": 3569,
      "Ġreference": 3570,
      "Ġfeeling": 3571,
      "Ġearlier": 3572,
      "Ġcarry": 3573,
      "Ġintelligence": 3574,
      "Ġconviction": 3575,
      "Ġdrawn": 3576,
      "similar": 3577,
      "Ġdiversity": 3578,
      "Ġfortune": 3579,
      "Ġaffinities": 3580,
      "Ġcivility": 3581,
      "Ġspoke": 3582,
      "Ġenabled": 3583,
      "Ġextraordinary": 3584,
      "Ġfruit": 3585,
      "US": 3586,
      "favour": 3587,
      "greg": 3588,
      "jud": 3589,
      "low": 3590,
      "Ã¤": 3591,
      "Ã¼": 3592,
      "Ġtail": 3593,
      "Ġcreat": 3594,
      "Ġbook": 3595,
      "Ġmax": 3596,
      "orrow": 3597,
      "Ġhundred": 3598,
      "ask": 3599,
      "Ġuseless": 3600,
      "ĠII": 3601,
      "Ġexcellent": 3602,
      "Ġexhib": 3603,
      "add": 3604,
      "Ġstages": 3605,
      "ously": 3606,
      "ourgh": 3607,
      "Ġalong": 3608,
      "Ġrapid": 3609,
      "Ġtrif": 3610,
      "ensions": 3611,
      "ĠWhy": 3612,
      "space": 3613,
      "oney": 3614,
      "perior": 3615,
      "ĠLet": 3616,
      "Ġregions": 3617,
      "Ġattached": 3618,
      "ertford": 3619,
      "Ġenc": 3620,
      "elled": 3621,
      "ney": 3622,
      "Ġnorth": 3623,
      "deg": 3624,
      "veni": 3625,
      "Ġexpressed": 3626,
      "Ġcarriage": 3627,
      "Ġconclusions": 3628,
      "Ġarrived": 3629,
      "Ġturned": 3630,
      "lemen": 3631,
      "Ġanalysis": 3632,
      "Ġvarying": 3633,
      "Ġcurious": 3634,
      "characters": 3635,
      "Ġrocks": 3636,
      "Ġgirls": 3637,
      "sychology": 3638,
      "oubtedly": 3639,
      "Ġcriterion": 3640,
      "ĠSelection": 3641,
      "Ġdynamical": 3642,
      "ertfordshire": 3643,
      "Miss": 3644,
      "fact": 3645,
      "give": 3646,
      "ric": 3647,
      "ĠZ": 3648,
      "heres": 3649,
      "hetic": 3650,
      "Ġopposed": 3651,
      "Ġsch": 3652,
      "Ġwa": 3653,
      "Ġinformation": 3654,
      "ication": 3655,
      "Ġhours": 3656,
      "ceiving": 3657,
      "separ": 3658,
      "Ġreduced": 3659,
      "Ġconjunction": 3660,
      "Ġlater": 3661,
      "ulate": 3662,
      "Ġvent": 3663,
      "Ġsoci": 3664,
      "ested": 3665,
      "Ġdefinite": 3666,
      "ĠAfter": 3667,
      "Ġvaried": 3668,
      "ĠDe": 3669,
      "ologous": 3670,
      "Ġattach": 3671,
      "redit": 3672,
      "ertiary": 3673,
      "ĠGlacial": 3674,
      "Ġsimult": 3675,
      "Ġacts": 3676,
      "Ġconstant": 3677,
      "Ġadvance": 3678,
      "Ġlargely": 3679,
      "ips": 3680,
      "ategories": 3681,
      "Ġrefer": 3682,
      "orses": 3683,
      "Ġanteced": 3684,
      "Ġimagine": 3685,
      "Ġpredicates": 3686,
      "ĠAmerican": 3687,
      "Ġrarely": 3688,
      "number": 3689,
      "Ġprevented": 3690,
      "Ġabstract": 3691,
      "synthetical": 3692,
      "Ġinquiries": 3693,
      "Ġraised": 3694,
      "Ġmajor": 3695,
      "ĠAustralia": 3696,
      "Ġterrestrial": 3697,
      "iagram": 3698,
      "Bingley": 3699,
      "bed": 3700,
      "during": 3701,
      "ges": 3702,
      "iol": 3703,
      "overy": 3704,
      "rown": 3705,
      "view": 3706,
      "Ġtree": 3707,
      "Ġtakes": 3708,
      "onic": 3709,
      "Ġsight": 3710,
      "itum": 3711,
      "enced": 3712,
      "Ġbirth": 3713,
      "Ġhorse": 3714,
      "Ġner": 3715,
      "Ġdominant": 3716,
      "Ġbeh": 3717,
      "state": 3718,
      "Ġloss": 3719,
      "Ġgained": 3720,
      "idance": 3721,
      "ainted": 3722,
      "quant": 3723,
      "Ġstig": 3724,
      "Ġvast": 3725,
      "Ġvoid": 3726,
      "ourage": 3727,
      "Ġobjection": 3728,
      "Ġreasons": 3729,
      "spic": 3730,
      "ĠEvery": 3731,
      "Ġserious": 3732,
      "prog": 3733,
      "Ġobsc": 3734,
      "Ġassure": 3735,
      "Ġlesser": 3736,
      "Ġobservation": 3737,
      "parts": 3738,
      "Ġmorality": 3739,
      "pecies": 3740,
      "Ġrests": 3741,
      "distingu": 3742,
      "Ġinteresting": 3743,
      "Ġfreely": 3744,
      "Ġanalogy": 3745,
      "Ġsexes": 3746,
      "Ġsouthern": 3747,
      "Ġsurprised": 3748,
      "Ġsources": 3749,
      "obser": 3750,
      "continued": 3751,
      "Ġforegoing": 3752,
      "Ġmigration": 3753,
      "ispens": 3754,
      "Ġabstraction": 3755,
      "ĠYet": 3756,
      "Ġlinks": 3757,
      "Nat": 3758,
      "aight": 3759,
      "fly": 3760,
      "ool": 3761,
      "point": 3762,
      "rt": 3763,
      "ral": 3764,
      "sur": 3765,
      "vious": 3766,
      "Ġtask": 3767,
      "Ġsouth": 3768,
      "Ġwood": 3769,
      "Ġwarm": 3770,
      "Ġbesides": 3771,
      "Ġinhab": 3772,
      "Ġpol": 3773,
      "Ġfa": 3774,
      "Ġfif": 3775,
      "Ġmus": 3776,
      "alth": 3777,
      "Ġdare": 3778,
      "Ġeager": 3779,
      "Ġultimate": 3780,
      "verage": 3781,
      "urst": 3782,
      "Ġsufficiently": 3783,
      "adru": 3784,
      "Ġstam": 3785,
      "Ġheight": 3786,
      "employ": 3787,
      "ĠBourgh": 3788,
      "conf": 3789,
      "Ġuniverse": 3790,
      "Ġrace": 3791,
      "Ġperceived": 3792,
      "acity": 3793,
      "Ġabrupt": 3794,
      "ounded": 3795,
      "Ġlevel": 3796,
      "ultiv": 3797,
      "Ġindicates": 3798,
      "before": 3799,
      "belong": 3800,
      "Ġknowing": 3801,
      "avoid": 3802,
      "izing": 3803,
      "Ġ37": 3804,
      "Ġoffic": 3805,
      "Ġmarine": 3806,
      "Ġsupplant": 3807,
      "Ġconsidering": 3808,
      "lecting": 3809,
      "Ġchanging": 3810,
      "Ġobserv": 3811,
      "Ġsmaller": 3812,
      "Ġgeom": 3813,
      "Ġgradual": 3814,
      "ĠUnder": 3815,
      "ocked": 3816,
      "Ġarrive": 3817,
      "Ġcarefully": 3818,
      "determination": 3819,
      "uckoo": 3820,
      "Ġchiefly": 3821,
      "Ġdestroyed": 3822,
      "ealand": 3823,
      "structure": 3824,
      "Ġmaxim": 3825,
      "Every": 3826,
      "aise": 3827,
      "affect": 3828,
      "che": 3829,
      "gain": 3830,
      "hom": 3831,
      "hical": 3832,
      "ier": 3833,
      "mar": 3834,
      "ps": 3835,
      "parent": 3836,
      "phys": 3837,
      "pigeon": 3838,
      "Ġz": 3839,
      "Ġwind": 3840,
      "Ġpri": 3841,
      "ĠpalÃ¦": 3842,
      "Ġnay": 3843,
      "Ġeight": 3844,
      "Ġreject": 3845,
      "Ġsupposition": 3846,
      "ulated": 3847,
      "plants": 3848,
      "uded": 3849,
      "opy": 3850,
      "duce": 3851,
      "ĠDo": 3852,
      "Ġarbit": 3853,
      "Ġ16": 3854,
      "ledged": 3855,
      "Ġassist": 3856,
      "Ġstraight": 3857,
      "relations": 3858,
      "Ġwhereas": 3859,
      "Ġpossession": 3860,
      "sects": 3861,
      "Ġgeographical": 3862,
      "Ġconfess": 3863,
      "Ġants": 3864,
      "Ġparticularly": 3865,
      "Ġacquainted": 3866,
      "Ġcarried": 3867,
      "ĠLadyship": 3868,
      "phenomenon": 3869,
      "Ġauthors": 3870,
      "Ġparallel": 3871,
      "Ġconcerned": 3872,
      "Ġteeth": 3873,
      "Ġdeny": 3874,
      "Ġdifficulties": 3875,
      "Ġtalked": 3876,
      "fraid": 3877,
      "Ġmountains": 3878,
      "Ġoceanic": 3879,
      "Ġetc": 3880,
      "Ġsubordinate": 3881,
      "UR": 3882,
      "cause": 3883,
      "hand": 3884,
      "hip": 3885,
      "ium": 3886,
      "ms": 3887,
      "Ġ8": 3888,
      "Ġsed": 3889,
      "Ġwrit": 3890,
      "Ġbound": 3891,
      "Ġport": 3892,
      "Ġmental": 3893,
      "alone": 3894,
      "orry": 3895,
      "Ġhour": 3896,
      "Ġnight": 3897,
      "Ġdivided": 3898,
      "Ġecon": 3899,
      "ller": 3900,
      "ldom": 3901,
      "Ġexceed": 3902,
      "ils": 3903,
      "encement": 3904,
      "lig": 3905,
      "pers": 3906,
      "cience": 3907,
      "Ġdoor": 3908,
      "ensive": 3909,
      "while": 3910,
      "ression": 3911,
      "Ġremoved": 3912,
      "Ġliable": 3913,
      "Ġorganisms": 3914,
      "Ġ21": 3915,
      "Ġ25": 3916,
      "Ġ26": 3917,
      "hilips": 3918,
      "Ġrecently": 3919,
      "Ġhandsome": 3920,
      "Ġways": 3921,
      "Ġdoubtful": 3922,
      "existing": 3923,
      "Ġcoloured": 3924,
      "Ġpleased": 3925,
      "knowledge": 3926,
      "Ġsecondary": 3927,
      "Ġconstitute": 3928,
      "william": 3929,
      "Ġglad": 3930,
      "feel": 3931,
      "Ġ1894": 3932,
      "cases": 3933,
      "Ġleads": 3934,
      "Ġdistinguished": 3935,
      "Ġwrite": 3936,
      "Ġprofess": 3937,
      "Ġembryo": 3938,
      "Ġgentlemen": 3939,
      "Ġtalking": 3940,
      "Ġsolution": 3941,
      "Ġfemales": 3942,
      "itzwilliam": 3943,
      "Ġmountain": 3944,
      "correspond": 3945,
      "Ġexclus": 3946,
      "Ġstreng": 3947,
      "groups": 3948,
      "Ġreciprocal": 3949,
      "Ġisolated": 3950,
      "developed": 3951,
      "ogeneous": 3952,
      "namely": 3953,
      "Ã¤rt": 3954,
      "ĠZealand": 3955,
      "Ã¤rtner": 3956,
      "ATION": 3957,
      "Copy": 3958,
      "Darcy": 3959,
      "]]": 3960,
      "might": 3961,
      "sense": 3962,
      "tot": 3963,
      "Ġtalk": 3964,
      "inomy": 3965,
      "Ġov": 3966,
      "Ġsorry": 3967,
      "enance": 3968,
      "Ġwishes": 3969,
      "edd": 3970,
      "Ġmongrel": 3971,
      "ora": 3972,
      "Ġeld": 3973,
      "Ġrevers": 3974,
      "Ġgover": 3975,
      "ira": 3976,
      "Ġsuperior": 3977,
      "ivart": 3978,
      "ĠMary": 3979,
      "umbl": 3980,
      "Ġrid": 3981,
      "Ġnearest": 3982,
      "Ġunderstood": 3983,
      "ĠSection": 3984,
      "ortunity": 3985,
      "itten": 3986,
      "Ġsyllog": 3987,
      "close": 3988,
      "Ġarises": 3989,
      "These": 3990,
      "Ġattent": 3991,
      "Ġenorm": 3992,
      "ĠForster": 3993,
      "Ġcompare": 3994,
      "Ġobtain": 3995,
      "Ġsensible": 3996,
      "Ġends": 3997,
      "Ġhappen": 3998,
      "Ġincapable": 3999,
      "Ġnorthern": 4000,
      "Ġfaculties": 4001,
      "Ġresist": 4002,
      "Ġobserve": 4003,
      "differences": 4004,
      "partic": 4005,
      "Ġanticip": 4006,
      "Ġgradually": 4007,
      "objective": 4008,
      "Ġattempted": 4009,
      "Ġassertions": 4010,
      "Ġguidance": 4011,
      "Ġdogmat": 4012,
      "Ġstruck": 4013,
      "ĠAllen": 4014,
      "determined": 4015,
      "original": 4016,
      "Ġmentioned": 4017,
      "Ġaccumulated": 4018,
      "crossing": 4019,
      "connected": 4020,
      "Ġcivil": 4021,
      "synthesis": 4022,
      "Ġtemperate": 4023,
      "Ġstudy": 4024,
      "Ġtransitional": 4025,
      "advantage": 4026,
      "Ġlabour": 4027,
      "Ġattributed": 4028,
      "odeict": 4029,
      "inhabitants": 4030,
      "ispensable": 4031,
      "Copyright": 4032,
      "Bennet": 4033,
      "OG": 4034,
      "Section": 4035,
      "co": 4036,
      "fast": 4037,
      "ials": 4038,
      "night": 4039,
      "pon": 4040,
      "pred": 4041,
      "rus": 4042,
      "satisf": 4043,
      "tle": 4044,
      "yell": 4045,
      "Ġ9": 4046,
      "Ġtaking": 4047,
      "Ġtertiary": 4048,
      "Ġau": 4049,
      "itic": 4050,
      "Ġbeds": 4051,
      "Ġpigeons": 4052,
      "Ġfirm": 4053,
      "Ġmort": 4054,
      "iced": 4055,
      "Ġhive": 4056,
      "Ġdin": 4057,
      "Ġduck": 4058,
      "Ġdiagram": 4059,
      "ases": 4060,
      "Ġretain": 4061,
      "Ġrecomm": 4062,
      "Ġlangu": 4063,
      "Ġforced": 4064,
      "Ġnotice": 4065,
      "Ġweak": 4066,
      "Ġsuspect": 4067,
      "ilst": 4068,
      "Ġseldom": 4069,
      "adapt": 4070,
      "ribe": 4071,
      "Ġvig": 4072,
      "Ġvoice": 4073,
      "ivity": 4074,
      "Ġaltogether": 4075,
      "Ġforming": 4076,
      "actory": 4077,
      "ĠAfr": 4078,
      "Ġcho": 4079,
      "Ġcharm": 4080,
      "acqu": 4081,
      "ĠWh": 4082,
      "aun": 4083,
      "Ġclos": 4084,
      "Ġattack": 4085,
      "Ġ12": 4086,
      "athers": 4087,
      "Ġassign": 4088,
      "compar": 4089,
      "series": 4090,
      "Ġconsiderations": 4091,
      "Ġscale": 4092,
      "Ġjustice": 4093,
      "grad": 4094,
      "Ġshowing": 4095,
      "._]]": 4096,
      "Ġsatisfaction": 4097,
      "Ġdeduced": 4098,
      "Ġdrawing": 4099,
      "Ġdiscussed": 4100,
      "Ġcontingency": 4101,
      "Ġdisappear": 4102,
      "Ġengage": 4103,
      "Ġbranches": 4104,
      "Ġcheck": 4105,
      "Ġauthority": 4106,
      "incre": 4107,
      "Ġphilosophers": 4108,
      "Ġsituation": 4109,
      "Ġconverted": 4110,
      "Ġoccupied": 4111,
      "ĠUnited": 4112,
      "Ġpublished": 4113,
      "Ġfoot": 4114,
      "Ġfurnished": 4115,
      "Ġbuild": 4116,
      "Ġbroken": 4117,
      "ĠlarvÃ¦": 4118,
      "Ġtrifling": 4119,
      "degree": 4120,
      "Ġinhabited": 4121,
      "AT": 4122,
      "Con": 4123,
      "Hence": 4124,
      "dec": 4125,
      "effect": 4126,
      "far": 4127,
      "gent": 4128,
      "latter": 4129,
      "pet": 4130,
      "rum": 4131,
      "uly": 4132,
      "vis": 4133,
      "Ġaverage": 4134,
      "inv": 4135,
      "reto": 4136,
      "atched": 4137,
      "Ġcrustaceans": 4138,
      "Ġcuckoo": 4139,
      "Ġinev": 4140,
      "almost": 4141,
      "oms": 4142,
      "Ġwhilst": 4143,
      "ids": 4144,
      "uration": 4145,
      "urch": 4146,
      "Ġsupposing": 4147,
      "Ġspite": 4148,
      "three": 4149,
      "riped": 4150,
      "Ġsoph": 4151,
      "ards": 4152,
      "Ġqual": 4153,
      "ĠHertfordshire": 4154,
      "ĠEven": 4155,
      "Ġindicate": 4156,
      "Ġamiable": 4157,
      "ressing": 4158,
      "Ġremember": 4159,
      "Ġnaturalist": 4160,
      "ĠPl": 4161,
      "ĠPhilips": 4162,
      "ĠĠĠĠĠĠĠĠĠĠĠĠĠĠĠĠĠĠĠĠ": 4163,
      "Ġproduct": 4164,
      "ĠGÃ¤rtner": 4165,
      "Ġthoughts": 4166,
      "Ġorganism": 4167,
      "Ġ30": 4168,
      "ooker": 4169,
      "ritique": 4170,
      "Ġsecure": 4171,
      "Ġinvitation": 4172,
      "Ġslaves": 4173,
      "shells": 4174,
      "Ġolder": 4175,
      "osmological": 4176,
      "ĠStates": 4177,
      "Ġestablish": 4178,
      "Ġextensive": 4179,
      "Ġminute": 4180,
      "ifying": 4181,
      "Ġmotion": 4182,
      "organic": 4183,
      "believe": 4184,
      "Ġveget": 4185,
      "Ġmutual": 4186,
      "Ġconstructed": 4187,
      "rounding": 4188,
      "Ġmaster": 4189,
      "encies": 4190,
      "small": 4191,
      "welve": 4192,
      "Ġstigma": 4193,
      "Be": 4194,
      "Not": 4195,
      "circ": 4196,
      "depend": 4197,
      "fac": 4198,
      "gone": 4199,
      "ract": 4200,
      "sed": 4201,
      "Ġtreated": 4202,
      "Ġinn": 4203,
      "Ġinsist": 4204,
      "Ġfail": 4205,
      "orical": 4206,
      "Ġhorses": 4207,
      "Ġnoumen": 4208,
      "Ġeff": 4209,
      "Ġreached": 4210,
      "Ġlo": 4211,
      "Ġlate": 4212,
      "uter": 4213,
      "urd": 4214,
      "Ġsugg": 4215,
      "amorph": 4216,
      "ival": 4217,
      "Ġranges": 4218,
      "oreover": 4219,
      "Ġtrouble": 4220,
      "Ġemin": 4221,
      "Ġquality": 4222,
      "ĠHere": 4223,
      "bee": 4224,
      "Ġaccomp": 4225,
      "Ġknows": 4226,
      "etermined": 4227,
      "interest": 4228,
      "Ġaggreg": 4229,
      "ĠOur": 4230,
      "evertheless": 4231,
      "anging": 4232,
      "Ġsubjected": 4233,
      "Ġcommencement": 4234,
      "Ġcompelled": 4235,
      "itherto": 4236,
      "adeira": 4237,
      "Ġ38": 4238,
      "Ġcontinu": 4239,
      "Ġcontinually": 4240,
      "Ġacross": 4241,
      "grat": 4242,
      "Ġdomesticated": 4243,
      "Ġdestruction": 4244,
      "Ġuniversality": 4245,
      "Ġarrival": 4246,
      "Ġconcerns": 4247,
      "Ġdiscussion": 4248,
      "become": 4249,
      "Ġpresupposes": 4250,
      "himself": 4251,
      "Ġsignific": 4252,
      "Ġidentity": 4253,
      "Ġskin": 4254,
      "etrical": 4255,
      "Ġspirits": 4256,
      "Ġexperiment": 4257,
      "judgement": 4258,
      "Ġtranscendent": 4259,
      "Ġescape": 4260,
      "irtue": 4261,
      "Ġgraft": 4262,
      "Lady": 4263,
      "cogit": 4264,
      "categories": 4265,
      "doubt": 4266,
      "domestic": 4267,
      "got": 4268,
      "joy": 4269,
      "life": 4270,
      "misp": 4271,
      "ozo": 4272,
      "power": 4273,
      "ron": 4274,
      "Ġafraid": 4275,
      "inate": 4276,
      "itated": 4277,
      "Ġwid": 4278,
      "Ġbounds": 4279,
      "Ġflight": 4280,
      "alay": 4281,
      "oral": 4282,
      "Ġtol": 4283,
      "aries": 4284,
      "Ġepo": 4285,
      "Ġred": 4286,
      "âĢĺ": 4287,
      "Ġhair": 4288,
      "Ġforget": 4289,
      "rog": 4290,
      "amed": 4291,
      "pty": 4292,
      "Ġheav": 4293,
      "Ġcomposition": 4294,
      "ĠMivart": 4295,
      "umm": 4296,
      "Ġalter": 4297,
      "Ġdel": 4298,
      "oretical": 4299,
      "Ġking": 4300,
      "ĠSy": 4301,
      "ĠHurst": 4302,
      "Ġdisplay": 4303,
      "external": 4304,
      "Ġevents": 4305,
      "Ġjaws": 4306,
      "astic": 4307,
      "asses": 4308,
      "Ġphenomenal": 4309,
      "ĠOw": 4310,
      "ifice": 4311,
      "Ġseek": 4312,
      "Ġproducing": 4313,
      "Ġdiscovery": 4314,
      "Ġpossessed": 4315,
      "Ġoriginally": 4316,
      "Ġillustr": 4317,
      "Ġstanding": 4318,
      "Ġconstitutes": 4319,
      "generally": 4320,
      "Ġdirected": 4321,
      "Ġimprovement": 4322,
      "Ġguard": 4323,
      "Ġphysi": 4324,
      "ĠĠĠĠĠĠĠĠĠĠĠĠĠĠĠĠĠĠĠĠĠĠĠĠĠĠĠĠĠĠĠĠĠĠĠĠĠĠĠĠĠĠĠĠ": 4325,
      "worth": 4326,
      "Ġleading": 4327,
      "Ġpresuppose": 4328,
      "numerable": 4329,
      "Ġfrequent": 4330,
      "Ġdisappoint": 4331,
      "Ġminutes": 4332,
      "occasion": 4333,
      "Ġapproach": 4334,
      "Ġannihil": 4335,
      "Ġaware": 4336,
      "Ġreproductive": 4337,
      "instinct": 4338,
      "Ġastonishment": 4339,
      "Ġconceal": 4340,
      "irectly": 4341,
      "Ġclaims": 4342,
      "Ġacknowledged": 4343,
      "Ġobservations": 4344,
      "Ġepoch": 4345,
      "OL": 4346,
      "[_": 4347,
      "divis": 4348,
      "gen": 4349,
      "opp": 4350,
      "xious": 4351,
      "ÃĨ": 4352,
      "Ġtit": 4353,
      "Ġtou": 4354,
      "rent": 4355,
      "reality": 4356,
      "Ġcut": 4357,
      "Ġmid": 4358,
      "ounce": 4359,
      "icul": 4360,
      "Ġdanger": 4361,
      "Ġduration": 4362,
      "impossible": 4363,
      "Ġloc": 4364,
      "Ġgre": 4365,
      "iding": 4366,
      "irriped": 4367,
      "Ġsequ": 4368,
      "anted": 4369,
      "Ġvan": 4370,
      "usten": 4371,
      "Ġunconscious": 4372,
      "Ġdelic": 4373,
      "arden": 4374,
      "Ġtherein": 4375,
      "Ġshells": 4376,
      "arer": 4377,
      "Ġleaving": 4378,
      "Ġquadru": 4379,
      "period": 4380,
      "ĠLe": 4381,
      "Ġrelative": 4382,
      "Ġaccur": 4383,
      "Ġprec": 4384,
      "Ġmodes": 4385,
      "ĠOr": 4386,
      "eless": 4387,
      "Ġtransmitted": 4388,
      "ĠĠĠĠĠĠĠĠĠĠĠĠĠĠĠĠĠĠĠĠĠĠĠĠĠĠĠĠ": 4389,
      "Ġbelieves": 4390,
      "Ġfounded": 4391,
      "Ġsimpl": 4392,
      "Ġentit": 4393,
      "Ġ27": 4394,
      "mathemat": 4395,
      "Ġnews": 4396,
      "Ġprobability": 4397,
      "Ġsmile": 4398,
      "Ġeleg": 4399,
      "Ġworks": 4400,
      "Ġearnest": 4401,
      "Ġcritical": 4402,
      "genera": 4403,
      "necessity": 4404,
      "Ġattempts": 4405,
      "Ġdescribed": 4406,
      "ĠVari": 4407,
      "Ġuniversally": 4408,
      "Ġparas": 4409,
      "eading": 4410,
      "Ġpreservation": 4411,
      "produced": 4412,
      "Ġinferred": 4413,
      "fortun": 4414,
      "Ġconsequences": 4415,
      "ĠEuropean": 4416,
      "Ġdefined": 4417,
      "Ġnests": 4418,
      "Ġdiversified": 4419,
      "Ġhomologous": 4420,
      "ĠXX": 4421,
      "ĠArchipelago": 4422,
      "Ġsuffer": 4423,
      "contradictory": 4424,
      "Ġprimal": 4425,
      "Ġmultitude": 4426,
      "question": 4427,
      "Ġbotan": 4428,
      "Ġweek": 4429,
      "intelligible": 4430,
      "legitimate": 4431,
      "favourable": 4432,
      "At": 4433,
      "CE": 4434,
      "Heading": 4435,
      "Ind": 4436,
      "Wh": 4437,
      "both": 4438,
      "did": 4439,
      "gy": 4440,
      "tered": 4441,
      "Ġtheology": 4442,
      "Ġscept": 4443,
      "itate": 4444,
      "itably": 4445,
      "enetr": 4446,
      "Ġbo": 4447,
      "Ġbones": 4448,
      "Ġfaun": 4449,
      "Ġthrow": 4450,
      "Ġhur": 4451,
      "Ġdri": 4452,
      "Ġdance": 4453,
      "Ġrevol": 4454,
      "impro": 4455,
      "Ġlaugh": 4456,
      "owing": 4457,
      "Ġur": 4458,
      "urs": 4459,
      "Ġexcess": 4460,
      "Ġspring": 4461,
      "usory": 4462,
      "antages": 4463,
      "ĠMadeira": 4464,
      "Ġdeath": 4465,
      "Ġadequ": 4466,
      "Ġtruly": 4467,
      "orts": 4468,
      "uns": 4469,
      "ĠFitzwilliam": 4470,
      "others": 4471,
      "aste": 4472,
      "supp": 4473,
      "sequent": 4474,
      "Ġeverybody": 4475,
      "Ġenable": 4476,
      "Ġsubjects": 4477,
      "Ġinstantly": 4478,
      "ĠGr": 4479,
      "ĠGener": 4480,
      "Ġflat": 4481,
      "Ġentertain": 4482,
      "Ġacted": 4483,
      "truth": 4484,
      "Ġcontinents": 4485,
      "Ġwhereby": 4486,
      "Ġdecided": 4487,
      "variations": 4488,
      "Ġconcreto": 4489,
      "sensibility": 4490,
      "Ġsimilarity": 4491,
      "substance": 4492,
      "work": 4493,
      "Ġabsurd": 4494,
      "modification": 4495,
      "considered": 4496,
      "limited": 4497,
      "Ġfossils": 4498,
      "Ġsilence": 4499,
      "Ġcosmical": 4500,
      "discover": 4501,
      "Ġopportunity": 4502,
      "Ġapodeict": 4503,
      "absolutely": 4504,
      "country": 4505,
      "metaphys": 4506,
      "demonstr": 4507,
      "ĠAfrica": 4508,
      "Ġkingdom": 4509,
      ":--": 4510,
      "By": 4511,
      "LE": 4512,
      "Wickham": 4513,
      "caus": 4514,
      "ha": 4515,
      "hig": 4516,
      "iality": 4517,
      "laws": 4518,
      "peds": 4519,
      "ug": 4520,
      "internal": 4521,
      "onent": 4522,
      "Ġsir": 4523,
      "Ġswe": 4524,
      "Ġca": 4525,
      "Ġcultiv": 4526,
      "Ġbrie": 4527,
      "Ġinsufficient": 4528,
      "Ġped": 4529,
      "Ġpet": 4530,
      "Ġpist": 4531,
      "Ġmag": 4532,
      "least": 4533,
      "set": 4534,
      "imm": 4535,
      "immediate": 4536,
      "Ġconject": 4537,
      "Ġlat": 4538,
      "Ġgot": 4539,
      "Ġgerm": 4540,
      "ĠIII": 4541,
      "rod": 4542,
      "idity": 4543,
      "idently": 4544,
      "ift": 4545,
      "Ġexert": 4546,
      "Ġspaces": 4547,
      "quir": 4548,
      "Ġhealth": 4549,
      "Ġyes": 4550,
      "Ġvirtue": 4551,
      "cipl": 4552,
      "cond": 4553,
      "ĠAccording": 4554,
      "ĠAusten": 4555,
      "Ġchoice": 4556,
      "Ġdoing": 4557,
      "Ġsheep": 4558,
      "Ġtry": 4559,
      "opter": 4560,
      "Ġgrand": 4561,
      "ĠHad": 4562,
      "univers": 4563,
      "unconditioned": 4564,
      "also": 4565,
      "agree": 4566,
      "closed": 4567,
      "Ġprep": 4568,
      "early": 4569,
      "ĠOne": 4570,
      "soci": 4571,
      "Ġobvious": 4572,
      "Ġ36": 4573,
      "withstanding": 4574,
      "Ġadmitting": 4575,
      "shall": 4576,
      "Ġhereafter": 4577,
      "Ġjustified": 4578,
      "cluding": 4579,
      "Ġinvari": 4580,
      "difference": 4581,
      "Ġsciences": 4582,
      "Ġconfidence": 4583,
      "Ġincreasing": 4584,
      "Ġpreviously": 4585,
      "Ġproceeding": 4586,
      "Ġassertion": 4587,
      "intermediate": 4588,
      "rehensible": 4589,
      "Ġcircumstance": 4590,
      "Ġwritten": 4591,
      "Ġpretty": 4592,
      "Ġcease": 4593,
      "joining": 4594,
      "Ġwalking": 4595,
      "contradiction": 4596,
      "Ġjoined": 4597,
      "arrass": 4598,
      "pient": 4599,
      "Ġoperations": 4600,
      "Ġresolved": 4601,
      "Ġinjurious": 4602,
      "appearance": 4603,
      "Ġfigure": 4604,
      "Ġsafely": 4605,
      "birds": 4606,
      "ĠPrinci": 4607,
      "Ġsociety": 4608,
      "Ġofficers": 4609,
      "Ġarbitrary": 4610,
      "Ġeconomy": 4611,
      "Ġdinner": 4612,
      "cipline": 4613,
      "Al": 4614,
      "Ex": 4615,
      "Her": 4616,
      "PR": 4617,
      "cot": 4618,
      "cked": 4619,
      "fish": 4620,
      "ios": 4621,
      "made": 4622,
      "making": 4623,
      "por": 4624,
      "tru": 4625,
      "Ġtwelve": 4626,
      "real": 4627,
      "eri": 4628,
      "ator": 4629,
      "atur": 4630,
      "Ġbad": 4631,
      "Ġbase": 4632,
      "Ġpigeon": 4633,
      "analy": 4634,
      "alm": 4635,
      "Ġdr": 4636,
      "Ġbeet": 4637,
      "ompl": 4638,
      "seem": 4639,
      "Ġready": 4640,
      "Ġreceiving": 4641,
      "Ġwhite": 4642,
      "Ġspot": 4643,
      "iled": 4644,
      "illegitimate": 4645,
      "Ġstart": 4646,
      "Ġstated": 4647,
      "Ġheld": 4648,
      "live": 4649,
      "Ġcanon": 4650,
      "olution": 4651,
      "ĠMoreover": 4652,
      "umed": 4653,
      "Ġspeculation": 4654,
      "Ġdepart": 4655,
      "Ġchain": 4656,
      "often": 4657,
      "idea": 4658,
      "apse": 4659,
      "ĠCritique": 4660,
      "Ġempty": 4661,
      "ĠHooker": 4662,
      "too": 4663,
      "orious": 4664,
      "Ġnaturalised": 4665,
      "ologist": 4666,
      "angle": 4667,
      "Ġliked": 4668,
      "soon": 4669,
      "----": 4670,
      "aneity": 4671,
      "Ġsays": 4672,
      "Ġ31": 4673,
      "Ġ39": 4674,
      "Ġsimply": 4675,
      "stratum": 4676,
      "Ġadmire": 4677,
      "Ġkindness": 4678,
      "Ġlimbs": 4679,
      "Ġappearing": 4680,
      "Ġstatement": 4681,
      "Ġsecret": 4682,
      "existent": 4683,
      "Ġsmallest": 4684,
      "Ġdecide": 4685,
      "Ġblame": 4686,
      "Ġsecondly": 4687,
      "Ġmature": 4688,
      "Ġantinomy": 4689,
      "Ġmaintained": 4690,
      "Ġasserted": 4691,
      "Ġdogs": 4692,
      "Ġtotal": 4693,
      "Ġinfinitely": 4694,
      "Ġassumed": 4695,
      "Ġprofound": 4696,
      "END": 4697,
      "Ġgrowing": 4698,
      "Ġlimitation": 4699,
      "greater": 4700,
      "orns": 4701,
      "Ġincluding": 4702,
      "occur": 4703,
      "ANS": 4704,
      "sometimes": 4705,
      "importance": 4706,
      "Ġbecoming": 4707,
      "Ġinquiry": 4708,
      "Ġvolume": 4709,
      "Ġdeclared": 4710,
      "Ġjudgment": 4711,
      "Ġspirit": 4712,
      "Ġfancy": 4713,
      "Ġbeneficial": 4714,
      "Ġharmony": 4715,
      "Ġinfinity": 4716,
      "ĠEngland": 4717,
      "Ġrestrict": 4718,
      "Ġstamens": 4719,
      "Ġprior": 4720,
      "Ġexclusively": 4721,
      "ĠOwen": 4722,
      "OO": 4723,
      "Of": 4724,
      "Re": 4725,
      "eas": 4726,
      "eper": 4727,
      "kes": 4728,
      "min": 4729,
      "nitz": 4730,
      "pass": 4731,
      "post": 4732,
      "rance": 4733,
      "yle": 4734,
      "Ġson": 4735,
      "erhaps": 4736,
      "ithe": 4737,
      "ision": 4738,
      "Ġcredit": 4739,
      "Ġpair": 4740,
      "ann": 4741,
      "analog": 4742,
      "Ġmer": 4743,
      "orne": 4744,
      "aring": 4745,
      "arrow": 4746,
      "Ġhitherto": 4747,
      "Ġdark": 4748,
      "lebr": 4749,
      "herself": 4750,
      "Ġascertain": 4751,
      "ĠInt": 4752,
      "amount": 4753,
      "Ġselected": 4754,
      "Ġmove": 4755,
      "Ġste": 4756,
      "rian": 4757,
      "usc": 4758,
      "âĢĿ,": 4759,
      "ourney": 4760,
      "ibly": 4761,
      "ibnitz": 4762,
      "perception": 4763,
      "Ġintention": 4764,
      "Ġunequ": 4765,
      "Ġrich": 4766,
      "ĠTheir": 4767,
      "Ġundergone": 4768,
      "Ġreasoning": 4769,
      "ension": 4770,
      "sphere": 4771,
      "Ġreply": 4772,
      "Ġcontem": 4773,
      "ĠNevertheless": 4774,
      "isely": 4775,
      "ĠĠĠĠĠĠĠĠĠĠĠĠĠĠĠĠĠĠĠĠĠĠĠĠ": 4776,
      "issim": 4777,
      "Ġ20": 4778,
      "Ġcharacteristic": 4779,
      "Ġstatements": 4780,
      "Ġrespecting": 4781,
      "relate": 4782,
      "Ġexamples": 4783,
      "Ġphilosophical": 4784,
      "Ġreflect": 4785,
      "Ġcollected": 4786,
      "Ġhopes": 4787,
      "Ġtends": 4788,
      "Ġpassing": 4789,
      "Ġmatch": 4790,
      "Ġgraduated": 4791,
      "Ġhumanity": 4792,
      "Ġinterests": 4793,
      "Ġstriped": 4794,
      "perfectly": 4795,
      "ĠConceptions": 4796,
      "III": 4797,
      "Ġforeign": 4798,
      "Ġundoubtedly": 4799,
      "aphrod": 4800,
      "Ġbeneath": 4801,
      "Ġsupported": 4802,
      "Ġmotive": 4803,
      "connection": 4804,
      "Ġprovided": 4805,
      "atio": 4806,
      "Ġspoken": 4807,
      "Ġjoin": 4808,
      "Ġpublic": 4809,
      "Ġmistaken": 4810,
      "Ġbringing": 4811,
      "presu": 4812,
      "Ġdevi": 4813,
      "Ġadmirable": 4814,
      "Ġthickness": 4815,
      "ĠAlthough": 4816,
      "Ġfertilised": 4817,
      "Ġcomposite": 4818,
      "Ġsingular": 4819,
      "ambrian": 4820,
      "Ġschool": 4821,
      "Ġsimultaneously": 4822,
      "avoidable": 4823,
      "Ġexceedingly": 4824,
      "Ġsignificance": 4825,
      "irripedes": 4826,
      "unsford": 4827,
      "eriori": 4828,
      "lebrated": 4829,
      ".)": 4830,
      "IV": 4831,
      "Let": 4832,
      "cid": 4833,
      "dog": 4834,
      "ians": 4835,
      "law": 4836,
      "last": 4837,
      "main": 4838,
      "mind": 4839,
      "maphrod": 4840,
      "oly": 4841,
      "pic": 4842,
      "slight": 4843,
      "science": 4844,
      "Ã¶": 4845,
      "Ġtempt": 4846,
      "inions": 4847,
      "insects": 4848,
      "ref": 4849,
      "resem": 4850,
      "Ġsav": 4851,
      "Ġsought": 4852,
      "erby": 4853,
      "atus": 4854,
      "atory": 4855,
      "isen": 4856,
      "Ġinnumerable": 4857,
      "Ġpriv": 4858,
      "Ġmoney": 4859,
      "ico": 4860,
      "Ġhind": 4861,
      "Ġnect": 4862,
      "Ġease": 4863,
      "second": 4864,
      "stri": 4865,
      "sthetic": 4866,
      "entific": 4867,
      "Ġretained": 4868,
      "Ġlame": 4869,
      "Ġlose": 4870,
      "Ġlaid": 4871,
      "Ġascend": 4872,
      "Ġforgot": 4873,
      "iring": 4874,
      "ury": 4875,
      "Ġsuspic": 4876,
      "abstr": 4877,
      "quatic": 4878,
      "ptiles": 4879,
      "Ġsearch": 4880,
      "âĢĿ;": 4881,
      "conform": 4882,
      "Ġunion": 4883,
      "pleasure": 4884,
      "Ġimage": 4885,
      "aches": 4886,
      "Ġparties": 4887,
      "Ġpraise": 4888,
      "ĠCan": 4889,
      "ĠCambrian": 4890,
      "Ġapplies": 4891,
      "ĠLyell": 4892,
      "Ġaccident": 4893,
      "Ġaccidental": 4894,
      "ĠPar": 4895,
      "Ġsubsequently": 4896,
      "Ġenjoy": 4897,
      "Ġinterrupt": 4898,
      "proceed": 4899,
      "Ġ13": 4900,
      "Ġ19": 4901,
      "Ġassur": 4902,
      "adequ": 4903,
      "manent": 4904,
      "Ġproble": 4905,
      "Ġcontaining": 4906,
      "Ġcontinue": 4907,
      "Ġcorrelated": 4908,
      "Ġminds": 4909,
      "Ġexamination": 4910,
      "Ġexamined": 4911,
      "righton": 4912,
      "Ġcountenance": 4913,
      "consist": 4914,
      "Ġscientific": 4915,
      "Ġblood": 4916,
      "variation": 4917,
      "Ġmetamorph": 4918,
      "Ġquantities": 4919,
      "necessarily": 4920,
      "Ġpleasing": 4921,
      "Ġimprob": 4922,
      "extreme": 4923,
      "Ġutmost": 4924,
      "subsist": 4925,
      "Ġinquire": 4926,
      "Ġconcluded": 4927,
      "Ġpretensions": 4928,
      "Ġundetermined": 4929,
      "expected": 4930,
      "everything": 4931,
      "Ġimmigr": 4932,
      "Ġdemonstrate": 4933,
      "Ġsilent": 4934,
      "Ġsucceeding": 4935,
      "Ġlisten": 4936,
      "Ġpersuaded": 4937,
      "Ġreproduction": 4938,
      "Ġadmiration": 4939,
      "propositions": 4940,
      "successive": 4941,
      "ounter": 4942,
      "ĠSpace": 4943,
      "Ġthoroughly": 4944,
      "family": 4945,
      "Ġindifferent": 4946,
      "Ġlearned": 4947,
      "ENTAL": 4948,
      "Ġmarks": 4949,
      "Ġquickly": 4950,
      "Ġchildren": 4951,
      "Ã¼ller": 4952,
      "Ġattachment": 4953,
      "ĠUnderstanding": 4954,
      "ĠpalÃ¦ont": 4955,
      "persal": 4956,
      "corresponding": 4957,
      "Ġinevitably": 4958,
      "Ġinvariably": 4959,
      "iosity": 4960,
      "erbyshire": 4961,
      "After": 4962,
      "His": 4963,
      "Or": 4964,
      "af": 4965,
      "az": 4966,
      "aper": 4967,
      "civ": 4968,
      "ey": 4969,
      "ele": 4970,
      "friend": 4971,
      "lings": 4972,
      "lict": 4973,
      "mas": 4974,
      "make": 4975,
      "matter": 4976,
      "nor": 4977,
      "opt": 4978,
      "phe": 4979,
      "pal": 4980,
      "purpose": 4981,
      "yet": 4982,
      "Ġtaste": 4983,
      "rence": 4984,
      "Ġsend": 4985,
      "ature": 4986,
      "esc": 4987,
      "Ġpict": 4988,
      "Ġpounds": 4989,
      "Ġfavoured": 4990,
      "anied": 4991,
      "alap": 4992,
      "Ġbee": 4993,
      "sely": 4994,
      "Ġforces": 4995,
      "Ġexclud": 4996,
      "andol": 4997,
      "Ġstem": 4998,
      "riety": 4999,
      "using": 5000,
      "illed": 5001,
      "Ġviol": 5002,
      "ourselves": 5003,
      "emies": 5004,
      "ĠBrighton": 5005,
      "perhaps": 5006,
      "Ġaltern": 5007,
      "Ġunus": 5008,
      "Ġunite": 5009,
      "Ġshores": 5010,
      "Ġdefect": 5011,
      "Ġdeceived": 5012,
      "ĠAN": 5013,
      "ĠAnal": 5014,
      "Ġchar": 5015,
      "Ġanybody": 5016,
      "orted": 5017,
      "ĠHunsford": 5018,
      "Ġdissimilar": 5019,
      "ung": 5020,
      "Ġindispensable": 5021,
      "Ġclot": 5022,
      "Ġarising": 5023,
      "Ġmoder": 5024,
      "Ġagency": 5025,
      "Ġattend": 5026,
      "izes": 5027,
      "Ġsubstratum": 5028,
      "Ġfarther": 5029,
      "Ġcompan": 5030,
      "Ġobst": 5031,
      "within": 5032,
      "Ġ22": 5033,
      "Ġ29": 5034,
      "Ġconstantly": 5035,
      "defin": 5036,
      "Ġdoubts": 5037,
      "Ġresent": 5038,
      "Ġblue": 5039,
      "Ġhumble": 5040,
      "enealog": 5041,
      "Ġexpressions": 5042,
      "attempt": 5043,
      "eduction": 5044,
      "content": 5045,
      "Ġproceeds": 5046,
      "Ġcritique": 5047,
      "Ġpleasant": 5048,
      "Ġfinite": 5049,
      "Ġguide": 5050,
      "Ġdependent": 5051,
      "Ġ185": 5052,
      "Ġhearing": 5053,
      "Ġpurposes": 5054,
      "contrary": 5055,
      "prev": 5056,
      "modified": 5057,
      "Ġsignification": 5058,
      "Ġmaterials": 5059,
      "Ġintroduce": 5060,
      "Ġaccumulation": 5061,
      "Ġhypothetical": 5062,
      "Ġholds": 5063,
      "Ġinsight": 5064,
      "Ġdimin": 5065,
      "completely": 5066,
      "Ġcompliment": 5067,
      "Ġlibert": 5068,
      "Ġtypes": 5069,
      "Ġintuited": 5070,
      "Ġneighbourhood": 5071,
      "Ġcreature": 5072,
      "Ġbehind": 5073,
      "quantity": 5074,
      "progenit": 5075,
      "Natural": 5076,
      "Ġmongrels": 5077,
      "Ġenormous": 5078,
      "Ġaugment": 5079,
      "Ġlanguage": 5080,
      "Ġsophist": 5081,
      "circum": 5082,
      "Ġurged": 5083,
      "Ġadequate": 5084,
      "andolle": 5085,
      ")âĢĶ": 5086,
      "OUS": 5087,
      "Pr": 5088,
      "ST": 5089,
      "Summ": 5090,
      "UL": 5091,
      "Un": 5092,
      "ares": 5093,
      "bly": 5094,
      "cest": 5095,
      "free": 5096,
      "ius": 5097,
      "log": 5098,
      "mother": 5099,
      "surpr": 5100,
      "uct": 5101,
      "wide": 5102,
      "Ġ=": 5103,
      "Ġtall": 5104,
      "Ġtumbl": 5105,
      "Ġaxi": 5106,
      "inher": 5107,
      "instance": 5108,
      "rec": 5109,
      "reement": 5110,
      "erably": 5111,
      "itute": 5112,
      "Ġwall": 5113,
      "Ġwomen": 5114,
      "Ġborn": 5115,
      "Ġbats": 5116,
      "Ġpsychology": 5117,
      "Ġflying": 5118,
      "argum": 5119,
      "Ġnarrow": 5120,
      "Ġdiv": 5121,
      "Ġdouble": 5122,
      "stant": 5123,
      "oted": 5124,
      "Ġlapse": 5125,
      "Ġasc": 5126,
      "Ġones": 5127,
      "Ġanxious": 5128,
      "etry": 5129,
      "idÃ¦": 5130,
      "urian": 5131,
      "Ġexposition": 5132,
      "eces": 5133,
      "oses": 5134,
      "about": 5135,
      "quite": 5136,
      "Ġprospect": 5137,
      "ads": 5138,
      "riers": 5139,
      "Ġbutter": 5140,
      "olf": 5141,
      "umer": 5142,
      "umption": 5143,
      "Ġintr": 5144,
      "answ": 5145,
      "plies": 5146,
      "Ġmeasure": 5147,
      "Ġimper": 5148,
      "udent": 5149,
      "Ġadjoining": 5150,
      "Ġtrave": 5151,
      "acing": 5152,
      "ĠSpecies": 5153,
      "apsed": 5154,
      "Ġdislike": 5155,
      "except": 5156,
      "Ġregiment": 5157,
      "Ġfeathers": 5158,
      "Ġarch": 5159,
      "Ġprefer": 5160,
      "ressions": 5161,
      "liza": 5162,
      "ĠOh": 5163,
      "Ġbelieving": 5164,
      "bran": 5165,
      "applic": 5166,
      "Ġadmiss": 5167,
      "icians": 5168,
      "Ġsupply": 5169,
      "Ġsystems": 5170,
      "Ġgoes": 5171,
      "Ġoriginate": 5172,
      "Ġexamine": 5173,
      "Ġdoubted": 5174,
      "Ġadds": 5175,
      "Ġblack": 5176,
      "Ġexpectation": 5177,
      "Ġsurrounding": 5178,
      "Ġproceeded": 5179,
      "Ġadvantageous": 5180,
      "Ġcircle": 5181,
      "iana": 5182,
      "pothes": 5183,
      "Ġglacial": 5184,
      "Ġadaptation": 5185,
      "organs": 5186,
      "sister": 5187,
      "Ġtele": 5188,
      "Ġendeavoured": 5189,
      "Ġlowest": 5190,
      "Ġintroduced": 5191,
      "Ġcelebrated": 5192,
      "compet": 5193,
      "ĠYour": 5194,
      "Ġdialectic": 5195,
      "Ġmonths": 5196,
      "individual": 5197,
      "liest": 5198,
      "ĠIslands": 5199,
      "Ġtransported": 5200,
      "Ġinclination": 5201,
      "Ġinclined": 5202,
      "Charlotte": 5203,
      "Ġquarter": 5204,
      "Ġindifference": 5205,
      "Ġcapacity": 5206,
      "probably": 5207,
      "difficulty": 5208,
      "Ġbreakfast": 5209,
      "Ġsediment": 5210,
      "Ġstrength": 5211,
      "Ġattentions": 5212,
      "particular": 5213,
      "investig": 5214,
      "ozoic": 5215,
      "worthy": 5216,
      "Ġapodeictic": 5217,
      "agreeable": 5218,
      "Ġnectar": 5219,
      "Ġlamell": 5220,
      "Ġliberty": 5221,
      "Summary": 5222,
      "Amer": 5223,
      "CEND": 5224,
      "EL": 5225,
      "Europe": 5226,
      "Gr": 5227,
      "IT": 5228,
      "draw": 5229,
      "father": 5230,
      "gl": 5231,
      "iet": 5232,
      "mist": 5233,
      "ned": 5234,
      "ox": 5235,
      "side": 5236,
      "take": 5237,
      "ues": 5238,
      "uber": 5239,
      "vary": 5240,
      "ĠÃ¦": 5241,
      "ĠâĢĺ": 5242,
      "Ġalike": 5243,
      "Ġtheoretical": 5244,
      "Ġsalt": 5245,
      "iter": 5246,
      "Ġwis": 5247,
      "Ġwar": 5248,
      "Ġcat": 5249,
      "Ġpaid": 5250,
      "Ġfat": 5251,
      "allied": 5252,
      "Ġthir": 5253,
      "icity": 5254,
      "Ġhoriz": 5255,
      "Ġdread": 5256,
      "still": 5257,
      "Ġconceive": 5258,
      "Ġgarden": 5259,
      "Ġancest": 5260,
      "iferous": 5261,
      "Ġexec": 5262,
      "amp": 5263,
      "ames": 5264,
      "Ġspent": 5265,
      "Ġseason": 5266,
      "ivable": 5267,
      "establ": 5268,
      "Ġcomposed": 5269,
      "Ġspecially": 5270,
      "Ġaltered": 5271,
      "Ġru": 5272,
      "Ġrising": 5273,
      "Ġperform": 5274,
      "Ġnephe": 5275,
      "ĠAgain": 5276,
      "mention": 5277,
      "Ġadopt": 5278,
      "ĠCar": 5279,
      "ĠEm": 5280,
      "ĠEliza": 5281,
      "Ġwhenever": 5282,
      "agos": 5283,
      "Ġjourney": 5284,
      "Ġregret": 5285,
      "ĠDerbyshire": 5286,
      "Ġsym": 5287,
      "assert": 5288,
      "everal": 5289,
      "Ġserves": 5290,
      "Ġinstrum": 5291,
      "Ġdeterminable": 5292,
      "fulness": 5293,
      "Ġflo": 5294,
      "Ġthinks": 5295,
      "Ġadmits": 5296,
      "Ġhypothes": 5297,
      "Ġyounger": 5298,
      "Ġopened": 5299,
      "Ġillustration": 5300,
      "Ġletters": 5301,
      "Ġhoped": 5302,
      "Ġaddress": 5303,
      "Ġdirections": 5304,
      "attention": 5305,
      "Ġfourth": 5306,
      "productions": 5307,
      "Ġapplicable": 5308,
      "Ġwrong": 5309,
      "Ġderive": 5310,
      "Ġarranged": 5311,
      "simple": 5312,
      "Ġembryos": 5313,
      "Ġincluded": 5314,
      "Ġimmense": 5315,
      "Ġdemonstration": 5316,
      "Ġdemonstrated": 5317,
      "Ġendeavours": 5318,
      "Ġdistinguishing": 5319,
      "Ġessentially": 5320,
      "Ġvex": 5321,
      "offspring": 5322,
      "breeds": 5323,
      "breeding": 5324,
      "Ġspontaneous": 5325,
      "Ġspontaneity": 5326,
      "ounced": 5327,
      "concern": 5328,
      "Ġtype": 5329,
      "Ġvertebr": 5330,
      "Ġexterminated": 5331,
      "Ġangles": 5332,
      "Ġgratitude": 5333,
      "descended": 5334,
      "fertil": 5335,
      "ĠBritish": 5336,
      "Ġfault": 5337,
      "Ġreversion": 5338,
      "Ġqualities": 5339,
      "faculty": 5340,
      "Ġinsisted": 5341,
      "misphere": 5342,
      "Ġvanity": 5343,
      "Ġquadrupeds": 5344,
      "Ġentitled": 5345,
      "Ġmagn": 5346,
      "immediately": 5347,
      "ANSCEND": 5348,
      "Ġimprobable": 5349,
      "civil": 5350,
      "alapagos": 5351,
      "Ġnephew": 5352,
      "ANSCENDENTAL": 5353,
      "Lizzy": 5354,
      "Your": 5355,
      "acious": 5356,
      "bes": 5357,
      "high": 5358,
      "iating": 5359,
      "ieces": 5360,
      "mem": 5361,
      "pret": 5362,
      "rid": 5363,
      "sus": 5364,
      "uable": 5365,
      "Ġillegitimate": 5366,
      "Ġaquatic": 5367,
      "inf": 5368,
      "inal": 5369,
      "reci": 5370,
      "reprodu": 5371,
      "Ġwand": 5372,
      "Ġwinter": 5373,
      "isable": 5374,
      "islands": 5375,
      "Ġbat": 5376,
      "Ġbold": 5377,
      "Ġinci": 5378,
      "Ġpou": 5379,
      "Ġpup": 5380,
      "Ġfly": 5381,
      "Ġmill": 5382,
      "orld": 5383,
      "Ġthin": 5384,
      "Ġelect": 5385,
      "stru": 5386,
      "step": 5387,
      "imag": 5388,
      "Ġconveni": 5389,
      "utter": 5390,
      "econd": 5391,
      "Ġwel": 5392,
      "osen": 5393,
      "thousand": 5394,
      "iliar": 5395,
      "ilurian": 5396,
      "ĠMany": 5397,
      "umb": 5398,
      "Ġspecim": 5399,
      "Ġintended": 5400,
      "conce": 5401,
      "Ġunlike": 5402,
      "ĠAlp": 5403,
      "independ": 5404,
      "Ġshell": 5405,
      "Ġproud": 5406,
      "ĠCosmological": 5407,
      "extr": 5408,
      "beings": 5409,
      "beyond": 5410,
      "aston": 5411,
      "Ġfeed": 5412,
      "Ġdistur": 5413,
      "Ġremo": 5414,
      "super": 5415,
      "Ġenemies": 5416,
      "Ġcompany": 5417,
      "Ġobtained": 5418,
      "apparent": 5419,
      "Ġconnecting": 5420,
      "manif": 5421,
      "Ġactive": 5422,
      "Ġadvantages": 5423,
      "Ġroad": 5424,
      "ailing": 5425,
      "Ġgoose": 5426,
      "understand": 5427,
      "Ġbegins": 5428,
      "Ġcollection": 5429,
      "Ġdecre": 5430,
      "Ġconflict": 5431,
      "pract": 5432,
      "Ġconstitutive": 5433,
      "educ": 5434,
      "Ġestim": 5435,
      "Ġprevious": 5436,
      "generations": 5437,
      "certainly": 5438,
      "autious": 5439,
      "Ġimaginary": 5440,
      "Ġauthoriz": 5441,
      "Ġsatisfy": 5442,
      "Ġsatisfactory": 5443,
      "Ġfinal": 5444,
      "Ġembarrass": 5445,
      "ĠVer": 5446,
      "TIC": 5447,
      "Ġutility": 5448,
      "Ġpreserve": 5449,
      "Ġdenied": 5450,
      "Ġsurprising": 5451,
      "Ġwrote": 5452,
      "Ġpermanence": 5453,
      "Ġelsewhere": 5454,
      "construct": 5455,
      "Ġdefence": 5456,
      "Ġmeeting": 5457,
      "Ġinclude": 5458,
      "Ġextends": 5459,
      "occup": 5460,
      "myself": 5461,
      "Ġfortun": 5462,
      "Ġscheme": 5463,
      "crossed": 5464,
      "Ġrenders": 5465,
      "Ġmetaphysical": 5466,
      "Ġlistened": 5467,
      "Ġcentral": 5468,
      "explicable": 5469,
      "Ġmarrying": 5470,
      "preser": 5471,
      "Ġfanci": 5472,
      "Ġbenefit": 5473,
      "Ġexperiments": 5474,
      "affe": 5475,
      "ĠNothing": 5476,
      "Ġdeserve": 5477,
      "xiety": 5478,
      "Ġdeposits": 5479,
      "ĠIndia": 5480,
      "Ġtriangle": 5481,
      "ĠBritain": 5482,
      "Ġventure": 5483,
      "Ġultimately": 5484,
      "Ġportion": 5485,
      "edded": 5486,
      "Ġchoose": 5487,
      "ĠGeneral": 5488,
      "issimum": 5489,
      "adequate": 5490,
      "Ġproblematical": 5491,
      "Ġincipient": 5492,
      ";âĢĿ": 5493,
      "Collins": 5494,
      "Transcendental": 5495,
      "Well": 5496,
      "crit": 5497,
      "dle": 5498,
      "hist": 5499,
      "house": 5500,
      "lish": 5501,
      "non": 5502,
      "nÃ¦": 5503,
      "norm": 5504,
      "rim": 5505,
      "said": 5506,
      "tend": 5507,
      "trees": 5508,
      "Ã«": 5509,
      "Ġtone": 5510,
      "itect": 5511,
      "isl": 5512,
      "Ġcovered": 5513,
      "Ġbud": 5514,
      "Ġborne": 5515,
      "Ġinduce": 5516,
      "Ġpun": 5517,
      "Ġpause": 5518,
      "Ġfle": 5519,
      "Ġmad": 5520,
      "alc": 5521,
      "Ġthrown": 5522,
      "icell": 5523,
      "Ġniece": 5524,
      "Ġdrew": 5525,
      "Ġdancing": 5526,
      "Ġreve": 5527,
      "Ġrever": 5528,
      "Ġrelie": 5529,
      "Ġrejo": 5530,
      "Ġreptiles": 5531,
      "otion": 5532,
      "Ġcongrat": 5533,
      "utable": 5534,
      "etch": 5535,
      "irmed": 5536,
      "Ġorch": 5537,
      "ables": 5538,
      "ament": 5539,
      "Ġspheres": 5540,
      "ilarly": 5541,
      "Ġalluded": 5542,
      "Ġpropos": 5543,
      "Ġvict": 5544,
      "Ġhermaphrod": 5545,
      "emic": 5546,
      "conveni": 5547,
      "igs": 5548,
      "Ġperformed": 5549,
      "allace": 5550,
      "ardon": 5551,
      "Ġchosen": 5552,
      "Ġnative": 5553,
      "Ġanyone": 5554,
      "Ġtrace": 5555,
      "acr": 5556,
      "order": 5557,
      "ĠWell": 5558,
      "Ġgrave": 5559,
      "Ġthank": 5560,
      "Ġgeneric": 5561,
      "ĠLog": 5562,
      "bees": 5563,
      "Ġrelatively": 5564,
      "agger": 5565,
      "Ġimpati": 5566,
      "cles": 5567,
      "Ġarctic": 5568,
      "Ġmodern": 5569,
      "Ġsubsist": 5570,
      "Ġenclosed": 5571,
      "Ġrepresents": 5572,
      "Ġrepresentative": 5573,
      "Ġproduces": 5574,
      "appears": 5575,
      "mater": 5576,
      "Ġstrata": 5577,
      "Ġadvice": 5578,
      "Ġinference": 5579,
      "Ġrequest": 5580,
      "delight": 5581,
      "Ġillusory": 5582,
      "Ġplease": 5583,
      "ropical": 5584,
      "brids": 5585,
      "Ġconfusion": 5586,
      "peculiar": 5587,
      "Ġworkers": 5588,
      "Ġobjectively": 5589,
      "conting": 5590,
      "Ġrelationship": 5591,
      "Ġelapsed": 5592,
      "certainty": 5593,
      "Ġpeculiarity": 5594,
      "ocene": 5595,
      "Ġfavourite": 5596,
      "ĠTherefore": 5597,
      "Ġembedded": 5598,
      "ocks": 5599,
      "Ġwanted": 5600,
      "Ġwanting": 5601,
      "young": 5602,
      "produce": 5603,
      "Ġpositive": 5604,
      "desc": 5605,
      "Ġsummer": 5606,
      "Ġexcepting": 5607,
      "flies": 5608,
      "Ġprofitable": 5609,
      "Ġhabitually": 5610,
      "Ġpresupposition": 5611,
      "Ġcontradictory": 5612,
      "Ġfalls": 5613,
      "Ġincludes": 5614,
      "Ġexcited": 5615,
      "Ġfortnight": 5616,
      "Ġmigrated": 5617,
      "ĠNature": 5618,
      "Ġraise": 5619,
      "Ġedition": 5620,
      "happy": 5621,
      "Ġresolution": 5622,
      "Ġharmon": 5623,
      "Ġsubsidence": 5624,
      "Ġserviceable": 5625,
      "Ġdeserves": 5626,
      "Ġdeposited": 5627,
      "Ġdistricts": 5628,
      "example": 5629,
      "Ġeldest": 5630,
      "Ġtitle": 5631,
      "Ġbriefly": 5632,
      "Ġpistil": 5633,
      "Ġforgotten": 5634,
      "Ġsuspicion": 5635,
      "subsistent": 5636,
      "Ġpicture": 5637,
      "enealogical": 5638,
      "ĠlamellÃ¦": 5639,
      "Ġinstrument": 5640,
      "Ġhypotheses": 5641,
      "AC": 5642,
      "Ge": 5643,
      "Lydia": 5644,
      "Se": 5645,
      "So": 5646,
      "bar": 5647,
      "bation": 5648,
      "cre": 5649,
      "car": 5650,
      "dest": 5651,
      "frequ": 5652,
      "horse": 5653,
      "ipp": 5654,
      "jun": 5655,
      "ls": 5656,
      "looked": 5657,
      "ole": 5658,
      "since": 5659,
      "tes": 5660,
      "vable": 5661,
      "inally": 5662,
      "really": 5663,
      "Ġsal": 5664,
      "Ġsound": 5665,
      "Ġsitting": 5666,
      "era": 5667,
      "ital": 5668,
      "atures": 5669,
      "Ġwise": 5670,
      "Ġcautious": 5671,
      "Ġbed": 5672,
      "Ġinexplicable": 5673,
      "Ġpay": 5674,
      "Ġmil": 5675,
      "Ġmass": 5676,
      "ices": 5677,
      "arp": 5678,
      "arity": 5679,
      "Ġhint": 5680,
      "Ġdro": 5681,
      "ots": 5682,
      "otent": 5683,
      "lled": 5684,
      "vey": 5685,
      "Ġconjo": 5686,
      "utation": 5687,
      "Ġassoci": 5688,
      "Ġanxiety": 5689,
      "ets": 5690,
      "roach": 5691,
      "iest": 5692,
      "Ġsun": 5693,
      "istence": 5694,
      "abs": 5695,
      "ulations": 5696,
      "iling": 5697,
      "Ġstood": 5698,
      "Ġstocked": 5699,
      "ĠTime": 5700,
      "ĠMaria": 5701,
      "contain": 5702,
      "consequ": 5703,
      "Ġrash": 5704,
      "Ġperpet": 5705,
      "ariÃ¦": 5706,
      "key": 5707,
      "Ġmeas": 5708,
      "udation": 5709,
      "Ġtrying": 5710,
      "ĠScot": 5711,
      "Ġreasonable": 5712,
      "Ġpartial": 5713,
      "ĠWorld": 5714,
      "opod": 5715,
      "Ġquiet": 5716,
      "spir": 5717,
      "Ġ(_": 5718,
      "Ġevil": 5719,
      "ĠLa": 5720,
      "Ġwhence": 5721,
      "inea": 5722,
      "Ġrelating": 5723,
      "Ġjaw": 5724,
      "Ġfell": 5725,
      "Ġconsol": 5726,
      "claim": 5727,
      "Ġarisen": 5728,
      "Ġeverywhere": 5729,
      "bert": 5730,
      "Ġdesir": 5731,
      "Ġsubtle": 5732,
      "Ġenumer": 5733,
      "proof": 5734,
      "Ġdifferently": 5735,
      "Ġflatter": 5736,
      "Ġorganised": 5737,
      "formations": 5738,
      "Ġentreat": 5739,
      "strong": 5740,
      "serve": 5741,
      "Ġendless": 5742,
      "speculative": 5743,
      "Ġcaused": 5744,
      "Ġsecre": 5745,
      "Ġrecur": 5746,
      "Ġinferences": 5747,
      "Ġoriginated": 5748,
      "Ġrealissimum": 5749,
      "Ġopinions": 5750,
      "Ġslightest": 5751,
      "Ġcolon": 5752,
      "Ġdeclar": 5753,
      "Ġconfirm": 5754,
      "variety": 5755,
      "Ġearliest": 5756,
      "Ġcoexistence": 5757,
      "Ġoccurs": 5758,
      "accord": 5759,
      "Ġproofs": 5760,
      "Ġanalytic": 5761,
      "Ġinferior": 5762,
      "remark": 5763,
      "Ġnegation": 5764,
      "Ġpretend": 5765,
      "Ġgiraffe": 5766,
      "Ġdefici": 5767,
      "originally": 5768,
      "Ġremaining": 5769,
      "Ġintroduction": 5770,
      "Ġprogenitors": 5771,
      "Ġdivergence": 5772,
      "Ġaffectionate": 5773,
      "Ġpropag": 5774,
      "Ġconversely": 5775,
      "Ġpromise": 5776,
      "Ġdelighted": 5777,
      "Ġaffirmative": 5778,
      "happiness": 5779,
      "Ġmulti": 5780,
      "Ġpersuade": 5781,
      "Ġdispute": 5782,
      "Ġassuredly": 5783,
      "Ġclimb": 5784,
      "Ġstocks": 5785,
      "families": 5786,
      "descendants": 5787,
      "embered": 5788,
      "philosophy": 5789,
      "secutive": 5790,
      "Ġindefinite": 5791,
      "Ġrecollection": 5792,
      "Ġobscure": 5793,
      "distinguish": 5794,
      "closely": 5795,
      "Ġaggregate": 5796,
      "instincts": 5797,
      "Ġparasitic": 5798,
      "Ġbotanists": 5799,
      "highest": 5800,
      "Ġmovements": 5801,
      "resembl": 5802,
      "ĠAnaly": 5803,
      "Ġsophistical": 5804,
      "ĠAlpine": 5805,
      "Ġmadam": 5806,
      "icellariÃ¦": 5807,
      "AM": 5808,
      "Catherine": 5809,
      "Many": 5810,
      "OD": 5811,
      "Qu": 5812,
      "Vari": 5813,
      "Why": 5814,
      "auth": 5815,
      "bas": 5816,
      "course": 5817,
      "eem": 5818,
      "four": 5819,
      "find": 5820,
      "hard": 5821,
      "lost": 5822,
      "ns": 5823,
      "pollen": 5824,
      "rac": 5825,
      "Ġ----": 5826,
      "erning": 5827,
      "iteness": 5828,
      "Ġwatch": 5829,
      "Ġcourage": 5830,
      "Ġbur": 5831,
      "Ġborrow": 5832,
      "Ġinsens": 5833,
      "Ġinformed": 5834,
      "Ġfant": 5835,
      "arles": 5836,
      "Ġdata": 5837,
      "seeds": 5838,
      "stairs": 5839,
      "oty": 5840,
      "Ġforth": 5841,
      "Ġnotwithstanding": 5842,
      "abb": 5843,
      "terior": 5844,
      "uls": 5845,
      "ilities": 5846,
      "Ġattained": 5847,
      "Ġstyle": 5848,
      "antic": 5849,
      "liber": 5850,
      "ceptivity": 5851,
      "ustom": 5852,
      "ĠBoth": 5853,
      "Ġintimate": 5854,
      "Ġunavoidable": 5855,
      "Ġrad": 5856,
      "Ġnearer": 5857,
      "ĠApp": 5858,
      "Ġnobody": 5859,
      "oreal": 5860,
      "Ġundergo": 5861,
      "udence": 5862,
      "ĠSw": 5863,
      "ĠSilurian": 5864,
      "ĠCandolle": 5865,
      "Ġevidently": 5866,
      "Ġaccompl": 5867,
      "Ġamuse": 5868,
      "Ġamaz": 5869,
      "ĠDis": 5870,
      "Ġtwice": 5871,
      "ĠNay": 5872,
      "Ġprincipal": 5873,
      "supi": 5874,
      "Ġagreement": 5875,
      "ĠPR": 5876,
      "els": 5877,
      "Ġdesp": 5878,
      "Ġpresenting": 5879,
      "Ġsubsequent": 5880,
      "Ġsubstant": 5881,
      "cking": 5882,
      "sole": 5883,
      "ĠGood": 5884,
      "appeared": 5885,
      "Ġentering": 5886,
      "Ġfinds": 5887,
      "Ġendure": 5888,
      "Ġdegr": 5889,
      "Ġcorrelation": 5890,
      "Ġscene": 5891,
      "Ġsooner": 5892,
      "Ġclassed": 5893,
      "grace": 5894,
      "Ġaffair": 5895,
      "Ġfacility": 5896,
      "Ġobserving": 5897,
      "Ġgeology": 5898,
      "Ġbreeding": 5899,
      "peck": 5900,
      "Ġslave": 5901,
      "regress": 5902,
      "Ġacquire": 5903,
      "willing": 5904,
      "Ġestate": 5905,
      "Ġcoexistent": 5906,
      "sonage": 5907,
      "lfare": 5908,
      "Ġvisited": 5909,
      "account": 5910,
      "Ġaccounted": 5911,
      "Ġpractice": 5912,
      "ammals": 5913,
      "Ġcorresponds": 5914,
      "Ġdiscovering": 5915,
      "Ġcareful": 5916,
      "Ġassumption": 5917,
      "Ġerrors": 5918,
      "Ġcuriosity": 5919,
      "Ġcolours": 5920,
      "Ġbearing": 5921,
      "Ġwonderfully": 5922,
      "Ġinvestigations": 5923,
      "Ġchecked": 5924,
      "Ġhomogeneous": 5925,
      "better": 5926,
      "sterility": 5927,
      "Ġsuffered": 5928,
      "Ġpromised": 5929,
      "Ġdelightful": 5930,
      "Ġidealism": 5931,
      "Ġopponent": 5932,
      "Ġaccepted": 5933,
      "Ġclimates": 5934,
      "Ġpursue": 5935,
      "Ġlibrary": 5936,
      "Ġposteriori": 5937,
      "Ġsurvive": 5938,
      "Ġmasters": 5939,
      "Ġextermination": 5940,
      "thinking": 5941,
      "echan": 5942,
      "ĠEnglish": 5943,
      "systematic": 5944,
      "embry": 5945,
      "formerly": 5946,
      "ECTION": 5947,
      "ĠIdeas": 5948,
      "Ġgeometrical": 5949,
      "Ġassistance": 5950,
      "Ġparallelism": 5951,
      "adapted": 5952,
      "Ġvigorous": 5953,
      "Ġengagement": 5954,
      "Ġefforts": 5955,
      "Ġaccompanied": 5956,
      "cogitate": 5957,
      "ĠSystem": 5958,
      "ĠLeibnitz": 5959,
      "Ġelegant": 5960,
      "Ġboast": 5961,
      "Ġconjecture": 5962,
      "Although": 5963,
      "Reason": 5964,
      "extremely": 5965,
      "apparently": 5966,
      "manifold": 5967,
      "normal": 5968,
      "Ar": 5969,
      "BR": 5970,
      "DI": 5971,
      "St": 5972,
      "SIS": 5973,
      "bled": 5974,
      "cur": 5975,
      "det": 5976,
      "determine": 5977,
      "freedom": 5978,
      "gans": 5979,
      "hound": 5980,
      "iÃ¦": 5981,
      "moment": 5982,
      "nearly": 5983,
      "oke": 5984,
      "poreal": 5985,
      "tion": 5986,
      "tom": 5987,
      "uit": 5988,
      "wood": 5989,
      "zen": 5990,
      "Ġsn": 5991,
      "Ġwants": 5992,
      "Ġcirripedes": 5993,
      "Ġbal": 5994,
      "Ġpat": 5995,
      "Ġpal": 5996,
      "Ġpage": 5997,
      "Ġpark": 5998,
      "Ġfond": 5999,
      "ancy": 6000,
      "Ġmine": 6001,
      "Ġnut": 6002,
      "Ġdry": 6003,
      "Ġbeat": 6004,
      "Ġeth": 6005,
      "oments": 6006,
      "seen": 6007,
      "lling": 6008,
      "imorphic": 6009,
      "Ġconsecutive": 6010,
      "Ġasking": 6011,
      "Ġglands": 6012,
      "Ġgrie": 6013,
      "Ġgenealogical": 6014,
      "ifies": 6015,
      "ura": 6016,
      "Ġexperi": 6017,
      "Ġwelfare": 6018,
      "chief": 6019,
      "ams": 6020,
      "among": 6021,
      "result": 6022,
      "Ġstead": 6023,
      "rigin": 6024,
      "ush": 6025,
      "ends": 6026,
      "ills": 6027,
      "Ġhes": 6028,
      "living": 6029,
      "ivorous": 6030,
      "oline": 6031,
      "ĠMan": 6032,
      "ĠMÃ¼ller": 6033,
      "umph": 6034,
      "Ġalarm": 6035,
      "conv": 6036,
      "concl": 6037,
      "Ġshare": 6038,
      "Ġdead": 6039,
      "Ġrud": 6040,
      "pleas": 6041,
      "Ġnoble": 6042,
      "Ġyouth": 6043,
      "ored": 6044,
      "Ġplates": 6045,
      "apit": 6046,
      "aped": 6047,
      "Ġgrant": 6048,
      "spe": 6049,
      "exists": 6050,
      "Ġindicated": 6051,
      "posit": 6052,
      "posing": 6053,
      "bell": 6054,
      "Ġcontempt": 6055,
      "Ġcontriv": 6056,
      "Ġfelic": 6057,
      "assion": 6058,
      "orial": 6059,
      "introdu": 6060,
      "supposed": 6061,
      "Their": 6062,
      "ĠOld": 6063,
      "Ġdesert": 6064,
      "hypothe": 6065,
      "Ġcommand": 6066,
      "compl": 6067,
      "Ġcompleted": 6068,
      "Ġflora": 6069,
      "brane": 6070,
      "Ġperfected": 6071,
      "overing": 6072,
      "Ġadvisable": 6073,
      "Ġpresc": 6074,
      "Ġschemat": 6075,
      "Ġjustify": 6076,
      "fficiency": 6077,
      "Ġexpresses": 6078,
      "Ġconfine": 6079,
      "Ġconfused": 6080,
      "pecial": 6081,
      "Ġantithe": 6082,
      "regular": 6083,
      "anything": 6084,
      "likewise": 6085,
      "ribes": 6086,
      "Ġmainly": 6087,
      "Ġsincere": 6088,
      "ĠKent": 6089,
      "Ġturning": 6090,
      "Ġdeduce": 6091,
      "Ġdivisions": 6092,
      "Ġteach": 6093,
      "Ġsumm": 6094,
      "Ġaided": 6095,
      "Ġcomparatively": 6096,
      "Ġerrone": 6097,
      "fluous": 6098,
      "Ġlegitimate": 6099,
      "Ġlegisl": 6100,
      "Ġpresupposed": 6101,
      "Ġpersons": 6102,
      "Ġprecedes": 6103,
      "Ġembryonic": 6104,
      "aciers": 6105,
      "Ġsettle": 6106,
      "Ġcompetent": 6107,
      "Ġservant": 6108,
      "Ġmotives": 6109,
      "organisation": 6110,
      "Ġ42": 6111,
      "Ġannually": 6112,
      "Ġbeaks": 6113,
      "Ġkeeping": 6114,
      "regarded": 6115,
      "ICAL": 6116,
      "succession": 6117,
      "Ġafforded": 6118,
      "Ġartific": 6119,
      "Ġwitness": 6120,
      "ĠIndian": 6121,
      "classification": 6122,
      "ashion": 6123,
      "probable": 6124,
      "Ġdemands": 6125,
      "humour": 6126,
      "Ġinvolved": 6127,
      "consideration": 6128,
      "Ġrapidly": 6129,
      "Ġmajority": 6130,
      "Ġnerves": 6131,
      "distinguished": 6132,
      "affected": 6133,
      "ligion": 6134,
      "feelings": 6135,
      "totality": 6136,
      "Ġrecommend": 6137,
      "acquaintance": 6138,
      "Ġvegetable": 6139,
      "Ġnoumena": 6140,
      "Ġsuggested": 6141,
      "Ġphysiological": 6142,
      "Ġtouch": 6143,
      "Ġmiddle": 6144,
      "Ġlocal": 6145,
      "Ġsequence": 6146,
      "Indeed": 6147,
      "Ġfaunas": 6148,
      "Ġexcessively": 6149,
      "Ġsweet": 6150,
      "ĠpedicellariÃ¦": 6151,
      "universal": 6152,
      "true": 6153,
      "aturday": 6154,
      "Ġbeetles": 6155,
      "Ġcompanion": 6156,
      "progenitor": 6157,
      "widely": 6158,
      "America": 6159,
      "Ġspecimens": 6160,
      "practical": 6161,
      "Ã«rial": 6162,
      "accordance": 6163,
      "supials": 6164,
      "Ġantithesis": 6165,
      "AS": 6166,
      "According": 6167,
      "Do": 6168,
      "ION": 6169,
      "OM": 6170,
      "OS": 6171,
      "Some": 6172,
      "Species": 6173,
      "UM": 6174,
      "aire": 6175,
      "directly": 6176,
      "een": 6177,
      "furn": 6178,
      "gass": 6179,
      "ii": 6180,
      "lre": 6181,
      "length": 6182,
      "morrow": 6183,
      "obe": 6184,
      "oppos": 6185,
      "raction": 6186,
      "single": 6187,
      "tem": 6188,
      "heard": 6189,
      "inous": 6190,
      "Ġod": 6191,
      "Ġosc": 6192,
      "Ġsangu": 6193,
      "itas": 6194,
      "eny": 6195,
      "enes": 6196,
      "enough": 6197,
      "Ġcrop": 6198,
      "Ġcaves": 6199,
      "Ġcaught": 6200,
      "Ġbreat": 6201,
      "Ġbond": 6202,
      "especially": 6203,
      "Ġpel": 6204,
      "Ġfit": 6205,
      "Ġmand": 6206,
      "Ġmud": 6207,
      "icked": 6208,
      "arnt": 6209,
      "Ġnec": 6210,
      "Ġdine": 6211,
      "asp": 6212,
      "ascent": 6213,
      "stros": 6214,
      "enth": 6215,
      "entire": 6216,
      "Ġrenew": 6217,
      "Ġwhale": 6218,
      "Ġlives": 6219,
      "uting": 6220,
      "Ġanom": 6221,
      "Ġanten": 6222,
      "ĠIV": 6223,
      "ĠIm": 6224,
      "uries": 6225,
      "Ġnoticed": 6226,
      "chance": 6227,
      "andon": 6228,
      "ilaire": 6229,
      "Ġseven": 6230,
      "Ġproject": 6231,
      "Ġproposed": 6232,
      "Ġstopp": 6233,
      "rier": 6234,
      "ription": 6235,
      "ĠMat": 6236,
      "ĠMalay": 6237,
      "ĠBesides": 6238,
      "Ġunf": 6239,
      "Ġunimportant": 6240,
      "Ġunlimited": 6241,
      "Ġperish": 6242,
      "allow": 6243,
      "keeper": 6244,
      "arded": 6245,
      "plex": 6246,
      "Ġnovel": 6247,
      "Ġimplies": 6248,
      "Ġabund": 6249,
      "Ġaboriginal": 6250,
      "ĠSolution": 6251,
      "ĠSeveral": 6252,
      "Ġdiffers": 6253,
      "ĠCom": 6254,
      "ĠCape": 6255,
      "aceous": 6256,
      "Ġapprehend": 6257,
      "duction": 6258,
      "Ġdispersal": 6259,
      "why": 6260,
      "agon": 6261,
      "otherwise": 6262,
      "astly": 6263,
      "Ġworking": 6264,
      "Ġartic": 6265,
      "Ġprejud": 6266,
      "Ġremembered": 6267,
      "Ġmodify": 6268,
      "intention": 6269,
      "ountains": 6270,
      "suppose": 6271,
      "ĠIts": 6272,
      "ĠPo": 6273,
      "ĠPerhaps": 6274,
      "ĠOR": 6275,
      "redible": 6276,
      "Ġinterval": 6277,
      "process": 6278,
      "Ġseeking": 6279,
      "finitum": 6280,
      "ĠGalapagos": 6281,
      "Ġfles": 6282,
      "Ġflow": 6283,
      "bra": 6284,
      "Ġcalling": 6285,
      "Ġconnections": 6286,
      "ician": 6287,
      "Ġacting": 6288,
      "Ġfinding": 6289,
      "Ġendemic": 6290,
      "neg": 6291,
      "neither": 6292,
      "Ġcausing": 6293,
      "Ġvaluable": 6294,
      "Ġhands": 6295,
      "Ġfamiliar": 6296,
      "presented": 6297,
      "Ġrefuse": 6298,
      "hamed": 6299,
      "Ġlooks": 6300,
      "Ġremarkably": 6301,
      "Ġadding": 6302,
      "Ġshowed": 6303,
      "Ġblown": 6304,
      "Ġpassage": 6305,
      "attered": 6306,
      "ĠOnly": 6307,
      "atisation": 6308,
      "Ġgradation": 6309,
      "Ġspeech": 6310,
      "Ġmatters": 6311,
      "Ġparticulars": 6312,
      "Ġseparation": 6313,
      "luck": 6314,
      "Ġstripes": 6315,
      "Ġtotally": 6316,
      "extent": 6317,
      "substances": 6318,
      "Ġstrugg": 6319,
      "ĠĠĠĠĠĠĠĠĠĠĠĠĠĠĠĠĠĠĠĠĠĠĠĠĠĠĠĠĠĠĠĠĠĠĠĠĠĠĠĠ": 6320,
      "Ġdenudation": 6321,
      "Ġcomparing": 6322,
      "Ġbears": 6323,
      "preced": 6324,
      "Ġopening": 6325,
      "modifications": 6326,
      "Ġavicul": 6327,
      "cognitions": 6328,
      "Ġplayed": 6329,
      "limits": 6330,
      "limatisation": 6331,
      "Ġexcre": 6332,
      "twenty": 6333,
      "ternally": 6334,
      "Ġdetected": 6335,
      "Ġsucceeded": 6336,
      "Ġoccupies": 6337,
      "Ġprimitive": 6338,
      "Ġoperation": 6339,
      "sychological": 6340,
      "Ġworthy": 6341,
      "Ġproblems": 6342,
      "Ġconsistent": 6343,
      "Ġattributes": 6344,
      "Ġinfinitum": 6345,
      "mission": 6346,
      "Ġangry": 6347,
      "Ġrepeatedly": 6348,
      "ĠExistence": 6349,
      "constitution": 6350,
      "follows": 6351,
      "following": 6352,
      "Ġmediate": 6353,
      "Ġwarmth": 6354,
      "employment": 6355,
      "belonging": 6356,
      "Ġsyllogism": 6357,
      "Ġsyllogisms": 6358,
      "rush": 6359,
      "Ġfirmly": 6360,
      "Ġvigour": 6361,
      "Ġcharming": 6362,
      "Ġclosest": 6363,
      "Ġattacks": 6364,
      "Ġassigned": 6365,
      "comparison": 6366,
      "Ġbuilding": 6367,
      "Ġeminently": 6368,
      "Ġtolerably": 6369,
      "rents": 6370,
      "mathematics": 6371,
      "Ġscepticism": 6372,
      "improved": 6373,
      "ursive": 6374,
      "metaphysics": 6375,
      "Ġcultivated": 6376,
      "optera": 6377,
      "ĠPrinciples": 6378,
      "Ġunequal": 6379,
      "Ġdeviations": 6380,
      "Ġschools": 6381,
      "Ã¶lre": 6382,
      "Ġassurance": 6383,
      "circumstances": 6384,
      "Ġtumbler": 6385,
      "Ġaxioms": 6386,
      "Ġbutterflies": 6387,
      "Ġarchitect": 6388,
      "investigation": 6389,
      "ĠÃ¦sthetic": 6390,
      "Ġthirty": 6391,
      "ĠCaroline": 6392,
      "Ġelectric": 6393,
      "Ġdisturbed": 6394,
      "junctive": 6395,
      "hardly": 6396,
      "Ġfelicity": 6397,
      "gassiz": 6398,
      "Ã¶lreuter": 6399,
      ".âĢĻ": 6400,
      "Col": 6401,
      "EM": 6402,
      "ID": 6403,
      "Is": 6404,
      "Pro": 6405,
      "Very": 6406,
      "dig": 6407,
      "dialect": 6408,
      "five": 6409,
      "fall": 6410,
      "further": 6411,
      "fossil": 6412,
      "iation": 6413,
      "line": 6414,
      "lower": 6415,
      "nay": 6416,
      "opposition": 6417,
      "ran": 6418,
      "rach": 6419,
      "rather": 6420,
      "ss": 6421,
      "sign": 6422,
      "slow": 6423,
      "tin": 6424,
      "tow": 6425,
      "taken": 6426,
      "wr": 6427,
      "Ãª": 6428,
      "Ġlying": 6429,
      "Ġapt": 6430,
      "inquir": 6431,
      "rep": 6432,
      "reen": 6433,
      "restr": 6434,
      "Ġsection": 6435,
      "itating": 6436,
      "itors": 6437,
      "ening": 6438,
      "aters": 6439,
      "Ġcatch": 6440,
      "Ġbare": 6441,
      "Ġbattle": 6442,
      "Ġpati": 6443,
      "Ġpaper": 6444,
      "Ġfire": 6445,
      "Ġfailed": 6446,
      "Ġfashion": 6447,
      "anations": 6448,
      "aled": 6449,
      "already": 6450,
      "Ġhorns": 6451,
      "Ġdining": 6452,
      "ceans": 6453,
      "hers": 6454,
      "Ġlof": 6455,
      "Ġluck": 6456,
      "Ġaside": 6457,
      "Ġashamed": 6458,
      "Ġgame": 6459,
      "Ġont": 6460,
      "verse": 6461,
      "Ġexagger": 6462,
      "changed": 6463,
      "abor": 6464,
      "above": 6465,
      "Ġspend": 6466,
      "Ġseas": 6467,
      "Ġseated": 6468,
      "Ġseize": 6469,
      "Ġproc": 6470,
      "adm": 6471,
      "ading": 6472,
      "admitted": 6473,
      "Ġstop": 6474,
      "Ġstory": 6475,
      "usal": 6476,
      "thers": 6477,
      "confin": 6478,
      "convers": 6479,
      "Ġpermit": 6480,
      "Ġneut": 6481,
      "acted": 6482,
      "ĠAnt": 6483,
      "Ġchose": 6484,
      "Ġundergoing": 6485,
      "Ġabnormal": 6486,
      "Ġplum": 6487,
      "Ġplains": 6488,
      "ĠSu": 6489,
      "ĠSaturday": 6490,
      "Ġpartner": 6491,
      "ĠWhether": 6492,
      "ĠWallace": 6493,
      "opular": 6494,
      "aceÃ¦": 6495,
      "Ġembr": 6496,
      "Ġdiscipline": 6497,
      "exercise": 6498,
      "Ġindul": 6499,
      "begin": 6500,
      "Ġregular": 6501,
      "asts": 6502,
      "Ġdiffered": 6503,
      "Ġdistress": 6504,
      "avity": 6505,
      "Ġconsent": 6506,
      "ĠDeduction": 6507,
      "Ġaround": 6508,
      "Ġprepar": 6509,
      "Ġupstairs": 6510,
      "Ġmodest": 6511,
      "else": 6512,
      "Ġenlarge": 6513,
      "ckon": 6514,
      "Ġinstant": 6515,
      "nthetical": 6516,
      "ĠGreat": 6517,
      "tened": 6518,
      "Ġconsiders": 6519,
      "Ġexpose": 6520,
      "Ġpoly": 6521,
      "Ġouter": 6522,
      "Ġconnects": 6523,
      "urning": 6524,
      "ritz": 6525,
      "Ġincess": 6526,
      "Ġcausal": 6527,
      "Ġrecourse": 6528,
      "Ġconsiderably": 6529,
      "Ġrequiring": 6530,
      "understood": 6531,
      "Ġemploying": 6532,
      "ggs": 6533,
      "ground": 6534,
      "Ġaffirmed": 6535,
      "Ġobserver": 6536,
      "Ġaddressed": 6537,
      "Ġpasses": 6538,
      "variable": 6539,
      "Ġgrades": 6540,
      "Ġconstituted": 6541,
      "Ġsets": 6542,
      "Ġesteem": 6543,
      "reasonable": 6544,
      "Ġviscid": 6545,
      "Ġmainland": 6546,
      "Ġdestitute": 6547,
      "Ġglaciers": 6548,
      "few": 6549,
      "Ġhousekeeper": 6550,
      "orgiana": 6551,
      "Ġanalogies": 6552,
      "Ġanalogical": 6553,
      "Ġposit": 6554,
      "Ġmisery": 6555,
      "raised": 6556,
      "ĠWithout": 6557,
      "Ġneglect": 6558,
      "evidence": 6559,
      "Ġcontradictions": 6560,
      "complex": 6561,
      "Ġavail": 6562,
      "Ġresemblances": 6563,
      "Ġpeace": 6564,
      "construction": 6565,
      "Ġsigns": 6566,
      "Ġminor": 6567,
      "Ġdefine": 6568,
      "Ġseedlings": 6569,
      "expect": 6570,
      "subjective": 6571,
      "Ġoblig": 6572,
      "Ġskull": 6573,
      "Ġhomes": 6574,
      "Ġdiverse": 6575,
      "Ġapprox": 6576,
      "Ġconfinement": 6577,
      "Ġsentiments": 6578,
      "regards": 6579,
      "Ġjudging": 6580,
      "Ġdefinitions": 6581,
      "Ġpersuasion": 6582,
      "Ġimperfection": 6583,
      "foundation": 6584,
      "offroy": 6585,
      "Ġproportional": 6586,
      "ĠAustralian": 6587,
      "Ġsurvival": 6588,
      "Ġirregular": 6589,
      "Ġbottom": 6590,
      "Ġquarters": 6591,
      "Ġweeks": 6592,
      "Ġdeeply": 6593,
      "Ġbooks": 6594,
      "Ġexhibit": 6595,
      "adder": 6596,
      "Ġreferred": 6597,
      "Ġantecedes": 6598,
      "Ġantecedent": 6599,
      "Ġfifty": 6600,
      "Ġeagerly": 6601,
      "Ġgeometry": 6602,
      "physical": 6603,
      "total": 6604,
      "Ġelder": 6605,
      "Ġinnate": 6606,
      "Ġnoumenon": 6607,
      "Ġsuggest": 6608,
      "Ġeminent": 6609,
      "Ġheavy": 6610,
      "division": 6611,
      "Ġdelicate": 6612,
      "ĠXXX": 6613,
      "Ġpetals": 6614,
      "PROO": 6615,
      "occurred": 6616,
      "Ġrestricted": 6617,
      "Ġsteady": 6618,
      "Ġcontempl": 6619,
      "Ġunusual": 6620,
      "Ġdiminished": 6621,
      "application": 6622,
      "Ġmillion": 6623,
      "Ġwelcome": 6624,
      "occupied": 6625,
      "Ġfortunate": 6626,
      "opposite": 6627,
      "PROOF": 6628,
      ";--": 6629,
      "Chapter": 6630,
      "IR": 6631,
      "IAL": 6632,
      "OP": 6633,
      "_.âĢĿ": 6634,
      "actions": 6635,
      "bus": 6636,
      "bene": 6637,
      "bted": 6638,
      "der": 6639,
      "down": 6640,
      "divers": 6641,
      "ease": 6642,
      "faced": 6643,
      "hope": 6644,
      "kward": 6645,
      "lab": 6646,
      "mis": 6647,
      "oof": 6648,
      "pur": 6649,
      "taking": 6650,
      "uating": 6651,
      "vity": 6652,
      "Ġid": 6653,
      "Ġeduc": 6654,
      "Ġtaught": 6655,
      "heart": 6656,
      "Ġaph": 6657,
      "infinite": 6658,
      "inasmuch": 6659,
      "Ġoceans": 6660,
      "onounced": 6661,
      "Ġsick": 6662,
      "itance": 6663,
      "atson": 6664,
      "Ġwolf": 6665,
      "isure": 6666,
      "Ġcour": 6667,
      "Ġcens": 6668,
      "Ġcalc": 6669,
      "ese": 6670,
      "estern": 6671,
      "Ġinhere": 6672,
      "Ġinform": 6673,
      "Ġinforms": 6674,
      "Ġinadequate": 6675,
      "Ġpiece": 6676,
      "Ġpenetr": 6677,
      "Ġfast": 6678,
      "Ġmoments": 6679,
      "alis": 6680,
      "inging": 6681,
      "icating": 6682,
      "aratus": 6683,
      "Ġhid": 6684,
      "Ġhatched": 6685,
      "Ġdrop": 6686,
      "Ġdwell": 6687,
      "asions": 6688,
      "ceives": 6689,
      "section": 6690,
      "stages": 6691,
      "stalk": 6692,
      "Ġreared": 6693,
      "imin": 6694,
      "Ġlively": 6695,
      "Ġassem": 6696,
      "Ġgig": 6697,
      "etaphys": 6698,
      "Ġforb": 6699,
      "rose": 6700,
      "ifically": 6701,
      "osc": 6702,
      "changes": 6703,
      "istics": 6704,
      "aining": 6705,
      "theology": 6706,
      "throw": 6707,
      "anded": 6708,
      "que": 6709,
      "ilt": 6710,
      "Ġseat": 6711,
      "Ġprodig": 6712,
      "ateful": 6713,
      "addition": 6714,
      "rive": 6715,
      "ushed": 6716,
      "illations": 6717,
      "Ġheath": 6718,
      "Ġhemisphere": 6719,
      "ĠMe": 6720,
      "ibrac": 6721,
      "Ġintim": 6722,
      "Ġunnecessary": 6723,
      "Ġunfortun": 6724,
      "Ġuneas": 6725,
      "Ġunworthy": 6726,
      "Ġunluck": 6727,
      "Ġdeb": 6728,
      "Ġray": 6729,
      "plain": 6730,
      "indeed": 6731,
      "Ġkilled": 6732,
      "accept": 6733,
      "acles": 6734,
      "ideas": 6735,
      "ensation": 6736,
      "ĠWhere": 6737,
      "Ġleisure": 6738,
      "ĠCl": 6739,
      "Ġgran": 6740,
      "Ġthanks": 6741,
      "ĠHy": 6742,
      "Ġdisposed": 6743,
      "exact": 6744,
      "rule": 6745,
      "ĠEgo": 6746,
      "Ġindirectly": 6747,
      "beaut": 6748,
      "Ġjoy": 6749,
      "aked": 6750,
      "Ġclover": 6751,
      "Ġworse": 6752,
      "Ġimpart": 6753,
      "ittest": 6754,
      "ĠDomestic": 6755,
      "Ġarm": 6756,
      "Ġarchipelago": 6757,
      "Ġbetray": 6758,
      "ĠPhenomen": 6759,
      "Ġattract": 6760,
      "ffects": 6761,
      "Ġintercrossing": 6762,
      "prof": 6763,
      "prop": 6764,
      "Ġlips": 6765,
      "Ġthence": 6766,
      "Ġsensations": 6767,
      "coming": 6768,
      "Ġfluct": 6769,
      "Ġsimilarly": 6770,
      "olds": 6771,
      "Ġlarval": 6772,
      "applied": 6773,
      "ooks": 6774,
      "lessness": 6775,
      "auses": 6776,
      "Ġadmired": 6777,
      "Ġstranger": 6778,
      "Ġendowed": 6779,
      "special": 6780,
      "Ġsmiled": 6781,
      "habits": 6782,
      "Ġscore": 6783,
      "rels": 6784,
      "Ġgrounded": 6785,
      "Ġcontrast": 6786,
      "Ġhopeless": 6787,
      "ropri": 6788,
      "Ġpassages": 6789,
      "aleen": 6790,
      "Ġlastly": 6791,
      "Ġelev": 6792,
      "Ġelevation": 6793,
      "Ġdepth": 6794,
      "Ġmembrane": 6795,
      "Ġpeculiarities": 6796,
      "Ġvision": 6797,
      "accumul": 6798,
      "retched": 6799,
      "ontal": 6800,
      "distinction": 6801,
      "ĠCharles": 6802,
      "ĠĠĠĠĠĠĠĠĠĠĠĠĠĠĠĠĠĠĠĠĠĠĠĠĠĠĠĠĠĠĠĠĠĠĠĠ": 6803,
      "Ġassuming": 6804,
      "determinations": 6805,
      "fortune": 6806,
      "Ġabsent": 6807,
      "Ġrarer": 6808,
      "evident": 6809,
      "Ġlimitations": 6810,
      "mode": 6811,
      "Ġlowly": 6812,
      "Ġlowlands": 6813,
      "Ġdisappears": 6814,
      "Ġprecede": 6815,
      "Ġinvestigate": 6816,
      "Ġextending": 6817,
      "Ġsketch": 6818,
      "ĠXL": 6819,
      "Ġfalsely": 6820,
      "Ġdivergent": 6821,
      "Ġpropose": 6822,
      "Ġvolition": 6823,
      "Ġbarriers": 6824,
      "Ġdeclare": 6825,
      "Ġsentence": 6826,
      "Ġ142": 6827,
      "Ġthousands": 6828,
      "Ġawkward": 6829,
      "Ġcenturies": 6830,
      "Ġdimorphic": 6831,
      "Ġaffirmation": 6832,
      "nevertheless": 6833,
      "Ġastonished": 6834,
      "Ġexceptions": 6835,
      "Ġyielded": 6836,
      "coloured": 6837,
      "Ġswim": 6838,
      "questions": 6839,
      "Ġrunning": 6840,
      "transcend": 6841,
      "altered": 6842,
      "Ġsuperfluous": 6843,
      "Ġgratified": 6844,
      "Ġlarva": 6845,
      "largely": 6846,
      "ĠbranchiÃ¦": 6847,
      "Ġtriumph": 6848,
      "Ġcomposure": 6849,
      "Ġfairly": 6850,
      "looking": 6851,
      "against": 6852,
      "Ġencour": 6853,
      "Ġwait": 6854,
      "Ġadvancement": 6855,
      "points": 6856,
      "Ġmaxims": 6857,
      "Ġwindow": 6858,
      "Ġrejected": 6859,
      "edding": 6860,
      "Ġmortal": 6861,
      "Ġsuspected": 6862,
      "Ġcloser": 6863,
      "ĠPlata": 6864,
      "Ġgrafted": 6865,
      "Ġtolerable": 6866,
      "Ġalteration": 6867,
      "Ġdisplayed": 6868,
      "Ġdisappointment": 6869,
      "Ġannihilate": 6870,
      "genus": 6871,
      "Ġgrey": 6872,
      "analytical": 6873,
      "seemed": 6874,
      "ĠParsonage": 6875,
      "Ġcharge": 6876,
      "Ġresentment": 6877,
      "inherited": 6878,
      "arguments": 6879,
      "Ġimpertin": 6880,
      "Ġteleological": 6881,
      "mentioned": 6882,
      "Ġfloated": 6883,
      "influ": 6884,
      "reproductive": 6885,
      "struggle": 6886,
      "constructed": 6887,
      "material": 6888,
      "Ġconjoined": 6889,
      "ĠWorlds": 6890,
      "Ġmultipl": 6891,
      "Ġclimbing": 6892,
      "hypothesis": 6893,
      "Ġsanguinea": 6894,
      "ĠantennÃ¦": 6895,
      "Ġontological": 6896,
      "18": 6897,
      ";_": 6898,
      "Cl": 6899,
      "ED": 6900,
      "Our": 6901,
      "Sir": 6902,
      "Such": 6903,
      "Tr": 6904,
      "aired": 6905,
      "aÃ«rial": 6906,
      "bre": 6907,
      "bbed": 6908,
      "done": 6909,
      "eight": 6910,
      "fel": 6911,
      "ficial": 6912,
      "gments": 6913,
      "hal": 6914,
      "migr": 6915,
      "moral": 6916,
      "nith": 6917,
      "oper": 6918,
      "rs": 6919,
      "rated": 6920,
      "sop": 6921,
      "uity": 6922,
      "wings": 6923,
      "yl": 6924,
      "Â°": 6925,
      "Ġ0": 6926,
      "head": 6927,
      "inj": 6928,
      "includ": 6929,
      "reet": 6930,
      "reciproc": 6931,
      "Ġsack": 6932,
      "erland": 6933,
      "enomen": 6934,
      "ato": 6935,
      "Ġwond": 6936,
      "Ġwarn": 6937,
      "Ġwatched": 6938,
      "Ġwedding": 6939,
      "isper": 6940,
      "Ġcop": 6941,
      "Ġcru": 6942,
      "Ġcry": 6943,
      "Ġcraw": 6944,
      "Ġcounter": 6945,
      "Ġpress": 6946,
      "Ġpha": 6947,
      "Ġfight": 6948,
      "Ġmechan": 6949,
      "ounces": 6950,
      "ingled": 6951,
      "icle": 6952,
      "arctic": 6953,
      "Ġhot": 6954,
      "Ġhost": 6955,
      "Ġdig": 6956,
      "Ġdress": 6957,
      "Ġdign": 6958,
      "Ġdanced": 6959,
      "lex": 6960,
      "leaves": 6961,
      "sex": 6962,
      "seed": 6963,
      "stinct": 6964,
      "ential": 6965,
      "Ġreappear": 6966,
      "Ġreceptivity": 6967,
      "Ġla": 6968,
      "Ġlens": 6969,
      "Ġlau": 6970,
      "Ġgall": 6971,
      "Ġanger": 6972,
      "roll": 6973,
      "Ġnotions": 6974,
      "osis": 6975,
      "istinction": 6976,
      "theory": 6977,
      "terday": 6978,
      "ande": 6979,
      "Ġproving": 6980,
      "Ġmovement": 6981,
      "Ġmovable": 6982,
      "rig": 6983,
      "rill": 6984,
      "ende": 6985,
      "olved": 6986,
      "Ġunnatural": 6987,
      "Ġunwilling": 6988,
      "Ġshame": 6989,
      "Ġdearest": 6990,
      "plant": 6991,
      "acts": 6992,
      "ĠAgassiz": 6993,
      "Ġobjected": 6994,
      "Ġimmanent": 6995,
      "inde": 6996,
      "Ġdoctr": 6997,
      "udes": 6998,
      "Ġability": 6999,
      "ĠSm": 7000,
      "Ġpartially": 7001,
      "Ġpray": 7002,
      "Ġlearnt": 7003,
      "reator": 7004,
      "Ġdisgrace": 7005,
      "Ġdisjunctive": 7006,
      "exual": 7007,
      "unci": 7008,
      "unless": 7009,
      "ĠLord": 7010,
      "ĠEd": 7011,
      "Ġreport": 7012,
      "ague": 7013,
      "Ġregularly": 7014,
      "Ġclosed": 7015,
      "Ġimpr": 7016,
      "ava": 7017,
      "climate": 7018,
      "Ġremind": 7019,
      "ĠThough": 7020,
      "ĠON": 7021,
      "Ġattraction": 7022,
      "Ġserving": 7023,
      "Ġseriously": 7024,
      "Ġenlar": 7025,
      "Ġinterference": 7026,
      "proble": 7027,
      "cks": 7028,
      "Ġnumer": 7029,
      "mean": 7030,
      "comfort": 7031,
      "Ġcompletion": 7032,
      "Ġshallow": 7033,
      "udgements": 7034,
      "apprehension": 7035,
      "serv": 7036,
      "uously": 7037,
      "Ġactivity": 7038,
      "short": 7039,
      "neighbour": 7040,
      "Ġyoungest": 7041,
      "Ġfewer": 7042,
      "Ġwherever": 7043,
      "Ġjustly": 7044,
      "phant": 7045,
      "portions": 7046,
      "differ": 7047,
      "Ġgeologists": 7048,
      "Ġgeese": 7049,
      "party": 7050,
      "variability": 7051,
      "syllog": 7052,
      "Ġgradu": 7053,
      "Ġconcur": 7054,
      "Ġconcerning": 7055,
      "Ġprogeny": 7056,
      "Ġreading": 7057,
      "Ġelabor": 7058,
      "Ġcoast": 7059,
      "Ġvisits": 7060,
      "Ġoccurrence": 7061,
      "Ġespecial": 7062,
      "ivergence": 7063,
      "Ġglance": 7064,
      "ĠCharact": 7065,
      "commonly": 7066,
      "Ġstronger": 7067,
      "Ġreturning": 7068,
      "validity": 7069,
      "Ġheads": 7070,
      "intuitions": 7071,
      "orphism": 7072,
      "Ġfalling": 7073,
      "completeness": 7074,
      "ĠStreet": 7075,
      "xtinction": 7076,
      "ointed": 7077,
      "simult": 7078,
      "Ġembryological": 7079,
      "expression": 7080,
      "Ġprogression": 7081,
      "Ġexcav": 7082,
      "Ġexcuse": 7083,
      "Ġskill": 7084,
      "Ġexplaining": 7085,
      "animal": 7086,
      "Ġsilly": 7087,
      "Ġceased": 7088,
      "ĠGeorgiana": 7089,
      "comprehensible": 7090,
      "ĠHerbert": 7091,
      "itzerland": 7092,
      "Ġsituated": 7093,
      "Ġ110": 7094,
      "Ġpropriety": 7095,
      "Ġprimary": 7096,
      "lets": 7097,
      "letter": 7098,
      "ĠUnity": 7099,
      "Ġfool": 7100,
      "explained": 7101,
      "Ġedifice": 7102,
      "Ġfurnish": 7103,
      "Ġexclaim": 7104,
      "Ġcriteria": 7105,
      "colour": 7106,
      "judgements": 7107,
      "Ġ328": 7108,
      "ĠAlph": 7109,
      "Ġfertilisation": 7110,
      "human": 7111,
      "Ġ108": 7112,
      "fertility": 7113,
      "ĠIdea": 7114,
      "Ġtrusted": 7115,
      "Ġriver": 7116,
      "Ġfilled": 7117,
      "Ġindebted": 7118,
      "Ġcommunication": 7119,
      "Ġencourage": 7120,
      "Ġsimultaneous": 7121,
      "Ġpoliteness": 7122,
      "Ġmusic": 7123,
      "Ġsupplanted": 7124,
      "Everything": 7125,
      "Ġanticipated": 7126,
      "satisfactory": 7127,
      "acquired": 7128,
      "gradations": 7129,
      "Ġproducts": 7130,
      "depends": 7131,
      "ĠSynthetical": 7132,
      "Ġannihilated": 7133,
      "OLOG": 7134,
      "Ġgreen": 7135,
      "Ġsequel": 7136,
      "Ġaccurate": 7137,
      "Ġprecisely": 7138,
      "gypt": 7139,
      "Ġentertained": 7140,
      "Ġsaved": 7141,
      "Ġprivate": 7142,
      "Ġascending": 7143,
      "abstraction": 7144,
      "Organs": 7145,
      "Ġstems": 7146,
      "definition": 7147,
      "logical": 7148,
      "drawn": 7149,
      "Ġwisdom": 7150,
      "Ġfatal": 7151,
      "utterly": 7152,
      "extra": 7153,
      "Ġdecrease": 7154,
      "Ġrelief": 7155,
      "Ġorchids": 7156,
      "contingent": 7157,
      "Ġmeasured": 7158,
      "opods": 7159,
      "ĠAnalytic": 7160,
      "Ġpatron": 7161,
      "pleasant": 7162,
      "Ġschemata": 7163,
      "Ġmandible": 7164,
      "conversation": 7165,
      "Ġgigantic": 7166,
      "ibracula": 7167,
      "Ġlaug": 7168,
      "Certain": 7169,
      "Le": 7170,
      "Me": 7171,
      "Nor": 7172,
      "New": 7173,
      "OC": 7174,
      "RANSCENDENTAL": 7175,
      "UC": 7176,
      "VI": 7177,
      "ais": 7178,
      "back": 7179,
      "cap": 7180,
      "daugh": 7181,
      "eggs": 7182,
      "faces": 7183,
      "fishes": 7184,
      "gover": 7185,
      "hn": 7186,
      "kins": 7187,
      "lora": 7188,
      "mn": 7189,
      "mult": 7190,
      "mbell": 7191,
      "nes": 7192,
      "oir": 7193,
      "prom": 7194,
      "pill": 7195,
      "rav": 7196,
      "sou": 7197,
      "sud": 7198,
      "tled": 7199,
      "uc": 7200,
      "vous": 7201,
      "wonder": 7202,
      "years": 7203,
      "ze": 7204,
      "Ġzo": 7205,
      "Ġtor": 7206,
      "Ġtables": 7207,
      "Ġax": 7208,
      "Ġarose": 7209,
      "inations": 7210,
      "incl": 7211,
      "including": 7212,
      "Ġomn": 7213,
      "Ġthesis": 7214,
      "render": 7215,
      "rendered": 7216,
      "Ġsink": 7217,
      "eral": 7218,
      "iture": 7219,
      "itative": 7220,
      "itious": 7221,
      "itates": 7222,
      "atorial": 7223,
      "Ġwretched": 7224,
      "Ġbow": 7225,
      "Ġbright": 7226,
      "Ġinconsist": 7227,
      "Ġinconveni": 7228,
      "Ġpardon": 7229,
      "anqu": 7230,
      "Ġmim": 7231,
      "alli": 7232,
      "orter": 7233,
      "armed": 7234,
      "Ġhall": 7235,
      "Ġnour": 7236,
      "Ġnine": 7237,
      "Ġnamed": 7238,
      "Ġnames": 7239,
      "Ġnieces": 7240,
      "Ġnascent": 7241,
      "search": 7242,
      "Ġreception": 7243,
      "Ġreligion": 7244,
      "Ġreckon": 7245,
      "hering": 7246,
      "Ġconqu": 7247,
      "utility": 7248,
      "utions": 7249,
      "eter": 7250,
      "verted": 7251,
      "Ġnote": 7252,
      "Ġexerc": 7253,
      "Ġexternally": 7254,
      "osing": 7255,
      "Ġsusp": 7256,
      "aments": 7257,
      "theological": 7258,
      "Ġspect": 7259,
      "third": 7260,
      "ulous": 7261,
      "ilis": 7262,
      "pped": 7263,
      "Ġproves": 7264,
      "Ġmoved": 7265,
      "Ġmoving": 7266,
      "ĠTRANSCENDENTAL": 7267,
      "gel": 7268,
      "lipon": 7269,
      "perate": 7270,
      "Ġspecifically": 7271,
      "contained": 7272,
      "Ġshorter": 7273,
      "Ġdeposition": 7274,
      "Ġranging": 7275,
      "Ġratio": 7276,
      "Ġrarity": 7277,
      "Ġneuter": 7278,
      "artic": 7279,
      "ĠAd": 7280,
      "ĠAm": 7281,
      "orets": 7282,
      "Ġtrimorphic": 7283,
      "acle": 7284,
      "acific": 7285,
      "Ġaborted": 7286,
      "Ġdiffused": 7287,
      "Ġparted": 7288,
      "Ġpartiality": 7289,
      "nowledge": 7290,
      "apons": 7291,
      "opinion": 7292,
      "Ġgranted": 7293,
      "Ġappreci": 7294,
      "Ġapparatus": 7295,
      "Ġgenerous": 7296,
      "ĠHuber": 7297,
      "ulture": 7298,
      "Ġdisgu": 7299,
      "urality": 7300,
      "away": 7301,
      "Ġcontribut": 7302,
      "whatever": 7303,
      "aks": 7304,
      "Ġaccid": 7305,
      "Ġimpossibility": 7306,
      "Ġdistressed": 7307,
      "Ġample": 7308,
      "Ġconsult": 7309,
      "ĠDiff": 7310,
      "ĠDenn": 7311,
      "ĠDuring": 7312,
      "Ġarms": 7313,
      "Ġpreference": 7314,
      "Ġmodality": 7315,
      "intellectual": 7316,
      "sue": 7317,
      "ĠOrigin": 7318,
      "berry": 7319,
      "Ġdesired": 7320,
      "prov": 7321,
      "Ġsubjectively": 7322,
      "ĠĠĠĠĠĠĠĠĠĠĠĠĠĠĠĠĠ": 7323,
      "soever": 7324,
      "Ġcompassion": 7325,
      "compos": 7326,
      "Ġyours": 7327,
      "brought": 7328,
      "Ġorganized": 7329,
      "igned": 7330,
      "olded": 7331,
      "Ġentail": 7332,
      "Ġentrance": 7333,
      "ĠJudgements": 7334,
      "Ġoftenest": 7335,
      "aterpill": 7336,
      "shown": 7337,
      "Ġcharacterised": 7338,
      "Ġincidental": 7339,
      "Ġacute": 7340,
      "bladder": 7341,
      "Ġcorrelate": 7342,
      "Ġcorporeal": 7343,
      "Ġrespectable": 7344,
      "Ġvalued": 7345,
      "Ġexplanations": 7346,
      "Ġpointed": 7347,
      "Ġrose": 7348,
      "Ġsuccessful": 7349,
      "Ġbelonged": 7350,
      "Ġpossessor": 7351,
      "Ġpossessing": 7352,
      "grains": 7353,
      "Ġpowerful": 7354,
      "Ġillusions": 7355,
      "natured": 7356,
      "naturally": 7357,
      "Ġanswers": 7358,
      "Ġhumour": 7359,
      "prot": 7360,
      "various": 7361,
      "Ġequator": 7362,
      "Ġestimate": 7363,
      "Ġprevailed": 7364,
      "Ġcogitating": 7365,
      "ribing": 7366,
      "._âĢĶ": 7367,
      "represented": 7368,
      "Ġdescribe": 7369,
      "Ġwishing": 7370,
      "Ġshortly": 7371,
      "ĠVI": 7372,
      "Ġstrike": 7373,
      "extinct": 7374,
      "Ġ184": 7375,
      "Ġlands": 7376,
      "Ġadaptive": 7377,
      "Ġarriving": 7378,
      "Ġfourteen": 7379,
      "cognize": 7380,
      "valid": 7381,
      "Ġtea": 7382,
      "Ġcolouring": 7383,
      "Ġmammal": 7384,
      "ĠStill": 7385,
      "Ġpretended": 7386,
      "Ġestablishment": 7387,
      "Ġpreceded": 7388,
      "Ġfulf": 7389,
      "express": 7390,
      "Ġrequirement": 7391,
      "Ġcheer": 7392,
      "Ġlays": 7393,
      "Ġsolid": 7394,
      "Ġchapters": 7395,
      "ordinated": 7396,
      "ordinarily": 7397,
      "ĠLucases": 7398,
      "Ġdiverging": 7399,
      "Ġdetail": 7400,
      "Ġdetails": 7401,
      "belief": 7402,
      "Ġattainment": 7403,
      "Ġcombined": 7404,
      "Ġmistake": 7405,
      "Ġadditional": 7406,
      "explanation": 7407,
      "rustacea": 7408,
      "characteristic": 7409,
      "Ġsaf": 7410,
      "Ġdisputes": 7411,
      "Ġapolog": 7412,
      "instead": 7413,
      "Ġmutually": 7414,
      "thened": 7415,
      "kinds": 7416,
      "Ġspontaneously": 7417,
      "possesses": 7418,
      "missible": 7419,
      "Ġsubordinated": 7420,
      "development": 7421,
      "Ġacknowledge": 7422,
      "classes": 7423,
      "Ġcomfortable": 7424,
      "difficulties": 7425,
      "Ġinvolves": 7426,
      "ĠIdeal": 7427,
      "Ġrecollected": 7428,
      "Ġschol": 7429,
      "observed": 7430,
      "Ġwoodpeck": 7431,
      "Ġfifteen": 7432,
      "Ġmaximum": 7433,
      "ĠpalÃ¦ozoic": 7434,
      "URE": 7435,
      "Ġwriting": 7436,
      "predicate": 7437,
      "Ġretaining": 7438,
      "Ġrecommended": 7439,
      "Ġdisappearance": 7440,
      "increased": 7441,
      "effects": 7442,
      "ĠĠĠĠĠĠĠĠĠĠĠĠĠĠĠĠĠĠĠĠĠ": 7443,
      "Before": 7444,
      "Nothing": 7445,
      "Ġheaven": 7446,
      "Ġdisappointed": 7447,
      "occasionally": 7448,
      "Ġunconsciously": 7449,
      "Ġfauna": 7450,
      "Ġdriven": 7451,
      "Ġprepared": 7452,
      "ĠPrinciple": 7453,
      "Ġ310": 7454,
      "Ġmerit": 7455,
      "usca": 7456,
      "slightly": 7457,
      "ĠpalÃ¦ontologists": 7458,
      "eyes": 7459,
      "Ġexcluded": 7460,
      "Ġmoderate": 7461,
      "prevent": 7462,
      "Ġadmissible": 7463,
      "uesday": 7464,
      "varying": 7465,
      "Ġhorizontal": 7466,
      "Ġancestor": 7467,
      "established": 7468,
      "Ġmagnitude": 7469,
      "econdly": 7470,
      "frequently": 7471,
      "consequence": 7472,
      "Ġdeficient": 7473,
      "resemblance": 7474,
      "ustomed": 7475,
      "uitous": 7476,
      "Ġerroneous": 7477,
      "Ġoscillations": 7478,
      "Ġneck": 7479,
      "strosities": 7480,
      "entirely": 7481,
      "towards": 7482,
      "Ġlofty": 7483,
      "exactly": 7484,
      "Ġgreyhound": 7485,
      "Ġcruel": 7486,
      "Ġenlarged": 7487,
      "Ġlaughed": 7488,
      "sudden": 7489,
      "lipona": 7490,
      "ĠDenny": 7491,
      ").âĢĶ": 7492,
      ".;": 7493,
      "10": 7494,
      "Again": 7495,
      "DE": 7496,
      "Finally": 7497,
      "GE": 7498,
      "Hy": 7499,
      "Having": 7500,
      "Long": 7501,
      "Mod": 7502,
      "One": 7503,
      "PH": 7504,
      "PL": 7505,
      "Pl": 7506,
      "Sp": 7507,
      "aud": 7508,
      "best": 7509,
      "capable": 7510,
      "dedu": 7511,
      "fem": 7512,
      "feed": 7513,
      "fitted": 7514,
      "gan": 7515,
      "hon": 7516,
      "hold": 7517,
      "half": 7518,
      "ient": 7519,
      "iant": 7520,
      "lour": 7521,
      "mus": 7522,
      "morphic": 7523,
      "naw": 7524,
      "oon": 7525,
      "psychology": 7526,
      "riment": 7527,
      "rational": 7528,
      "scept": 7529,
      "ture": 7530,
      "uv": 7531,
      "uge": 7532,
      "viously": 7533,
      "war": 7534,
      "xagon": 7535,
      "ĠÃĨ": 7536,
      "Ġtis": 7537,
      "Ġtur": 7538,
      "help": 7539,
      "Ġalive": 7540,
      "inity": 7541,
      "inus": 7542,
      "inia": 7543,
      "infer": 7544,
      "Ġobe": 7545,
      "Ġowe": 7546,
      "once": 7547,
      "Ġsand": 7548,
      "Ġsacr": 7549,
      "erv": 7550,
      "erity": 7551,
      "erÃ¦": 7552,
      "attain": 7553,
      "Ġwaters": 7554,
      "isc": 7555,
      "Ġcr": 7556,
      "Ġcave": 7557,
      "Ġcapt": 7558,
      "Ġcrow": 7559,
      "Ġban": 7560,
      "Ġbred": 7561,
      "Ġbless": 7562,
      "Ġbaleen": 7563,
      "Ġinduced": 7564,
      "Ġinorganic": 7565,
      "Ġpit": 7566,
      "Ġpatter": 7567,
      "Ġpsychological": 7568,
      "Ġpopular": 7569,
      "Ġfing": 7570,
      "Ġfir": 7571,
      "Ġfict": 7572,
      "Ġfix": 7573,
      "Ġfaint": 7574,
      "Ġmir": 7575,
      "Ġmouse": 7576,
      "Ġmingled": 7577,
      "alter": 7578,
      "Ġtoes": 7579,
      "Ġthread": 7580,
      "arc": 7581,
      "Ġhorn": 7582,
      "Ġnice": 7583,
      "Ġnaked": 7584,
      "Ġdict": 7585,
      "Ġdared": 7586,
      "Ġbelow": 7587,
      "Ġbeasts": 7588,
      "Ġerect": 7589,
      "sea": 7590,
      "stage": 7591,
      "otive": 7592,
      "imalay": 7593,
      "Ġconceived": 7594,
      "Ġlif": 7595,
      "Ġloved": 7596,
      "Ġanterior": 7597,
      "Ġanthers": 7598,
      "vertebr": 7599,
      "iferÃ¦": 7600,
      "Ġexposing": 7601,
      "ayed": 7602,
      "resist": 7603,
      "oulders": 7604,
      "throp": 7605,
      "uli": 7606,
      "ilful": 7607,
      "Ġselect": 7608,
      "Ġselecting": 7609,
      "adistinction": 7610,
      "admissible": 7611,
      "Ġstar": 7612,
      "Ġstation": 7613,
      "ĠTake": 7614,
      "rived": 7615,
      "geological": 7616,
      "illusion": 7617,
      "anticip": 7618,
      "anteced": 7619,
      "Ġvac": 7620,
      "lia": 7621,
      "liable": 7622,
      "âĢľ_": 7623,
      "oles": 7624,
      "ĠMar": 7625,
      "embr": 7626,
      "conduct": 7627,
      "Ġunfavourable": 7628,
      "Ġunexpected": 7629,
      "Ġsho": 7630,
      "Ġsharp": 7631,
      "Ġration": 7632,
      "Ġrain": 7633,
      "Ġrises": 7634,
      "Ġrhom": 7635,
      "Ġpermitted": 7636,
      "arium": 7637,
      "taining": 7638,
      "placed": 7639,
      "ĠAre": 7640,
      "Ġchaise": 7641,
      "Ġimposed": 7642,
      "indispensable": 7643,
      "Ġwilling": 7644,
      "Ġadduced": 7645,
      "acked": 7646,
      "Ġabode": 7647,
      "ĠWatson": 7648,
      "opement": 7649,
      "ĠCON": 7650,
      "ĠCroll": 7651,
      "Ġgrass": 7652,
      "Ġgrown": 7653,
      "Ġgravity": 7654,
      "Ġgrateful": 7655,
      "Ġempir": 7656,
      "Ġappend": 7657,
      "Ġgenerated": 7658,
      "spread": 7659,
      "Ġ(âĢľ": 7660,
      "iren": 7661,
      "uniform": 7662,
      "Ġindign": 7663,
      "Ġindirect": 7664,
      "aging": 7665,
      "ĠFritz": 7666,
      "Ġacclimatisation": 7667,
      "Ġfeatures": 7668,
      "aven": 7669,
      "Ġamb": 7670,
      "ollaston": 7671,
      "hered": 7672,
      "clim": 7673,
      "Ġpremiss": 7674,
      "earing": 7675,
      "Ġagreed": 7676,
      "Ġagencies": 7677,
      "ĠPacific": 7678,
      "ĠObject": 7679,
      "ĠOcean": 7680,
      "Ġshoulder": 7681,
      "Ġpresently": 7682,
      "ertility": 7683,
      "Ġenvelop": 7684,
      "Ġenounce": 7685,
      "proportion": 7686,
      "hybrids": 7687,
      "ictet": 7688,
      "Ġrepresenting": 7689,
      "ĠGerm": 7690,
      "ĠGray": 7691,
      "ephal": 7692,
      "Ġsensitive": 7693,
      "comb": 7694,
      "Ġflies": 7695,
      "ission": 7696,
      "Ġorganon": 7697,
      "Ġlessened": 7698,
      "Ġpoison": 7699,
      "Ġoutward": 7700,
      "ickens": 7701,
      "conditionally": 7702,
      "Ġendured": 7703,
      "Ġoffered": 7704,
      "Ġcharacteristics": 7705,
      "Ġoverlooked": 7706,
      "Ġrecovered": 7707,
      "Ġexamining": 7708,
      "grown": 7709,
      "Ġinvited": 7710,
      "existed": 7711,
      "Ġcollect": 7712,
      "Ġbreeders": 7713,
      "Ġexpectations": 7714,
      "ltry": 7715,
      "ĠAsa": 7716,
      "objections": 7717,
      "Ġmemory": 7718,
      "disp": 7719,
      "disapp": 7720,
      "Ġcoach": 7721,
      "Ġcoinc": 7722,
      "ivision": 7723,
      "Ġattempting": 7724,
      "Ġinstinctive": 7725,
      "requires": 7726,
      "hatched": 7727,
      "Ġimagined": 7728,
      "Ġfinished": 7729,
      "fee": 7730,
      "feathers": 7731,
      "sensation": 7732,
      "onstrous": 7733,
      "TIN": 7734,
      "Ġparish": 7735,
      "Ġstriving": 7736,
      "Ġconvince": 7737,
      "community": 7738,
      "ĠKÃ¶lreuter": 7739,
      "Ġ182": 7740,
      "Ġcorrespondence": 7741,
      "perfection": 7742,
      "untarily": 7743,
      "Ġdiffering": 7744,
      "Ġdivisible": 7745,
      "Ġindependence": 7746,
      "sche": 7747,
      "ignorance": 7748,
      "remains": 7749,
      "remarked": 7750,
      "Ġbases": 7751,
      "Ġbasins": 7752,
      "Ġmomenta": 7753,
      "Ġaccords": 7754,
      "becom": 7755,
      "Ġpurch": 7756,
      "Ġcurrents": 7757,
      "Ġconcluding": 7758,
      "continually": 7759,
      "Ġundoubted": 7760,
      "greatly": 7761,
      "Ġresembling": 7762,
      "Ġdisappeared": 7763,
      "considering": 7764,
      "Ġdefend": 7765,
      "Ġsetting": 7766,
      "Ġclearness": 7767,
      "ĠGeoffroy": 7768,
      "Ġvisitors": 7769,
      "Ġdiverged": 7770,
      "Ġprovide": 7771,
      "Ġmonth": 7772,
      "Ġtreatment": 7773,
      "Ġconducted": 7774,
      "Ġbars": 7775,
      "Ġoccupy": 7776,
      "Ġhonest": 7777,
      "Ġdeclares": 7778,
      "zoa": 7779,
      "discovered": 7780,
      "Ġcombat": 7781,
      "arrande": 7782,
      "Ġjudges": 7783,
      "alÃ¦ozoic": 7784,
      "ESS": 7785,
      "affirm": 7786,
      "Ġclimat": 7787,
      "purely": 7788,
      "Ġpainful": 7789,
      "Ġcorrectness": 7790,
      "Ġaffords": 7791,
      "Ġprotected": 7792,
      "Ġenables": 7793,
      "Ġ345": 7794,
      "Ġirre": 7795,
      "Ġ69": 7796,
      "Ġreciprocally": 7797,
      "Ġneighbours": 7798,
      "ARI": 7799,
      "ARY": 7800,
      "changeable": 7801,
      "Ġ335": 7802,
      "constitutive": 7803,
      "difficult": 7804,
      "Ġ107": 7805,
      "Ġ173": 7806,
      "Ġfrag": 7807,
      "Ġfront": 7808,
      "arsi": 7809,
      "Ġrig": 7810,
      "Ġcarrying": 7811,
      "Ġnervous": 7812,
      "statement": 7813,
      "Ġobscurity": 7814,
      "Ġfifth": 7815,
      "affection": 7816,
      "chety": 7817,
      "particularly": 7818,
      "predicates": 7819,
      "increase": 7820,
      "ĠĠĠĠĠĠĠĠĠĠĠĠĠĠĠĠĠĠĠĠĠĠĠ": 7821,
      "Ġ302": 7822,
      "Ġvegetation": 7823,
      "Ġaccompany": 7824,
      "Ġcontinuity": 7825,
      "Ġapproaching": 7826,
      "Ġconcealed": 7827,
      "Ġdelicacy": 7828,
      "Ġaccuracy": 7829,
      "mathematical": 7830,
      "Ġelegance": 7831,
      "Ġearnestly": 7832,
      "ĠVarieties": 7833,
      "Ġsceptical": 7834,
      "Ġhurry": 7835,
      "causality": 7836,
      "Ġlatitude": 7837,
      "Ġyesterday": 7838,
      "Ġascertained": 7839,
      "Ġcontempor": 7840,
      "ĠĠĠĠĠĠĠĠĠĠĠĠĠĠĠĠĠĠĠĠĠĠĠĠĠĠ": 7841,
      "Ġtempted": 7842,
      "conformity": 7843,
      "Ġimmigration": 7844,
      "Ġdissimilarity": 7845,
      "Ġclothes": 7846,
      "Ġdivine": 7847,
      "Ġascribed": 7848,
      "Ġascribe": 7849,
      "Ġpoultry": 7850,
      "ĠpupÃ¦": 7851,
      "imagination": 7852,
      "Ġconvenience": 7853,
      "superable": 7854,
      "Ġrevert": 7855,
      "Ġhermaphrodites": 7856,
      "Ġdesirable": 7857,
      "Ġcolonists": 7858,
      "Ġwatching": 7859,
      "Ġborrowed": 7860,
      "Ġfantail": 7861,
      "Ġaccomplished": 7862,
      "Ġbalance": 7863,
      "Ġsteadily": 7864,
      "Accordingly": 7865,
      "Ġneuters": 7866,
      "Ġeducation": 7867,
      "Ġhidden": 7868,
      "ĠPhenomena": 7869,
      "enomenon": 7870,
      "mbelliferÃ¦": 7871,
      "Ġaxis": 7872,
      "Ġaccidents": 7873,
      ",[": 7874,
      "Anal": 7875,
      "Can": 7876,
      "De": 7877,
      "Effects": 7878,
      "Here": 7879,
      "Im": 7880,
      "Lucas": 7881,
      "MAL": 7882,
      "Netherfield": 7883,
      "OT": 7884,
      "Pemberley": 7885,
      "Perhaps": 7886,
      "Then": 7887,
      "UT": 7888,
      "Under": 7889,
      "Upon": 7890,
      "aily": 7891,
      "breat": 7892,
      "cus": 7893,
      "cular": 7894,
      "created": 7895,
      "cultiv": 7896,
      "cosmological": 7897,
      "ded": 7898,
      "ding": 7899,
      "direct": 7900,
      "ebra": 7901,
      "fig": 7902,
      "function": 7903,
      "fessor": 7904,
      "fundamental": 7905,
      "gir": 7906,
      "gust": 7907,
      "mes": 7908,
      "mor": 7909,
      "mil": 7910,
      "mammals": 7911,
      "na": 7912,
      "nex": 7913,
      "next": 7914,
      "oqu": 7915,
      "ocean": 7916,
      "ohn": 7917,
      "pu": 7918,
      "rist": 7919,
      "rain": 7920,
      "rare": 7921,
      "races": 7922,
      "sch": 7923,
      "sum": 7924,
      "size": 7925,
      "tropical": 7926,
      "ux": 7927,
      "wo": 7928,
      "word": 7929,
      "wish": 7930,
      "writ": 7931,
      "zil": 7932,
      "Ġ*": 7933,
      "Ġtong": 7934,
      "Ġtropical": 7935,
      "Ġtarsi": 7936,
      "held": 7937,
      "inos": 7938,
      "inked": 7939,
      "inities": 7940,
      "invari": 7941,
      "instances": 7942,
      "received": 7943,
      "Ġsess": 7944,
      "Ġsad": 7945,
      "ero": 7946,
      "itor": 7947,
      "itudes": 7948,
      "ativ": 7949,
      "Ġwestern": 7950,
      "isition": 7951,
      "Ġcou": 7952,
      "Ġcaterpill": 7953,
      "Ġbore": 7954,
      "Ġpond": 7955,
      "Ġpains": 7956,
      "Ġpotent": 7957,
      "Ġfur": 7958,
      "Ġfil": 7959,
      "Ġfost": 7960,
      "Ġfolly": 7961,
      "Ġmice": 7962,
      "Ġmund": 7963,
      "Ġmixed": 7964,
      "Ġthither": 7965,
      "icult": 7966,
      "arbit": 7967,
      "Ġhor": 7968,
      "Ġhunt": 7969,
      "Ġhoney": 7970,
      "Ġnin": 7971,
      "Ġdre": 7972,
      "Ġdie": 7973,
      "asked": 7974,
      "Ġelong": 7975,
      "Ġefficient": 7976,
      "seven": 7977,
      "sters": 7978,
      "stone": 7979,
      "entions": 7980,
      "Ġren": 7981,
      "Ġreconc": 7982,
      "Ġreduce": 7983,
      "Ġreserve": 7984,
      "Ġreduction": 7985,
      "Ġreceives": 7986,
      "otle": 7987,
      "Ġwhales": 7988,
      "Ġwhisper": 7989,
      "imental": 7990,
      "Ġanci": 7991,
      "etition": 7992,
      "ĠIN": 7993,
      "Ġwebbed": 7994,
      "ching": 7995,
      "char": 7996,
      "Ġsuit": 7997,
      "Ġsupposes": 7998,
      "istotle": 7999
    },
    "merges": [
      [
        "Ġ",
        "t"
      ],
      [
        "h",
        "e"
      ],
      [
        "Ġ",
        "a"
      ],
      [
        "i",
        "n"
      ],
      [
        "Ġ",
        "o"
      ],
      [
        "Ġt",
        "he"
      ],
      [
        "r",
        "e"
      ],
      [
        "o",
        "n"
      ],
      [
        "Ġ",
        "s"
      ],
      [
        "e",
        "r"
      ],
      [
        "i",
        "t"
      ],
      [
        "e",
        "n"
      ],
      [
        "Ġo",
        "f"
      ],
      [
        "a",
        "t"
      ],
      [
        "Ġ",
        "w"
      ],
      [
        "i",
        "s"
      ],
      [
        "Ġ",
        "c"
      ],
      [
        "Ġ",
        "b"
      ],
      [
        "n",
        "d"
      ],
      [
        "e",
        "s"
      ],
      [
        "e",
        "d"
      ],
      [
        "Ġ",
        "in"
      ],
      [
        "i",
        "on"
      ],
      [
        "Ġ",
        "p"
      ],
      [
        "Ġ",
        "f"
      ],
      [
        "a",
        "n"
      ],
      [
        "Ġ",
        "m"
      ],
      [
        "o",
        "u"
      ],
      [
        "a",
        "l"
      ],
      [
        "o",
        "r"
      ],
      [
        "Ġt",
        "o"
      ],
      [
        "Ġt",
        "h"
      ],
      [
        "in",
        "g"
      ],
      [
        "i",
        "c"
      ],
      [
        "a",
        "r"
      ],
      [
        "Ġ",
        "h"
      ],
      [
        "Ġa",
        "nd"
      ],
      [
        "Ġ",
        "n"
      ],
      [
        "l",
        "y"
      ],
      [
        "Ġ",
        "d"
      ],
      [
        "Ġb",
        "e"
      ],
      [
        "c",
        "t"
      ],
      [
        "l",
        "e"
      ],
      [
        "a",
        "s"
      ],
      [
        "Ġ",
        "e"
      ],
      [
        "o",
        "m"
      ],
      [
        "c",
        "e"
      ],
      [
        "s",
        "e"
      ],
      [
        "s",
        "t"
      ],
      [
        "en",
        "t"
      ],
      [
        "Ġ",
        "re"
      ],
      [
        "o",
        "t"
      ],
      [
        "â",
        "Ģ"
      ],
      [
        "l",
        "l"
      ],
      [
        "v",
        "e"
      ],
      [
        "Ġ",
        "Ġ"
      ],
      [
        "he",
        "r"
      ],
      [
        "Ġw",
        "h"
      ],
      [
        "Ġ",
        "is"
      ],
      [
        "i",
        "m"
      ],
      [
        "Ġ",
        "it"
      ],
      [
        "Ġc",
        "on"
      ],
      [
        "Ġ",
        "l"
      ],
      [
        "u",
        "t"
      ],
      [
        "Ġth",
        "at"
      ],
      [
        "Ġa",
        "s"
      ],
      [
        "Ġ",
        "g"
      ],
      [
        "Ġh",
        "a"
      ],
      [
        "Ġo",
        "n"
      ],
      [
        "o",
        "w"
      ],
      [
        "ic",
        "h"
      ],
      [
        "at",
        "ion"
      ],
      [
        "Ġa",
        "n"
      ],
      [
        "Ġ",
        "u"
      ],
      [
        "e",
        "t"
      ],
      [
        "Ġf",
        "or"
      ],
      [
        "v",
        "er"
      ],
      [
        "Ġ",
        "I"
      ],
      [
        "r",
        "o"
      ],
      [
        "i",
        "d"
      ],
      [
        "Ġwh",
        "ich"
      ],
      [
        "i",
        "r"
      ],
      [
        "e",
        "ct"
      ],
      [
        "l",
        "d"
      ],
      [
        "i",
        "f"
      ],
      [
        "u",
        "r"
      ],
      [
        "Ġn",
        "ot"
      ],
      [
        "it",
        "h"
      ],
      [
        "Ġe",
        "x"
      ],
      [
        "g",
        "h"
      ],
      [
        "e",
        "c"
      ],
      [
        "Ġw",
        "e"
      ],
      [
        "o",
        "s"
      ],
      [
        "i",
        "es"
      ],
      [
        "Ġw",
        "ith"
      ],
      [
        "Ġo",
        "r"
      ],
      [
        "c",
        "h"
      ],
      [
        "Ġs",
        "u"
      ],
      [
        "it",
        "ion"
      ],
      [
        "a",
        "y"
      ],
      [
        "is",
        "t"
      ],
      [
        "it",
        "y"
      ],
      [
        "es",
        "s"
      ],
      [
        "a",
        "b"
      ],
      [
        "a",
        "m"
      ],
      [
        "ĠĠ",
        "ĠĠ"
      ],
      [
        "Ġb",
        "y"
      ],
      [
        "a",
        "in"
      ],
      [
        "t",
        "he"
      ],
      [
        "t",
        "er"
      ],
      [
        "Ġha",
        "ve"
      ],
      [
        "Ġth",
        "is"
      ],
      [
        "Ġs",
        "p"
      ],
      [
        "re",
        "s"
      ],
      [
        "Ġa",
        "re"
      ],
      [
        "ou",
        "ld"
      ],
      [
        "r",
        "om"
      ],
      [
        "t",
        "h"
      ],
      [
        "a",
        "nd"
      ],
      [
        "q",
        "u"
      ],
      [
        "p",
        "t"
      ],
      [
        "u",
        "l"
      ],
      [
        "e",
        "re"
      ],
      [
        "i",
        "l"
      ],
      [
        "Ġs",
        "e"
      ],
      [
        "u",
        "re"
      ],
      [
        "p",
        "p"
      ],
      [
        "en",
        "ce"
      ],
      [
        "Ġa",
        "ll"
      ],
      [
        "Ġf",
        "rom"
      ],
      [
        "Ġa",
        "t"
      ],
      [
        "Ġp",
        "ro"
      ],
      [
        "Ġm",
        "o"
      ],
      [
        "at",
        "e"
      ],
      [
        "a",
        "d"
      ],
      [
        "Ġs",
        "t"
      ],
      [
        "Ġ",
        "T"
      ],
      [
        "r",
        "i"
      ],
      [
        "u",
        "s"
      ],
      [
        "o",
        "g"
      ],
      [
        "âĢ",
        "Ķ"
      ],
      [
        "ic",
        "al"
      ],
      [
        "t",
        "her"
      ],
      [
        "g",
        "e"
      ],
      [
        "en",
        "d"
      ],
      [
        "i",
        "ll"
      ],
      [
        "an",
        "t"
      ],
      [
        "Ġ",
        "he"
      ],
      [
        "Ġ",
        "y"
      ],
      [
        "Ġ",
        "v"
      ],
      [
        "j",
        "ect"
      ],
      [
        "l",
        "i"
      ],
      [
        "gh",
        "t"
      ],
      [
        "i",
        "v"
      ],
      [
        "Ġc",
        "an"
      ],
      [
        "Ġb",
        "ut"
      ],
      [
        "i",
        "ve"
      ],
      [
        "âĢ",
        "ľ"
      ],
      [
        "Ġ",
        "her"
      ],
      [
        "b",
        "ject"
      ],
      [
        "o",
        "l"
      ],
      [
        "âĢ",
        "Ŀ"
      ],
      [
        "ce",
        "pt"
      ],
      [
        "u",
        "st"
      ],
      [
        "he",
        "n"
      ],
      [
        "ou",
        "s"
      ],
      [
        "ou",
        "r"
      ],
      [
        "Ġs",
        "o"
      ],
      [
        "Ġw",
        "as"
      ],
      [
        "es",
        "t"
      ],
      [
        "Ġc",
        "om"
      ],
      [
        "Ġ",
        "M"
      ],
      [
        "u",
        "m"
      ],
      [
        "i",
        "b"
      ],
      [
        "e",
        "m"
      ],
      [
        "Ġ",
        "B"
      ],
      [
        "p",
        "er"
      ],
      [
        "cept",
        "ion"
      ],
      [
        "n",
        "t"
      ],
      [
        "am",
        "e"
      ],
      [
        "Ġsp",
        "ec"
      ],
      [
        "se",
        "l"
      ],
      [
        "Ġa",
        "l"
      ],
      [
        "ct",
        "ion"
      ],
      [
        "c",
        "i"
      ],
      [
        "c",
        "c"
      ],
      [
        "os",
        "s"
      ],
      [
        "Ġo",
        "ther"
      ],
      [
        "Ġin",
        "t"
      ],
      [
        "ver",
        "y"
      ],
      [
        "Ġfor",
        "m"
      ],
      [
        "c",
        "on"
      ],
      [
        "Ġbe",
        "en"
      ],
      [
        "Ġu",
        "n"
      ],
      [
        "Ġs",
        "h"
      ],
      [
        "an",
        "s"
      ],
      [
        "Ġd",
        "e"
      ],
      [
        "o",
        "d"
      ],
      [
        "i",
        "g"
      ],
      [
        "Ġ",
        "r"
      ],
      [
        "om",
        "e"
      ],
      [
        "nd",
        "er"
      ],
      [
        "ab",
        "le"
      ],
      [
        "Ġm",
        "an"
      ],
      [
        "ou",
        "gh"
      ],
      [
        "Ġthe",
        "ir"
      ],
      [
        "an",
        "ce"
      ],
      [
        "Ġp",
        "er"
      ],
      [
        "al",
        "l"
      ],
      [
        "Ġn",
        "e"
      ],
      [
        "ar",
        "i"
      ],
      [
        "k",
        "e"
      ],
      [
        "t",
        "ain"
      ],
      [
        "Ġthe",
        "y"
      ],
      [
        "ar",
        "t"
      ],
      [
        "ĠT",
        "he"
      ],
      [
        "Ġspec",
        "ies"
      ],
      [
        "Ġit",
        "s"
      ],
      [
        "ar",
        "d"
      ],
      [
        "p",
        "l"
      ],
      [
        "if",
        "f"
      ],
      [
        "a",
        "ct"
      ],
      [
        "Ġ",
        "A"
      ],
      [
        "p",
        "le"
      ],
      [
        "Ġc",
        "h"
      ],
      [
        "as",
        "on"
      ],
      [
        "o",
        "se"
      ],
      [
        "Ġm",
        "e"
      ],
      [
        "Ġn",
        "at"
      ],
      [
        "m",
        "ent"
      ],
      [
        "o",
        "f"
      ],
      [
        "Ġh",
        "as"
      ],
      [
        "Ġthe",
        "re"
      ],
      [
        "Ġo",
        "bject"
      ],
      [
        "d",
        "ition"
      ],
      [
        "Ġn",
        "o"
      ],
      [
        "ĠĠĠĠ",
        "ĠĠĠĠ"
      ],
      [
        "al",
        "ly"
      ],
      [
        "ation",
        "s"
      ],
      [
        "Ġy",
        "ou"
      ],
      [
        "Ġ",
        "im"
      ],
      [
        "on",
        "g"
      ],
      [
        "in",
        "d"
      ],
      [
        "Ġh",
        "is"
      ],
      [
        "Ġd",
        "o"
      ],
      [
        "o",
        "re"
      ],
      [
        "Ġan",
        "y"
      ],
      [
        "Ġs",
        "he"
      ],
      [
        "Ġon",
        "e"
      ],
      [
        "sel",
        "f"
      ],
      [
        "Ġha",
        "d"
      ],
      [
        "a",
        "re"
      ],
      [
        "res",
        "ent"
      ],
      [
        "oss",
        "ib"
      ],
      [
        "ar",
        "y"
      ],
      [
        "Ġw",
        "ould"
      ],
      [
        "Ġ",
        "k"
      ],
      [
        "Ġm",
        "ay"
      ],
      [
        "Ġon",
        "ly"
      ],
      [
        "Ġs",
        "ame"
      ],
      [
        "Ġw",
        "ill"
      ],
      [
        "Ġu",
        "nder"
      ],
      [
        "u",
        "d"
      ],
      [
        "Ġcon",
        "ception"
      ],
      [
        "Ġa",
        "d"
      ],
      [
        "Ġt",
        "r"
      ],
      [
        "a",
        "c"
      ],
      [
        "Ġa",
        "b"
      ],
      [
        "f",
        "f"
      ],
      [
        "Ġp",
        "l"
      ],
      [
        "Ġm",
        "ust"
      ],
      [
        "id",
        "e"
      ],
      [
        "Ġ",
        "S"
      ],
      [
        "er",
        "s"
      ],
      [
        "Ġo",
        "ur"
      ],
      [
        "Ġmo",
        "re"
      ],
      [
        "en",
        "er"
      ],
      [
        "at",
        "ed"
      ],
      [
        "n",
        "ot"
      ],
      [
        "Ġd",
        "iff"
      ],
      [
        "Ġthe",
        "m"
      ],
      [
        "or",
        "d"
      ],
      [
        "or",
        "t"
      ],
      [
        "Ġre",
        "ason"
      ],
      [
        "im",
        "e"
      ],
      [
        "ĠM",
        "r"
      ],
      [
        "en",
        "s"
      ],
      [
        "Ġp",
        "art"
      ],
      [
        "Ġ",
        "W"
      ],
      [
        "er",
        "m"
      ],
      [
        "n",
        "ow"
      ],
      [
        "Ġp",
        "r"
      ],
      [
        "ou",
        "nd"
      ],
      [
        "Ġ",
        "le"
      ],
      [
        "a",
        "u"
      ],
      [
        "a",
        "p"
      ],
      [
        "Ġex",
        "ist"
      ],
      [
        "o",
        "p"
      ],
      [
        "Ġ",
        "C"
      ],
      [
        ".",
        "âĢĿ"
      ],
      [
        "a",
        "ce"
      ],
      [
        "a",
        "ch"
      ],
      [
        "Ġg",
        "r"
      ],
      [
        "Ġs",
        "ome"
      ],
      [
        "re",
        "at"
      ],
      [
        "il",
        "ity"
      ],
      [
        "Ġthe",
        "se"
      ],
      [
        "Ġm",
        "y"
      ],
      [
        "et",
        "h"
      ],
      [
        "Ġt",
        "ime"
      ],
      [
        "Ġ",
        "if"
      ],
      [
        "Ġv",
        "ari"
      ],
      [
        "ou",
        "t"
      ],
      [
        "Ġe",
        "m"
      ],
      [
        "Ġa",
        "pp"
      ],
      [
        "ĠB",
        "ut"
      ],
      [
        "Ġth",
        "an"
      ],
      [
        "d",
        "u"
      ],
      [
        "Ġsu",
        "ch"
      ],
      [
        "Ġ",
        "qu"
      ],
      [
        "Ġg",
        "ener"
      ],
      [
        "s",
        "p"
      ],
      [
        "f",
        "ore"
      ],
      [
        "Ġ",
        "H"
      ],
      [
        "on",
        "e"
      ],
      [
        "ing",
        "s"
      ],
      [
        "ul",
        "t"
      ],
      [
        "Ġd",
        "is"
      ],
      [
        "Ġcon",
        "dition"
      ],
      [
        "Ġ",
        "("
      ],
      [
        "e",
        "x"
      ],
      [
        "r",
        "u"
      ],
      [
        "u",
        "ch"
      ],
      [
        "Ġp",
        "ossib"
      ],
      [
        "i",
        "re"
      ],
      [
        "st",
        "and"
      ],
      [
        "Ġc",
        "as"
      ],
      [
        "Ġ",
        "âĢľ"
      ],
      [
        "it",
        "e"
      ],
      [
        "per",
        "i"
      ],
      [
        "âĢ",
        "Ļ"
      ],
      [
        "u",
        "n"
      ],
      [
        "al",
        "s"
      ],
      [
        "Ġu",
        "s"
      ],
      [
        "Ġ",
        "very"
      ],
      [
        "Ġe",
        "v"
      ],
      [
        "Ġ",
        "L"
      ],
      [
        "Ġh",
        "im"
      ],
      [
        "Ġwe",
        "re"
      ],
      [
        "Ġ",
        "E"
      ],
      [
        "ur",
        "al"
      ],
      [
        "Ġw",
        "hen"
      ],
      [
        "Ġin",
        "d"
      ],
      [
        "a",
        "w"
      ],
      [
        "in",
        "e"
      ],
      [
        "er",
        "tain"
      ],
      [
        "p",
        "os"
      ],
      [
        "b",
        "e"
      ],
      [
        "Ġre",
        "l"
      ],
      [
        "ec",
        "ess"
      ],
      [
        "i",
        "ght"
      ],
      [
        "Ġre",
        "p"
      ],
      [
        "in",
        "ci"
      ],
      [
        "Ġcon",
        "t"
      ],
      [
        "re",
        "e"
      ],
      [
        "Ġc",
        "ould"
      ],
      [
        "w",
        "h"
      ],
      [
        "a",
        "g"
      ],
      [
        "Ġwh",
        "o"
      ],
      [
        "w",
        "e"
      ],
      [
        "Ġ",
        "F"
      ],
      [
        "Ġ",
        "j"
      ],
      [
        "ot",
        "her"
      ],
      [
        "Ġre",
        "g"
      ],
      [
        "a",
        "k"
      ],
      [
        "Ġa",
        "cc"
      ],
      [
        "Ġh",
        "ow"
      ],
      [
        "om",
        "en"
      ],
      [
        "Ġk",
        "now"
      ],
      [
        "as",
        "t"
      ],
      [
        "og",
        "n"
      ],
      [
        "Ġf",
        "e"
      ],
      [
        "peri",
        "ence"
      ],
      [
        "c",
        "end"
      ],
      [
        "f",
        "or"
      ],
      [
        "Ġc",
        "l"
      ],
      [
        "on",
        "d"
      ],
      [
        "Ġdiff",
        "ere"
      ],
      [
        "Ġw",
        "or"
      ],
      [
        "et",
        "erm"
      ],
      [
        "Ġim",
        "p"
      ],
      [
        "Ġg",
        "iv"
      ],
      [
        "t",
        "o"
      ],
      [
        "au",
        "se"
      ],
      [
        "Ġd",
        "ist"
      ],
      [
        "hen",
        "omen"
      ],
      [
        "a",
        "v"
      ],
      [
        "Ġa",
        "m"
      ],
      [
        "Ġbe",
        "ing"
      ],
      [
        "ent",
        "ly"
      ],
      [
        "it",
        "t"
      ],
      [
        "Ġcon",
        "s"
      ],
      [
        "Ġ",
        "D"
      ],
      [
        "Ġt",
        "w"
      ],
      [
        "o",
        "ll"
      ],
      [
        "Ġm",
        "ere"
      ],
      [
        "c",
        "es"
      ],
      [
        "Ġs",
        "y"
      ],
      [
        "as",
        "s"
      ],
      [
        "c",
        "ed"
      ],
      [
        "Ġg",
        "reat"
      ],
      [
        "ant",
        "s"
      ],
      [
        "Ġwh",
        "at"
      ],
      [
        "Ġe",
        "ach"
      ],
      [
        "he",
        "re"
      ],
      [
        "Ġcan",
        "not"
      ],
      [
        "c",
        "l"
      ],
      [
        "stand",
        "ing"
      ],
      [
        "i",
        "e"
      ],
      [
        "Ġa",
        "r"
      ],
      [
        "Ġ",
        "N"
      ],
      [
        "or",
        "i"
      ],
      [
        "Ġp",
        "re"
      ],
      [
        "Ġu",
        "p"
      ],
      [
        "e",
        "ar"
      ],
      [
        "Ġbe",
        "c"
      ],
      [
        "Ġ",
        "_"
      ],
      [
        "u",
        "ition"
      ],
      [
        "Ġpr",
        "inci"
      ],
      [
        "Ġn",
        "ecess"
      ],
      [
        "Ġex",
        "t"
      ],
      [
        "in",
        "ct"
      ],
      [
        "a",
        "ke"
      ],
      [
        "Ġnat",
        "ure"
      ],
      [
        "al",
        "ity"
      ],
      [
        "ion",
        "s"
      ],
      [
        "res",
        "s"
      ],
      [
        "Ġp",
        "ure"
      ],
      [
        "Ġre",
        "m"
      ],
      [
        "Ġtw",
        "o"
      ],
      [
        "Ġman",
        "y"
      ],
      [
        "Ġex",
        "perience"
      ],
      [
        "Ġnat",
        "ural"
      ],
      [
        "c",
        "y"
      ],
      [
        "Ġmo",
        "d"
      ],
      [
        "w",
        "ay"
      ],
      [
        "Ġgiv",
        "en"
      ],
      [
        "Ġc",
        "ertain"
      ],
      [
        "Ġc",
        "ogn"
      ],
      [
        "th",
        "at"
      ],
      [
        "eterm",
        "in"
      ],
      [
        "a",
        "ge"
      ],
      [
        "is",
        "e"
      ],
      [
        "in",
        "t"
      ],
      [
        "ou",
        "nt"
      ],
      [
        "s",
        "u"
      ],
      [
        "v",
        "es"
      ],
      [
        "v",
        "ed"
      ],
      [
        "o",
        "od"
      ],
      [
        "Ġa",
        "g"
      ],
      [
        "ĠT",
        "h"
      ],
      [
        "ir",
        "st"
      ],
      [
        "k",
        "ed"
      ],
      [
        "ent",
        "al"
      ],
      [
        "i",
        "ed"
      ],
      [
        "Ġp",
        "henomen"
      ],
      [
        "is",
        "h"
      ],
      [
        "Ġbe",
        "t"
      ],
      [
        "T",
        "he"
      ],
      [
        "p",
        "ir"
      ],
      [
        "Ġm",
        "uch"
      ],
      [
        "ĠI",
        "t"
      ],
      [
        "Ġmo",
        "st"
      ],
      [
        "Ġ",
        "P"
      ],
      [
        "li",
        "z"
      ],
      [
        "ol",
        "og"
      ],
      [
        "Ġ",
        "O"
      ],
      [
        "Ġpossib",
        "le"
      ],
      [
        "pir",
        "ical"
      ],
      [
        "le",
        "ction"
      ],
      [
        "Ġint",
        "o"
      ],
      [
        "ou",
        "ght"
      ],
      [
        "Ġcas",
        "e"
      ],
      [
        "a",
        "id"
      ],
      [
        "se",
        "qu"
      ],
      [
        "ab",
        "eth"
      ],
      [
        "liz",
        "abeth"
      ],
      [
        "ĠI",
        "n"
      ],
      [
        "Ã",
        "ł"
      ],
      [
        "ar",
        "act"
      ],
      [
        "Ġe",
        "very"
      ],
      [
        "Ġit",
        "self"
      ],
      [
        "it",
        "s"
      ],
      [
        "b",
        "er"
      ],
      [
        "if",
        "ic"
      ],
      [
        "Ġat",
        "t"
      ],
      [
        "e",
        "ver"
      ],
      [
        "o",
        "st"
      ],
      [
        "t",
        "e"
      ],
      [
        "Ġsh",
        "ould"
      ],
      [
        "ff",
        "ect"
      ],
      [
        "e",
        "l"
      ],
      [
        "Ġtr",
        "ans"
      ],
      [
        "re",
        "d"
      ],
      [
        "ut",
        "e"
      ],
      [
        "Ġint",
[...]
