{
  "version": "1.0",
  "truncation": null,
  "padding": null,
  "added_tokens": [
    {
      "id": 0,
      "content": "[UNK]",
      "single_word": false,
      "lstrip": false,
      "rstrip": false,
      "normalized": false,
      "special": true
    },
    {
      "id": 1,
      "content": "[CLS]",
      "single_word": false,
      "lstrip": false,
      "rstrip": false,
      "normalized": false,
      "special": true
    },
    {
      "id": 2,
      "content": "[SEP]",
      "single_word": false,
      "lstrip": false,
      "rstrip": false,
      "normalized": false,
      "special": true
    },
    {
      "id": 3,
      "content": "[PAD]",
      "single_word": false,
      "lstrip": false,
      "rstrip": false,
      "normalized": false,
      "special": true
    },
    {
      "id": 4,
      "content": "[MASK]",
      "single_word": false,
      "lstrip": false,
      "rstrip": false,
      "normalized": false,
      "special": true
    }
  ],
  "normalizer": null,
  "pre_tokenizer": {
    "type": "Whitespace"
  },
  "post_processor": null,
  "decoder": null,
  "model": {
    "type": "Unigram",
    "unk_id": 0,
    "vocab": [
      [
        "[UNK]",
        0.0
      ],
      [
        "[CLS]",
        0.0
      ],
      [
        "[SEP]",
        0.0
      ],
      [
        "[PAD]",
        0.0
      ],
      [
        "[MASK]",
        0.0
      ],
      [
        ",",
        -2.9106742355633575
      ],
      [
        "s",
        -3.026947842491527
      ],
      [
        "the",
        -3.123420494732974
      ],
      [
        "of",
        -3.3776513371813888
      ],
      [
        ".",
        -3.7527075334664097
      ],
      [
        "a",
        -3.903709697161146
      ],
      [
        "to",
        -3.9594046832402974
      ],
      [
        "and",
        -4.0252615013582105
      ],
      [
        "in",
        -4.038551444160028
      ],
      [
        "t",
        -4.305700867910783
      ],
      [
        "d",
        -4.33265519096085
      ],
      [
        "e",
        -4.349494324280144
      ],
      [
        "y",
        -4.400956634478979
      ],
      [
        "ed",
        -4.510531812327674
      ],
      [
        "ly",
        -4.543853421800653
      ],
      [
        "is",
        -4.604898429794112
      ],
      [
        "be",
        -4.679289812959244
      ],
      [
        "that",
        -4.702689235278559
      ],
      [
        "o",
        -4.707543262203522
      ],
      [
        "ing",
        -4.807840861497613
      ],
      [
        "f",
        -4.844679928713475
      ],
      [
        "it",
        -4.847122274479563
      ],
      [
        "which",
        -4.934517886360993
      ],
      [
        "I",
        -4.937973850619704
      ],
      [
        "not",
        -4.9899474758099185
      ],
      [
        ";",
        -5.021725584100167
      ],
      [
        "as",
        -5.022301390534606
      ],
      [
        "n",
        -5.094715274923127
      ],
      [
        "with",
        -5.155241431980103
      ],
      [
        "on",
        -5.204775971289845
      ],
      [
        "by",
        -5.320326779841849
      ],
      [
        "for",
        -5.340742093888165
      ],
      [
        "have",
        -5.380713083119348
      ],
      [
        "are",
        -5.385917812040802
      ],
      [
        "this",
        -5.429324804559389
      ],
      [
        "or",
        -5.489083757222797
      ],
      [
        "rom",
        -5.543064474150963
      ],
      [
        "we",
        -5.55075973474637
      ],
      [
        "her",
        -5.609236272610623
      ],
      [
        "all",
        -5.6135351918996905
      ],
      [
        "i",
        -5.621581117364595
      ],
      [
        "an",
        -5.6684183540938236
      ],
      [
        "can",
        -5.7128710040195525
      ],
      [
        "—",
        -5.715953394012198
      ],
      [
        "but",
        -5.724866537508976
      ],
      [
        "al",
        -5.795443770824989
      ],
      [
        "“",
        -5.813617014291821
      ],
      [
        "was",
        -5.8541017711299705
      ],
      [
        "other",
        -5.861792006130487
      ],
      [
        "-",
        -5.931250114657822
      ],
      [
        "been",
        -5.989354599918394
      ],
      [
        "The",
        -6.01806645301196
      ],
      [
        "one",
        -6.027458044911331
      ],
      [
        "species",
        -6.037481700566589
      ],
      [
        "their",
        -6.064847799485377
      ],
      [
        "r",
        -6.084629083397971
      ],
      [
        "any",
        -6.119325564978186
      ],
      [
        "he",
        -6.13539656938878
      ],
      [
        "some",
        -6.151881972077369
      ],
      [
        "_",
        -6.187409104389518
      ],
      [
        "has",
        -6.22322161300907
      ],
      [
        "his",
        -6.225404199324766
      ],
      [
        "would",
        -6.249037153633699
      ],
      [
        "had",
        -6.270552904796084
      ],
      [
        "will",
        -6.283756604439529
      ],
      [
        "its",
        -6.2870633186042655
      ],
      [
        "may",
        -6.293278784906245
      ],
      [
        "thing",
        -6.294337455106342
      ],
      [
        "same",
        -6.304587692627479
      ],
      [
        "time",
        -6.304836482931936
      ],
      [
        "only",
        -6.307096761103515
      ],
      [
        "our",
        -6.309470779585149
      ],
      [
        "must",
        -6.327105631256529
      ],
      [
        "there",
        -6.329585858159572
      ],
      [
        "she",
        -6.337262471777661
      ],
      [
        "Mr",
        -6.337393443610037
      ],
      [
        "more",
        -6.346539168038744
      ],
      [
        "m",
        -6.359637965428136
      ],
      [
        "form",
        -6.365917535741099
      ],
      [
        "reason",
        -6.367747421957542
      ],
      [
        "self",
        -6.387179063400398
      ],
      [
        "But",
        -6.400653340680529
      ],
      [
        "they",
        -6.418177007632134
      ],
      [
        "ies",
        -6.430511122766886
      ],
      [
        "you",
        -6.4806815017847175
      ],
      [
        "out",
        -6.492926324117889
      ],
      [
        "us",
        -6.50701750244282
      ],
      [
        "h",
        -6.508604905957657
      ],
      [
        "these",
        -6.50970643208001
      ],
      [
        "such",
        -6.538471488324045
      ],
      [
        "(",
        -6.545859360240966
      ],
      [
        "condition",
        -6.56195254895979
      ],
      [
        ".”",
        -6.571629823655097
      ],
      [
        "than",
        -6.595321488779187
      ],
      [
        "being",
        -6.601928806309062
      ],
      [
        "very",
        -6.62220688994138
      ],
      [
        "case",
        -6.636758454194926
      ],
      [
        "how",
        -6.639732757299323
      ],
      [
        "him",
        -6.642240070743157
      ],
      [
        "most",
        -6.642889273253477
      ],
      [
        "them",
        -6.647298245800916
      ],
      [
        "what",
        -6.652851613120009
      ],
      [
        "ity",
        -6.671497991086462
      ],
      [
        "were",
        -6.673246783662812
      ],
      [
        "b",
        -6.676469684121921
      ],
      [
        "when",
        -6.686006386265864
      ],
      [
        "cause",
        -6.695740519133988
      ],
      [
        "could",
        -6.7072055256059535
      ],
      [
        "conception",
        -6.710473845485221
      ],
      [
        "’",
        -6.718065463781546
      ],
      [
        "man",
        -6.723769755760697
      ],
      [
        "l",
        -6.737461821625211
      ],
      [
        "my",
        -6.7620484401022845
      ],
      [
        "w",
        -6.762519174707154
      ],
      [
        "though",
        -6.775523933151417
      ],
      [
        "ever",
        -6.778933201166963
      ],
      [
        "mere",
        -6.780401422302436
      ],
      [
        "experience",
        -6.804636392157856
      ],
      [
        "each",
        -6.806991480066548
      ],
      [
        "c",
        -6.816401062323186
      ],
      [
        "object",
        -6.823867119778703
      ],
      [
        "nature",
        -6.862185022389928
      ],
      [
        "th",
        -6.863631607014717
      ],
      [
        "much",
        -6.878963027738361
      ],
      [
        "possibl",
        -6.9081869933562885
      ],
      [
        "two",
        -6.918671709501268
      ],
      [
        "certain",
        -6.924143235986964
      ],
      [
        "pure",
        -6.9316499073213205
      ],
      [
        "me",
        -6.93319200592011
      ],
      [
        "In",
        -6.936086911496928
      ],
      [
        "general",
        -6.945875532709184
      ],
      [
        "le",
        -6.9501754255000545
      ],
      [
        "able",
        -6.950728554845401
      ],
      [
        "given",
        -6.955132439484171
      ],
      [
        "ce",
        -6.969686438796925
      ],
      [
        "great",
        -6.97094073405044
      ],
      [
        ":",
        -6.977525303514308
      ],
      [
        "less",
        -6.981887216748337
      ],
      [
        "intuition",
        -7.00359714860446
      ],
      [
        "ther",
        -7.007317474538006
      ],
      [
        "natural",
        -7.02625850244193
      ],
      [
        "understanding",
        -7.0277386749149064
      ],
      [
        "know",
        -7.034395397736611
      ],
      [
        "aid",
        -7.034552557770884
      ],
      [
        "existence",
        -7.041165197132183
      ],
      [
        "every",
        -7.049788205629636
      ],
      [
        "mean",
        -7.068225269520698
      ],
      [
        "should",
        -7.0695006912237135
      ],
      [
        "part",
        -7.082844242727479
      ],
      [
        "first",
        -7.084886086710479
      ],
      [
        "exist",
        -7.08884283064654
      ],
      [
        "present",
        -7.089978966618957
      ],
      [
        "cognition",
        -7.090783282920135
      ],
      [
        "Eliza",
        -7.093742537148706
      ],
      [
        "necessar",
        -7.096113404544516
      ],
      [
        "even",
        -7.107526227431342
      ],
      [
        "A",
        -7.109126590737161
      ],
      [
        "who",
        -7.111146031005645
      ],
      [
        "conceptions",
        -7.118846316946113
      ],
      [
        "empirical",
        -7.122620170758472
      ],
      [
        ")",
        -7.123827896426214
      ],
      [
        "ness",
        -7.131871219265281
      ],
      [
        "à",
        -7.133472734990626
      ],
      [
        "different",
        -7.161789866549432
      ],
      [
        "S",
        -7.162628358403563
      ],
      [
        "like",
        -7.16700279248218
      ],
      [
        "For",
        -7.172172062034186
      ],
      [
        "priori",
        -7.178392692122265
      ],
      [
        "under",
        -7.181236823622744
      ],
      [
        "am",
        -7.182800258302308
      ],
      [
        "phenomena",
        -7.186505828266095
      ],
      [
        "long",
        -7.189514908616167
      ],
      [
        "see",
        -7.198243758507782
      ],
      [
        "regard",
        -7.2010474123570445
      ],
      [
        "hose",
        -7.202576450872481
      ],
      [
        "world",
        -7.20620327536614
      ],
      [
        "never",
        -7.2064927484460135
      ],
      [
        "thus",
        -7.208161647883532
      ],
      [
        "far",
        -7.208750713676883
      ],
      [
        "un",
        -7.215123970941789
      ],
      [
        "idea",
        -7.245017521431042
      ],
      [
        "plant",
        -7.2474731356192805
      ],
      [
        "well",
        -7.251084624533026
      ],
      [
        "animal",
        -7.256067810378922
      ],
      [
        "through",
        -7.268472127653067
      ],
      [
        ",”",
        -7.269679356031078
      ],
      [
        "subject",
        -7.269963239373745
      ],
      [
        "into",
        -7.2874733499129585
      ],
      [
        "character",
        -7.288887528660918
      ],
      [
        "between",
        -7.2992959692477095
      ],
      [
        "unit",
        -7.30230122433941
      ],
      [
        "lection",
        -7.314332234348845
      ],
      [
        "now",
        -7.334776974213516
      ],
      [
        "relation",
        -7.338234738776826
      ],
      [
        "We",
        -7.339264508261669
      ],
      [
        "nothing",
        -7.343161800050786
      ],
      [
        "say",
        -7.3561848834716
      ],
      [
        "ways",
        -7.357672114712942
      ],
      [
        "er",
        -7.369491051442234
      ],
      [
        "?",
        -7.377293340986608
      ],
      [
        "C",
        -7.378428795612684
      ],
      [
        "objects",
        -7.384775171706611
      ],
      [
        "own",
        -7.388645392779449
      ],
      [
        "place",
        -7.398241276001707
      ],
      [
        "might",
        -7.401950638827255
      ],
      [
        "change",
        -7.4043554310554915
      ],
      [
        "aving",
        -7.407715667536547
      ],
      [
        "does",
        -7.410517384823339
      ],
      [
        "way",
        -7.411443140833868
      ],
      [
        "fact",
        -7.4133917883019205
      ],
      [
        "variet",
        -7.431090893229843
      ],
      [
        "p",
        -7.4342530415638715
      ],
      [
        "upon",
        -7.438306919304473
      ],
      [
        "ion",
        -7.43898571080181
      ],
      [
        "principle",
        -7.447077291235661
      ],
      [
        "manner",
        -7.454178130653381
      ],
      [
        "No",
        -7.456669294040501
      ],
      [
        "whole",
        -7.458282313939196
      ],
      [
        "number",
        -7.462811177417312
      ],
      [
        "thought",
        -7.4667616103764525
      ],
      [
        "Thi",
        -7.473070843560601
      ],
      [
        "transcendental",
        -7.482709506624642
      ],
      [
        "give",
        -7.491060080847976
      ],
      [
        "follow",
        -7.499255834744311
      ],
      [
        "call",
        -7.5008942574062125
      ],
      [
        "life",
        -7.502961675103155
      ],
      [
        "ither",
        -7.5079866701748195
      ],
      [
        "make",
        -7.50970381853287
      ],
      [
        "your",
        -7.5119958777691735
      ],
      [
        "space",
        -7.530401377714088
      ],
      [
        "Darcy",
        -7.5323346122701516
      ],
      [
        "shall",
        -7.547056496767591
      ],
      [
        "again",
        -7.550151922207951
      ],
      [
        "ves",
        -7.550366980159292
      ],
      [
        "former",
        -7.553037310965529
      ],
      [
        "ve",
        -7.55492521769527
      ],
      [
        "determine",
        -7.562363001828635
      ],
      [
        "He",
        -7.564564932777671
      ],
      [
        "common",
        -7.569618241557161
      ],
      [
        "according",
        -7.57355196340976
      ],
      [
        "kind",
        -7.575590462109457
      ],
      [
        "importan",
        -7.578036479750728
      ],
      [
        "another",
        -7.578886470218787
      ],
      [
        "believe",
        -7.591458957016934
      ],
      [
        "distinct",
        -7.591642739419215
      ],
      [
        "consider",
        -7.601260899921415
      ],
      [
        "),",
        -7.616519299142295
      ],
      [
        "consequent",
        -7.6231290164514816
      ],
      [
        "whe",
        -7.624762659336562
      ],
      [
        "before",
        -7.627145066988962
      ],
      [
        "absolute",
        -7.627339243753636
      ],
      [
        "several",
        -7.630446762492693
      ],
      [
        "often",
        -7.630577500425295
      ],
      [
        "think",
        -7.637286301366445
      ],
      [
        "where",
        -7.637917974423052
      ],
      [
        "found",
        -7.642283609948523
      ],
      [
        "!",
        -7.642291660762934
      ],
      [
        "little",
        -7.6427676426694555
      ],
      [
        "period",
        -7.645126500941266
      ],
      [
        "large",
        -7.650405553359517
      ],
      [
        "difference",
        -7.655657945548887
      ],
      [
        "contain",
        -7.655892201665567
      ],
      [
        "ation",
        -7.660991766219104
      ],
      [
        "proposition",
        -7.6716921905293
      ],
      [
        "M",
        -7.674662731292108
      ],
      [
        "sense",
        -7.6790197905949595
      ],
      [
        "possibility",
        -7.683551746067153
      ],
      [
        "over",
        -7.685371260460306
      ],
      [
        "new",
        -7.685504920813448
      ],
      [
        "degree",
        -7.687841378409613
      ],
      [
        "F",
        -7.687865436069423
      ],
      [
        "seem",
        -7.691595185590282
      ],
      [
        "[",
        -7.693283188770777
      ],
      [
        "]",
        -7.693283188770777
      ],
      [
        "after",
        -7.693293449783265
      ],
      [
        "good",
        -7.693452769341127
      ],
      [
        "principles",
        -7.696872890210604
      ],
      [
        "find",
        -7.703244672329301
      ],
      [
        "On",
        -7.704000130848304
      ],
      [
        "parts",
        -7.709591072225179
      ],
      [
        "did",
        -7.713820103862328
      ],
      [
        "become",
        -7.717940260777424
      ],
      [
        "produce",
        -7.7218548720873565
      ],
      [
        "structure",
        -7.723756441469341
      ],
      [
        "organ",
        -7.724357730886341
      ],
      [
        "look",
        -7.726476125051562
      ],
      [
        "still",
        -7.727036711366578
      ],
      [
        "question",
        -7.740790909810174
      ],
      [
        "both",
        -7.7408878825592
      ],
      [
        "effect",
        -7.746262753368253
      ],
      [
        "Bennet",
        -7.7465170106699075
      ],
      [
        "group",
        -7.755040293097277
      ],
      [
        "close",
        -7.764480807401341
      ],
      [
        "show",
        -7.764904655156812
      ],
      [
        "mad",
        -7.769187090012301
      ],
      [
        "And",
        -7.769693006848384
      ],
      [
        "respect",
        -7.775260175253956
      ],
      [
        "day",
        -7.776964510691305
      ],
      [
        "up",
        -7.778053959186065
      ],
      [
        "ment",
        -7.779245941025283
      ],
      [
        "state",
        -7.785688918038538
      ],
      [
        "view",
        -7.7872041045482385
      ],
      [
        "ary",
        -7.790729430161667
      ],
      [
        "She",
        -7.798571241409161
      ],
      [
        "order",
        -7.806091951087738
      ],
      [
        "dur",
        -7.807764944074175
      ],
      [
        "limit",
        -7.808413934293512
      ],
      [
        "appear",
        -7.811130472367725
      ],
      [
        "ries",
        -7.828581695505164
      ],
      [
        "g",
        -7.829419374513122
      ],
      [
        "belong",
        -7.830582809902267
      ],
      [
        "point",
        -7.833454161873898
      ],
      [
        "Miss",
        -7.843780800310197
      ],
      [
        "B",
        -7.845373725202092
      ],
      [
        "Bingley",
        -7.846297646454537
      ],
      [
        "quite",
        -7.853919434471256
      ],
      [
        "few",
        -7.857852841601413
      ],
      [
        "use",
        -7.861676162696138
      ],
      [
        "whil",
        -7.868963534226362
      ],
      [
        "fore",
        -7.875419350548774
      ],
      [
        "mind",
        -7.879978157712002
      ],
      [
        "ather",
        -7.880955578308036
      ],
      [
        "latter",
        -7.881439310199053
      ],
      [
        "Jane",
        -7.8821837812775595
      ],
      [
        "rule",
        -7.885413458302042
      ],
      [
        "soon",
        -7.889184239113133
      ],
      [
        "go",
        -7.894560221879212
      ],
      [
        "sister",
        -7.895767197635948
      ],
      [
        "young",
        -7.898180578479054
      ],
      [
        "?”",
        -7.899173339676886
      ],
      [
        "”",
        -7.902207226599808
      ],
      [
        "W",
        -7.905320650773452
      ],
      [
        "difficult",
        -7.908612706280985
      ],
      [
        "laws",
        -7.91297550351955
      ],
      [
        "perception",
        -7.9154592947579046
      ],
      [
        "msel",
        -7.921293978206013
      ],
      [
        "als",
        -7.92175895400631
      ],
      [
        "complete",
        -7.922627738001901
      ],
      [
        "synthesis",
        -7.925820588744671
      ],
      [
        "here",
        -7.926958840565765
      ],
      [
        "variation",
        -7.929140228951675
      ],
      [
        "3",
        -7.932807068901703
      ],
      [
        "ground",
        -7.93623703784671
      ],
      [
        "come",
        -7.940468905924119
      ],
      [
        "bird",
        -7.94304160315715
      ],
      [
        "instance",
        -7.943155150051723
      ],
      [
        "formation",
        -7.9565808995603655
      ],
      [
        "side",
        -7.969174698189204
      ],
      [
        "H",
        -7.9712436641644
      ],
      [
        "proper",
        -7.9712712975217865
      ],
      [
        "near",
        -7.971856421400386
      ],
      [
        "O",
        -7.972311086953097
      ],
      [
        "read",
        -7.988213308073718
      ],
      [
        "three",
        -7.989952693006074
      ],
      [
        "take",
        -7.9904598162685545
      ],
      [
        "--",
        -7.990862847867938
      ],
      [
        "efore",
        -7.9926335825493675
      ],
      [
        "action",
        -7.995203362499989
      ],
      [
        "leas",
        -7.997135079201721
      ],
      [
        "discover",
        -7.997921504549721
      ],
      [
        "suppose",
        -7.998232881139948
      ],
      [
        "power",
        -7.999443252715743
      ],
      [
        "wide",
        -8.001725919112339
      ],
      [
        "slight",
        -8.006465300054781
      ],
      [
        "relate",
        -8.0201548862781
      ],
      [
        "modification",
        -8.023228265159764
      ],
      [
        "representation",
        -8.029359880678403
      ],
      [
        "knowledge",
        -8.03082357802964
      ],
      [
        "wise",
        -8.032143336389007
      ],
      [
        "probabl",
        -8.032406727856422
      ],
      [
        "breed",
        -8.037950523771817
      ],
      [
        "highe",
        -8.037988986581016
      ],
      [
        "est",
        -8.038429592916522
      ],
      [
        "ous",
        -8.054392291307138
      ],
      [
        "ance",
        -8.061475059412551
      ],
      [
        "word",
        -8.078722955850937
      ],
      [
        "genera",
        -8.080099375986926
      ],
      [
        "facult",
        -8.081908370505396
      ],
      [
        "connect",
        -8.08535380940468
      ],
      [
        "sphere",
        -8.086084609318174
      ],
      [
        "sensuous",
        -8.090482819168862
      ],
      [
        "habit",
        -8.09975281758631
      ],
      [
        "purpose",
        -8.106283583780755
      ],
      [
        "represent",
        -8.110972091563951
      ],
      [
        "nor",
        -8.111265246853431
      ],
      [
        "answer",
        -8.114108787383138
      ],
      [
        "flower",
        -8.115168610882751
      ],
      [
        "ought",
        -8.122249931287662
      ],
      [
        "substance",
        -8.127147818249508
      ],
      [
        "last",
        -8.127884449300048
      ],
      [
        "2",
        -8.130414339442527
      ],
      [
        "remark",
        -8.130736493930641
      ],
      [
        "re",
        -8.130858469426421
      ],
      [
        "1",
        -8.134606912067564
      ],
      [
        "reality",
        -8.137199159009835
      ],
      [
        "real",
        -8.137755489653706
      ],
      [
        "ive",
        -8.138483126854684
      ],
      [
        "As",
        -8.14347656108393
      ],
      [
        "determination",
        -8.144333903165034
      ],
      [
        "ham",
        -8.15310677775938
      ],
      [
        "hope",
        -8.154251620484725
      ],
      [
        "just",
        -8.155570440078979
      ],
      [
        "synthetical",
        -8.156181350945218
      ],
      [
        "law",
        -8.157304980782506
      ],
      [
        "external",
        -8.161380177301307
      ],
      [
        "hand",
        -8.168492527986725
      ],
      [
        "about",
        -8.17039766230787
      ],
      [
        "When",
        -8.172900151604598
      ],
      [
        "countr",
        -8.173528965098091
      ],
      [
        "science",
        -8.17453677853055
      ],
      [
        "high",
        -8.17469547280386
      ],
      [
        "judgement",
        -8.175593427099024
      ],
      [
        "parent",
        -8.178903627126367
      ],
      [
        "internal",
        -8.179955808871657
      ],
      [
        "second",
        -8.18531347438109
      ],
      [
        "impossib",
        -8.19582189573018
      ],
      [
        "bod",
        -8.199480716795932
      ],
      [
        "right",
        -8.203140985855564
      ],
      [
        "dia",
        -8.20656391265906
      ],
      [
        "Thu",
        -8.210295368110714
      ],
      [
        "objective",
        -8.211681875593904
      ],
      [
        "phenomen",
        -8.214436659653476
      ],
      [
        "course",
        -8.214956583721257
      ],
      [
        "ick",
        -8.214961065143454
      ],
      [
        "true",
        -8.219020754910366
      ],
      [
        "insect",
        -8.228983697873032
      ],
      [
        "employ",
        -8.233236120844484
      ],
      [
        "family",
        -8.23423420206656
      ],
      [
        "indee",
        -8.235219303356203
      ],
      [
        "small",
        -8.235722548216316
      ],
      [
        "modifie",
        -8.238340320710947
      ],
      [
        "doubt",
        -8.239515160450594
      ],
      [
        "island",
        -8.240301610095917
      ],
      [
        "system",
        -8.24312550161922
      ],
      [
        "perfect",
        -8.246608269279182
      ],
      [
        "seed",
        -8.25021833813193
      ],
      [
        "simple",
        -8.257342178973364
      ],
      [
        "require",
        -8.259590655698617
      ],
      [
        "cross",
        -8.260270370328826
      ],
      [
        "You",
        -8.261430126113934
      ],
      [
        "ence",
        -8.263359257959477
      ],
      [
        "act",
        -8.264404475590707
      ],
      [
        "ory",
        -8.264684244135614
      ],
      [
        "rhaps",
        -8.265077181292991
      ],
      [
        "Ly",
        -8.271338637114683
      ],
      [
        "ily",
        -8.277794904854929
      ],
      [
        "myself",
        -8.28307062834954
      ],
      [
        "wh",
        -8.286110463749651
      ],
      [
        "example",
        -8.286543247140685
      ],
      [
        "There",
        -8.290329609604726
      ],
      [
        "ove",
        -8.292731343819566
      ],
      [
        "old",
        -8.29556599384664
      ],
      [
        "4",
        -8.296409400554019
      ],
      [
        "sufficient",
        -8.299098140035039
      ],
      [
        "æ",
        -8.30115047202682
      ],
      [
        "connection",
        -8.302110735973939
      ],
      [
        "term",
        -8.304541641316156
      ],
      [
        "truth",
        -8.30668121689482
      ],
      [
        "logical",
        -8.308351905190415
      ],
      [
        "necessit",
        -8.310001358881088
      ],
      [
        "pe",
        -8.31200010970501
      ],
      [
        "work",
        -8.313502067623109
      ],
      [
        "Collins",
        -8.321720706564989
      ],
      [
        "extinct",
        -8.321724038233725
      ],
      [
        "They",
        -8.32229486196268
      ],
      [
        "really",
        -8.323874334169803
      ],
      [
        "mode",
        -8.326141644516568
      ],
      [
        "perfectly",
        -8.327753113604551
      ],
      [
        "hybrid",
        -8.329076013686722
      ],
      [
        "water",
        -8.332012067190648
      ],
      [
        "genu",
        -8.342648124279965
      ],
      [
        "individuals",
        -8.343044875313314
      ],
      [
        "possess",
        -8.343522512089422
      ],
      [
        "een",
        -8.344186857247319
      ],
      [
        "explain",
        -8.352913634583533
      ],
      [
        "valid",
        -8.352928327030781
      ],
      [
        "Lady",
        -8.368867172669663
      ],
      [
        "steril",
        -8.372251783759916
      ],
      [
        "quantit",
        -8.372434605733819
      ],
      [
        "end",
        -8.373948232663249
      ],
      [
        "immediate",
        -8.374237673212026
      ],
      [
        "T",
        -8.381726595131838
      ],
      [
        "ic",
        -8.383606010471041
      ],
      [
        "name",
        -8.38935460533856
      ],
      [
        "year",
        -8.394321560563302
      ],
      [
        "intermedia",
        -8.395116442135802
      ],
      [
        "7",
        -8.397570468389628
      ],
      [
        "hard",
        -8.39869531175279
      ],
      [
        "matter",
        -8.401573363315217
      ],
      [
        "representations",
        -8.405210235040522
      ],
      [
        "speak",
        -8.40797274765811
      ],
      [
        "attempt",
        -8.412739110206752
      ],
      [
        "inherit",
        -8.414462871929949
      ],
      [
        "oget",
        -8.41732641082939
      ],
      [
        "That",
        -8.422350945532994
      ],
      [
        "room",
        -8.423999238503601
      ],
      [
        "understand",
        -8.431794259929626
      ],
      [
        "dear",
        -8.436142092399646
      ],
      [
        "prove",
        -8.439857959325447
      ],
      [
        "extreme",
        -8.441103225633903
      ],
      [
        "argument",
        -8.441110284256183
      ],
      [
        "render",
        -8.441145781758731
      ],
      [
        "single",
        -8.443655093259547
      ],
      [
        "result",
        -8.446913924388635
      ],
      [
        "human",
        -8.446925238087243
      ],
      [
        "live",
        -8.447151338583481
      ],
      [
        "particular",
        -8.448340390267724
      ],
      [
        "differ",
        -8.452054988480878
      ],
      [
        "manifold",
        -8.458554651559812
      ],
      [
        "came",
        -8.459298860456633
      ],
      [
        "cogitate",
        -8.459442432842215
      ],
      [
        "production",
        -8.464315985355078
      ],
      [
        "consciousness",
        -8.464720942886295
      ],
      [
        "rest",
        -8.464949100204588
      ],
      [
        "clear",
        -8.470499370380818
      ],
      [
        "domestic",
        -8.470924877121725
      ],
      [
        "All",
        -8.471447687980973
      ],
      [
        "sure",
        -8.474294336268724
      ],
      [
        "get",
        -8.475753204067455
      ],
      [
        "ond",
        -8.475812378255124
      ],
      [
        "Illustration",
        -8.47629719072081
      ],
      [
        "colour",
        -8.476383992986484
      ],
      [
        "u",
        -8.48112363243968
      ],
      [
        "account",
        -8.482358619538777
      ],
      [
        "increase",
        -8.482881238896823
      ],
      [
        "advantage",
        -8.483215451851601
      ],
      [
        "land",
        -8.493039609810367
      ],
      [
        "instinct",
        -8.494078289567724
      ],
      [
        "With",
        -8.494409796376733
      ],
      [
        "class",
        -8.49540494142272
      ],
      [
        "um",
        -8.497047739436528
      ],
      [
        "interest",
        -8.4972732201044
      ],
      [
        "America",
        -8.500467611734416
      ],
      [
        "short",
        -8.500588398826817
      ],
      [
        "leave",
        -8.501563618199896
      ],
      [
        "successive",
        -8.506673782881876
      ],
      [
        "develope",
        -8.507190999567328
      ],
      [
        "wish",
        -8.50957640018046
      ],
      [
        "member",
        -8.512529341489817
      ],
      [
        "various",
        -8.512796979459178
      ],
      [
        "D",
        -8.513097221611773
      ],
      [
        "conclusion",
        -8.519120031584762
      ],
      [
        "fertil",
        -8.525086514950981
      ],
      [
        "nough",
        -8.52590665110769
      ],
      [
        "proceed",
        -8.529915985707033
      ],
      [
        "proof",
        -8.532662950424486
      ],
      [
        "equal",
        -8.53307951032425
      ],
      [
        "entire",
        -8.537865695771666
      ],
      [
        "happen",
        -8.537938940903338
      ],
      [
        "organi",
        -8.539809644521934
      ],
      [
        "individual",
        -8.543520056536796
      ],
      [
        "inhabitant",
        -8.550756217454108
      ],
      [
        "full",
        -8.551692613386175
      ],
      [
        "once",
        -8.554347677372444
      ],
      [
        "9",
        -8.556183723944159
      ],
      [
        "To",
        -8.558104865593252
      ],
      [
        "allie",
        -8.56388409972251
      ],
      [
        "want",
        -8.56430962816498
      ],
      [
        "feeling",
        -8.568149690108049
      ],
      [
        "ill",
        -8.570406240469179
      ],
      [
        "extend",
        -8.5752942216929
      ],
      [
        "spring",
        -8.576723009972941
      ],
      [
        "attention",
        -8.576781217032181
      ],
      [
        "What",
        -8.576988714768074
      ],
      [
        "total",
        -8.577594717168395
      ],
      [
        "greate",
        -8.578224888872626
      ],
      [
        "ask",
        -8.57938384822954
      ],
      [
        "peculiar",
        -8.581327956808172
      ],
      [
        "free",
        -8.583444874772628
      ],
      [
        "P",
        -8.587917801853074
      ],
      [
        "pass",
        -8.591340425866015
      ],
      [
        "philosoph",
        -8.592000510889324
      ],
      [
        "content",
        -8.594111116338887
      ],
      [
        "concern",
        -8.59606461369191
      ],
      [
        "similar",
        -8.60032048422894
      ],
      [
        "living",
        -8.60375889275042
      ],
      [
        "categor",
        -8.606941292759583
      ],
      [
        "Her",
        -8.609052977626677
      ],
      [
        "admit",
        -8.611214402891516
      ],
      [
        "relations",
        -8.611563334253264
      ],
      [
        "letter",
        -8.612606390147363
      ],
      [
        "oursel",
        -8.615930422553927
      ],
      [
        "sensibili",
        -8.618009606238786
      ],
      [
        "E",
        -8.62350080732932
      ],
      [
        "predicate",
        -8.631737092522053
      ],
      [
        "ical",
        -8.633809134748656
      ],
      [
        "friend",
        -8.634886702091986
      ],
      [
        "remain",
        -8.634946455383105
      ],
      [
        "completely",
        -8.637684492518947
      ],
      [
        "How",
        -8.638028782989583
      ],
      [
        "infinite",
        -8.638416184291703
      ],
      [
        "origin",
        -8.64675348096501
      ],
      [
        "vary",
        -8.647877501703377
      ],
      [
        "alon",
        -8.64867999873259
      ],
      [
        "Of",
        -8.651369894393149
      ],
      [
        "generation",
        -8.652487545578019
      ],
      [
        "went",
        -8.656306234627074
      ],
      [
        "strong",
        -8.662513594013127
      ],
      [
        "appearance",
        -8.664413588882866
      ],
      [
        "opinion",
        -8.666410274522157
      ],
      [
        "lef",
        -8.666637704264105
      ],
      [
        "element",
        -8.666916051525
      ],
      [
        "return",
        -8.674032272240417
      ],
      [
        "determin",
        -8.674913440592041
      ],
      [
        "till",
        -8.675866888206311
      ],
      [
        "moral",
        -8.677054255381172
      ],
      [
        "slow",
        -8.677132316250034
      ],
      [
        "speculati",
        -8.681036706673659
      ],
      [
        "rank",
        -8.681328684499874
      ],
      [
        "open",
        -8.683210313293522
      ],
      [
        "etter",
        -8.687871476335634
      ],
      [
        "daughter",
        -8.688367741825115
      ],
      [
        "contrar",
        -8.68875061958034
      ],
      [
        "cognize",
        -8.68888970035735
      ],
      [
        "taken",
        -8.689179768938546
      ],
      [
        "L",
        -8.690220008556953
      ],
      [
        "except",
        -8.695405804145599
      ],
      [
        "toward",
        -8.696878996302923
      ],
      [
        "best",
        -8.698024109848452
      ],
      [
        "crosse",
        -8.69848033744485
      ],
      [
        "allow",
        -8.70000886004038
      ],
      [
        "causalit",
        -8.700172837389701
      ],
      [
        "turn",
        -8.702848603454344
      ],
      [
        "amount",
        -8.703619353467523
      ],
      [
        "occasional",
        -8.708218009124575
      ],
      [
        "moment",
        -8.709263916025527
      ],
      [
        "universal",
        -8.710351804939197
      ],
      [
        "separate",
        -8.715458191123883
      ],
      [
        "age",
        -8.716516651524005
      ],
      [
        "depend",
        -8.71751780716598
      ],
      [
        "house",
        -8.718343250694165
      ],
      [
        "unconditioned",
        -8.718881650840446
      ],
      [
        "since",
        -8.720169411694101
      ],
      [
        "head",
        -8.720400119646463
      ],
      [
        "naturalist",
        -8.721014845193526
      ],
      [
        "applie",
        -8.725853290858431
      ],
      [
        "My",
        -8.727111649190773
      ],
      [
        "add",
        -8.731115767958897
      ],
      [
        "field",
        -8.73443505945636
      ],
      [
        "observe",
        -8.73540682013973
      ],
      [
        "stage",
        -8.73556682886532
      ],
      [
        "aim",
        -8.74381657792779
      ],
      [
        "down",
        -8.744490172239672
      ],
      [
        "tree",
        -8.748169013088173
      ],
      [
        "among",
        -8.749175439528777
      ],
      [
        "actual",
        -8.749179414001613
      ],
      [
        "pleasure",
        -8.749186574695896
      ],
      [
        "felt",
        -8.749210975767
      ],
      [
        "ten",
        -8.75018979239476
      ],
      [
        "independent",
        -8.753730663240603
      ],
      [
        ",--",
        -8.755826413011771
      ],
      [
        "base",
        -8.756105243794288
      ],
      [
        "love",
        -8.756349215895819
      ],
      [
        "systematic",
        -8.757194237070621
      ],
      [
        "development",
        -8.757490135120145
      ],
      [
        "line",
        -8.758132509803811
      ],
      [
        "sole",
        -8.759493682474373
      ],
      [
        "5",
        -8.761196847891275
      ],
      [
        "nce",
        -8.76127372333815
      ],
      [
        "atherin",
        -8.761959626178392
      ],
      [
        "urther",
        -8.76522042166065
      ],
      [
        "enter",
        -8.766105707576312
      ],
      [
        "bey",
        -8.76662123044845
      ],
      [
        "receive",
        -8.768101104194567
      ],
      [
        "happi",
        -8.770433939168097
      ],
      [
        "cri",
        -8.77140342887214
      ],
      [
        "explanation",
        -8.773201793150452
      ],
      [
        "male",
        -8.776680084192975
      ],
      [
        "lead",
        -8.776960408071034
      ],
      [
        "practical",
        -8.779472742518006
      ],
      [
        "exten",
        -8.791874382495838
      ],
      [
        "8",
        -8.791889593285198
      ],
      [
        "walk",
        -8.794699778586173
      ],
      [
        "size",
        -8.797794939479145
      ],
      [
        "specially",
        -8.799537090674704
      ],
      [
        "arise",
        -8.802624882470859
      ],
      [
        "k",
        -8.807633100092115
      ],
      [
        "ollen",
        -8.807745272001405
      ],
      [
        "range",
        -8.81050335534848
      ],
      [
        "plain",
        -8.814198550291142
      ],
      [
        "inhabit",
        -8.814496483529684
      ],
      [
        "6",
        -8.81689348416911
      ],
      [
        "adapt",
        -8.822156904407562
      ],
      [
        "process",
        -8.822366223312251
      ],
      [
        "variety",
        -8.822818052697151
      ],
      [
        "region",
        -8.830843724897974
      ],
      [
        "length",
        -8.830847551852626
      ],
      [
        "ancient",
        -8.830956025106921
      ],
      [
        "division",
        -8.83186087419498
      ],
      [
        "continued",
        -8.83526392973167
      ],
      [
        "belief",
        -8.839435128926176
      ],
      [
        "descendant",
        -8.839523293120989
      ],
      [
        "distinguish",
        -8.840512083000604
      ],
      [
        "consideration",
        -8.840924738266168
      ],
      [
        "arly",
        -8.842698623974668
      ],
      [
        "eyes",
        -8.85036236155035
      ],
      [
        "talk",
        -8.854598490684559
      ],
      [
        "original",
        -8.8554584159256
      ],
      [
        "force",
        -8.856144217975782
      ],
      [
        "circumstance",
        -8.856784619455471
      ],
      [
        "namel",
        -8.858614152691151
      ],
      [
        "conditioned",
        -8.859922867844277
      ],
      [
        "regress",
        -8.865181156703537
      ],
      [
        "continent",
        -8.865483000163268
      ],
      [
        "consequence",
        -8.865489943073007
      ],
      [
        "G",
        -8.874213715684377
      ],
      [
        "else",
        -8.874894503359949
      ],
      [
        "foundation",
        -8.87587955872907
      ],
      [
        "race",
        -8.876976957852563
      ],
      [
        "consist",
        -8.877984504119846
      ],
      [
        "descend",
        -8.878357425300111
      ],
      [
        "intelligib",
        -8.879252716917431
      ],
      [
        "sub",
        -8.882847464362182
      ],
      [
        "source",
        -8.883752183554611
      ],
      [
        "tend",
        -8.884191523284677
      ],
      [
        "ignoran",
        -8.888174825536417
      ],
      [
        "evident",
        -8.892263272974123
      ],
      [
        "opposite",
        -8.892266857171295
      ],
      [
        "expression",
        -8.892751275060574
      ],
      [
        "subjective",
        -8.893712716528837
      ],
      [
        "judgements",
        -8.899492337096564
      ],
      [
        "done",
        -8.901174788649229
      ],
      [
        "endeavour",
        -8.90135469089492
      ],
      [
        "Reason",
        -8.901360422853621
      ],
      [
        "sudden",
        -8.901365925800949
      ],
      [
        "climate",
        -8.901972917103013
      ],
      [
        "egg",
        -8.903265440453367
      ],
      [
        "men",
        -8.904627793783979
      ],
      [
        "let",
        -8.905444140105182
      ],
      [
        "wing",
        -8.909827118647698
      ],
      [
        "PTER",
        -8.910535143037286
      ],
      [
        "Long",
        -8.91084349943141
      ],
      [
        "frequent",
        -8.911548639540843
      ],
      [
        "distinction",
        -8.912467202946917
      ],
      [
        "attribute",
        -8.917827697365972
      ],
      [
        ").",
        -8.918882036351942
      ],
      [
        "succession",
        -8.919983652748545
      ],
      [
        "influence",
        -8.921092784307763
      ],
      [
        "function",
        -8.92159037662045
      ],
      [
        "easi",
        -8.926357293981726
      ],
      [
        "step",
        -8.926805077595876
      ],
      [
        "complex",
        -8.929167576544533
      ],
      [
        "geological",
        -8.929189723919839
      ],
      [
        "evidence",
        -8.92950361900453
      ],
      [
        "half",
        -8.929642123317265
      ],
      [
        "tell",
        -8.92964276066084
      ],
      [
        "direct",
        -8.933460838061063
      ],
      [
        "confine",
        -8.93745609709578
      ],
      [
        "CHA",
        -8.938454377834695
      ],
      [
        "light",
        -8.9390353969312
      ],
      [
        "mention",
        -8.940285655125349
      ],
      [
        "Dr",
        -8.94446113457445
      ],
      [
        "embryo",
        -8.945035629637704
      ],
      [
        "Ye",
        -8.945042504823732
      ],
      [
        "replie",
        -8.94810339296022
      ],
      [
        "employment",
        -8.949197669713458
      ],
      [
        "prevent",
        -8.957720536183508
      ],
      [
        "pigeon",
        -8.957726582723181
      ],
      [
        "application",
        -8.958750896178561
      ],
      [
        "com",
        -8.960510674495719
      ],
      [
        "remains",
        -8.96198892077873
      ],
      [
        "Gardiner",
        -8.967415301034638
      ],
      [
        "progenitor",
        -8.967422501095301
      ],
      [
        "thinking",
        -8.968497658453167
      ],
      [
        "visit",
        -8.97461970210831
      ],
      [
        "rational",
        -8.974733069771565
      ],
      [
        "value",
        -8.97588415571184
      ],
      [
        "event",
        -8.977673456653335
      ],
      [
        "hear",
        -8.978424975678278
      ],
      [
        "lies",
        -8.98100284024277
      ],
      [
        "objection",
        -8.981858226305658
      ],
      [
        "compare",
        -8.983304300039674
      ],
      [
        "rare",
        -8.984695519376782
      ],
      [
        "chance",
        -8.987220336065514
      ],
      [
        "rought",
        -8.987902749106539
      ],
      [
        "advance",
        -8.989467249839755
      ],
      [
        "home",
        -8.98961537876794
      ],
      [
        "corresponding",
        -8.992063167218134
      ],
      [
        "utter",
        -8.993360337823368
      ],
      [
        "assume",
        -8.994245436266159
      ],
      [
        "struggle",
        -8.994644760058016
      ],
      [
        "attain",
        -8.996549441862093
      ],
      [
        "lower",
        -8.996872220117803
      ],
      [
        "Sir",
        -8.997271589393915
      ],
      [
        "exercise",
        -8.999459921275303
      ],
      [
        "improve",
        -9.002945947748213
      ],
      [
        "indicate",
        -9.004062712569507
      ],
      [
        "Lizz",
        -9.007221177985773
      ],
      [
        "late",
        -9.00731075280024
      ],
      [
        "apparent",
        -9.007448951077729
      ],
      [
        "making",
        -9.008376650707199
      ],
      [
        "rudiment",
        -9.01742525983239
      ],
      [
        "beginning",
        -9.01747019023274
      ],
      [
        "exact",
        -9.017498603928868
      ],
      [
        "contradiction",
        -9.017514073597258
      ],
      [
        "need",
        -9.018691499289998
      ],
      [
        "heard",
        -9.020156018001817
      ],
      [
        "conclude",
        -9.020650760234988
      ],
      [
        "stead",
        -9.02079049377857
      ],
      [
        "presuppose",
        -9.024905625685985
      ],
      [
        "horse",
        -9.027794686367322
      ],
      [
        "expect",
        -9.028163293109866
      ],
      [
        "gradation",
        -9.030375527721404
      ],
      [
        "His",
        -9.036126555254965
      ],
      [
        "usual",
        -9.03756651106521
      ],
      [
        "tendency",
        -9.038772726178035
      ],
      [
        "constitute",
        -9.041177141449696
      ],
      [
        "favour",
        -9.04281736919301
      ],
      [
        "occur",
        -9.044756176107075
      ],
      [
        "material",
        -9.045546002477861
      ],
      [
        "descen",
        -9.04557041236373
      ],
      [
        "progress",
        -9.048377710809957
      ],
      [
        "author",
        -9.04924196240946
      ],
      [
        "shell",
        -9.049693710761133
      ],
      [
        "play",
        -9.050298710766096
      ],
      [
        "nest",
        -9.057875573785104
      ],
      [
        "chapter",
        -9.059317395206989
      ],
      [
        "affinit",
        -9.059336949063995
      ],
      [
        "acquire",
        -9.059475166651122
      ],
      [
        "useful",
        -9.059589037844336
      ],
      [
        "back",
        -9.059636622572278
      ],
      [
        "serve",
        -9.060397970308621
      ],
      [
        "remarkabl",
        -9.061299424146142
      ],
      [
        "support",
        -9.061341516481905
      ],
      [
        "lost",
        -9.061603980980305
      ],
      [
        "ave",
        -9.062808053729615
      ],
      [
        "maintain",
        -9.065828631913156
      ],
      [
        "ar",
        -9.06613876772316
      ],
      [
        "perceive",
        -9.068828476954392
      ],
      [
        "So",
        -9.068829500517879
      ],
      [
        "investigation",
        -9.070143825545598
      ],
      [
        "recent",
        -9.07016277518111
      ],
      [
        "rock",
        -9.070340890054705
      ],
      [
        "express",
        -9.076604037550062
      ],
      [
        "due",
        -9.077805890739683
      ],
      [
        "permanent",
        -9.078360140052716
      ],
      [
        "female",
        -9.081202182647539
      ],
      [
        "freedom",
        -9.081717669912246
      ],
      [
        "establish",
        -9.081945612548836
      ],
      [
        "logic",
        -9.088645329586466
      ],
      [
        "resemblance",
        -9.091983177782183
      ],
      [
        "hire",
        -9.091985360059843
      ],
      [
        "organisation",
        -9.092383556290516
      ],
      [
        "constitution",
        -9.093076131700279
      ],
      [
        "admitted",
        -9.09465405261455
      ],
      [
        "R",
        -9.094991021434371
      ],
      [
        "low",
        -9.095503806591278
      ],
      [
        "next",
        -9.10116422737995
      ],
      [
        "propert",
        -9.10324605510767
      ],
      [
        "false",
        -9.103932450547127
      ],
      [
        "philosopher",
        -9.104202406634556
      ],
      [
        "feel",
        -9.106463169605487
      ],
      [
        "Lucas",
        -9.114283827218383
      ],
      [
        "bourn",
        -9.114591249875026
      ],
      [
        "aunt",
        -9.115436562004032
      ],
      [
        "happ",
        -9.116173397251147
      ],
      [
        "derive",
        -9.116570460900425
      ],
      [
        "bear",
        -9.116583482505849
      ],
      [
        "strict",
        -9.118013492168892
      ],
      [
        "favourabl",
        -9.119829737975689
      ],
      [
        "chief",
        -9.123118827287175
      ],
      [
        "enable",
        -9.125507964769607
      ],
      [
        "&",
        -9.125637784880313
      ],
      [
        "variability",
        -9.125730307933289
      ],
      [
        "physical",
        -9.12626697167483
      ],
      [
        "error",
        -9.126738469159044
      ],
      [
        "Charlo",
        -9.13088970194468
      ],
      [
        "round",
        -9.131275609516145
      ],
      [
        "absen",
        -9.134507544609367
      ],
      [
        "thousand",
        -9.137184360921895
      ],
      [
        "girl",
        -9.137521830034656
      ],
      [
        "futur",
        -9.14178333906294
      ],
      [
        "unknow",
        -9.1425973919302
      ],
      [
        "Pe",
        -9.145468986964534
      ],
      [
        "inquir",
        -9.146481276495233
      ],
      [
        "mammal",
        -9.147953435806679
      ],
      [
        "organism",
        -9.14981216213565
      ],
      [
        "earth",
        -9.150654043202618
      ],
      [
        "person",
        -9.153358008069336
      ],
      [
        "categori",
        -9.154462849122947
      ],
      [
        "Pur",
        -9.155573505358706
      ],
      [
        "10",
        -9.155824541239323
      ],
      [
        "Europe",
        -9.157439066208823
      ],
      [
        "classe",
        -9.158294236822442
      ],
      [
        "brother",
        -9.16042785928661
      ],
      [
        "attend",
        -9.161294803120917
      ],
      [
        "variable",
        -9.163881351425998
      ],
      [
        "0",
        -9.16699287325272
      ],
      [
        "convince",
        -9.16933025178898
      ],
      [
        "succeed",
        -9.17243050762349
      ],
      [
        "observation",
        -9.172898572613258
      ],
      [
        "bring",
        -9.174116945718838
      ],
      [
        "stock",
        -9.174119165829051
      ],
      [
        "!”",
        -9.174504407948493
      ],
      [
        "judge",
        -9.175085322693196
      ],
      [
        "directly",
        -9.17682254633072
      ],
      [
        "air",
        -9.182932169801525
      ],
      [
        "interval",
        -9.18448075633076
      ],
      [
        "mountain",
        -9.184507971868946
      ],
      [
        "adies",
        -9.188466276231633
      ],
      [
        "final",
        -9.18871093108417
      ],
      [
        "N",
        -9.18997843764306
      ],
      [
        "affected",
        -9.190036298658104
      ],
      [
        "THE",
        -9.191991697931662
      ],
      [
        "position",
        -9.192012709404965
      ],
      [
        "ection",
        -9.19380968950393
      ],
      [
        "hold",
        -9.194548973596227
      ],
      [
        "morning",
        -9.196687977479701
      ],
      [
        "preserve",
        -9.196947148682636
      ],
      [
        "conduct",
        -9.19710647229327
      ],
      [
        "Prof",
        -9.197294903381923
      ],
      [
        "fish",
        -9.204240906854206
      ],
      [
        "notion",
        -9.206462235131463
      ],
      [
        "expected",
        -9.207309210205048
      ],
      [
        "distant",
        -9.209020435610158
      ],
      [
        "imagination",
        -9.209157906448802
      ],
      [
        "hour",
        -9.213984726948302
      ],
      [
        "four",
        -9.215452194575345
      ],
      [
        "treat",
        -9.216207656948018
      ],
      [
        "ful",
        -9.217536292554062
      ],
      [
        "fresh",
        -9.221334546327554
      ],
      [
        "Transcendent",
        -9.221518406252915
      ],
      [
        "illusion",
        -9.221719289951075
      ],
      [
        "apply",
        -9.2219098249459
      ],
      [
        "ocean",
        -9.222324817854101
      ],
      [
        "whol",
        -9.22415569642646
      ],
      [
        "doctrine",
        -9.224200022243249
      ],
      [
        "accordan",
        -9.226811480139471
      ],
      [
        "special",
        -9.229851146736053
      ],
      [
        "iable",
        -9.230004213140521
      ],
      [
        "construct",
        -9.233657507620874
      ],
      [
        "method",
        -9.233980205433523
      ],
      [
        "gradual",
        -9.234176682494478
      ],
      [
        "essential",
        -9.234310876041134
      ],
      [
        "apprehension",
        -9.234625381716185
      ],
      [
        "soul",
        -9.23594112710559
      ],
      [
        "sensation",
        -9.23757068614285
      ],
      [
        "draw",
        -9.237887904762076
      ],
      [
        "sort",
        -9.24182753931402
      ],
      [
        "reach",
        -9.245188897448823
      ],
      [
        "third",
        -9.247007518656698
      ],
      [
        "addition",
        -9.247042717542868
      ],
      [
        "specific",
        -9.24734374915063
      ],
      [
        "assertion",
        -9.247588619096435
      ],
      [
        "arrive",
        -9.248112122088436
      ],
      [
        "ept",
        -9.249450102190515
      ],
      [
        "occasion",
        -9.251249675796291
      ],
      [
        "leg",
        -9.255645403318246
      ],
      [
        "mark",
        -9.258239105821005
      ],
      [
        "analog",
        -9.258647171630226
      ],
      [
        "help",
        -9.259055437706223
      ],
      [
        "§",
        -9.259984159908011
      ],
      [
        "comparison",
        -9.25999712230857
      ],
      [
        "possesse",
        -9.260319883172777
      ],
      [
        "communit",
        -9.26158272053516
      ],
      [
        "settle",
        -9.263203064128756
      ],
      [
        "formal",
        -9.265667642734186
      ],
      [
        "14",
        -9.268341424276802
      ],
      [
        "raise",
        -9.270020288336546
      ],
      [
        "expose",
        -9.271417744794203
      ],
      [
        "gain",
        -9.272225263974184
      ],
      [
        "destroy",
        -9.27314208348059
      ],
      [
        "spoke",
        -9.273142321874113
      ],
      [
        "definition",
        -9.273256756180434
      ],
      [
        "stand",
        -9.273375481843729
      ],
      [
        "ordinar",
        -9.273439732348592
      ],
      [
        "food",
        -9.273908424380469
      ],
      [
        "Every",
        -9.275776525804266
      ],
      [
        "grow",
        -9.277729050121668
      ],
      [
        "nel",
        -9.277932400317287
      ],
      [
        "basi",
        -9.27796255787501
      ],
      [
        "assert",
        -9.2795024328875
      ],
      [
        "meet",
        -9.28197786573486
      ],
      [
        "conform",
        -9.282079470834477
      ],
      [
        "keep",
        -9.286321924482614
      ],
      [
        "procedure",
        -9.286475388694935
      ],
      [
        "beak",
        -9.287287733791413
      ],
      [
        "evening",
        -9.289001734984277
      ],
      [
        "lay",
        -9.292396236725079
      ],
      [
        "used",
        -9.29630208650562
      ],
      [
        "agree",
        -9.299261630385516
      ],
      [
        "uncle",
        -9.300078910660396
      ],
      [
        "accept",
        -9.30016749757106
      ],
      [
        "afterward",
        -9.300918712110477
      ],
      [
        "South",
        -9.302614471261975
      ],
      [
        "standing",
        -9.30585112440368
      ],
      [
        "sex",
        -9.307029372628834
      ],
      [
        "numero",
        -9.308310263467405
      ],
      [
        "wild",
        -9.313060082375149
      ],
      [
        "link",
        -9.31680980361216
      ],
      [
        "offer",
        -9.319183250699119
      ],
      [
        "discuss",
        -9.327063922819686
      ],
      [
        "Some",
        -9.328885675544225
      ],
      [
        "night",
        -9.329728603692349
      ],
      [
        "hence",
        -9.330006155654107
      ],
      [
        "ideal",
        -9.331001992808615
      ],
      [
        "meaning",
        -9.332782636338894
      ],
      [
        "Colo",
        -9.336593830376039
      ],
      [
        "qualit",
        -9.33694637437143
      ],
      [
        "termed",
        -9.339568754714337
      ],
      [
        "sight",
        -9.339916399018783
      ],
      [
        "Wh",
        -9.34012523288099
      ],
      [
        "sum",
        -9.34060888977837
      ],
      [
        "ap",
        -9.341316302258766
      ],
      [
        "constant",
        -9.341860801225032
      ],
      [
        "15",
        -9.343129335271598
      ],
      [
        "heart",
        -9.34326132187824
      ],
      [
        "put",
        -9.343599407911928
      ],
      [
        "statement",
        -9.343695086521535
      ],
      [
        "distributi",
        -9.344778924087047
      ],
      [
        "deduction",
        -9.345156844348024
      ],
      [
        "care",
        -9.345463861814528
      ],
      [
        "supposition",
        -9.347494803617778
      ],
      [
        "creation",
        -9.35183130261196
      ],
      [
        "lines",
        -9.352308036043318
      ],
      [
        "rise",
        -9.352832733503826
      ],
      [
        "surface",
        -9.355950843455034
      ],
      [
        "Natural",
        -9.355966497304033
      ],
      [
        "transition",
        -9.355998224910946
      ],
      [
        "wonderful",
        -9.35607064915919
      ],
      [
        "New",
        -9.356602043986227
      ],
      [
        "x",
        -9.356698806137226
      ],
      [
        "continuous",
        -9.357437487789465
      ],
      [
        "desire",
        -9.35844580734926
      ],
      [
        "capab",
        -9.359553084480503
      ],
      [
        "ook",
        -9.366782951088455
      ],
      [
        "ether",
        -9.367896386164283
      ],
      [
        "extension",
        -9.37048736068834
      ],
      [
        "migration",
        -9.37049274909386
      ],
      [
        "marry",
        -9.37051771903408
      ],
      [
        "classification",
        -9.370651795176643
      ],
      [
        "upper",
        -9.370777476383301
      ],
      [
        "join",
        -9.37083853355161
      ],
      [
        "hypothesi",
        -9.371856507543917
      ],
      [
        "powers",
        -9.373116588255716
      ],
      [
        "ility",
        -9.380333712770607
      ],
      [
        "arriage",
        -9.383721319066762
      ],
      [
        "onsequent",
        -9.38373117829611
      ],
      [
        "worth",
        -9.383758462194288
      ],
      [
        "J",
        -9.38437096209535
      ],
      [
        "im",
        -9.384707912723481
      ],
      [
        "oblige",
        -9.385145280248434
      ],
      [
        "honour",
        -9.385505387422537
      ],
      [
        "affection",
        -9.38555730584846
      ],
      [
        "woman",
        -9.385709745277572
      ],
      [
        "tter",
        -9.386515369670448
      ],
      [
        "fear",
        -9.393780063742557
      ],
      [
        "imperfect",
        -9.394267086140033
      ],
      [
        "unti",
        -9.39451060386195
      ],
      [
        "resemble",
        -9.395340789368639
      ],
      [
        "include",
        -9.397223929955008
      ],
      [
        "cells",
        -9.397360530066194
      ],
      [
        "famili",
        -9.398346863831017
      ],
      [
        "contingent",
        -9.400070960443863
      ],
      [
        "28",
        -9.400959286556374
      ],
      [
        "occupie",
        -9.401468040527664
      ],
      [
        "disappear",
        -9.40308491062386
      ],
      [
        "supreme",
        -9.40657732456799
      ],
      [
        "safe",
        -9.408003421567859
      ],
      [
        "upreme",
        -9.408663137480222
      ],
      [
        "busi",
        -9.410652645411332
      ],
      [
        "begin",
        -9.41246794050095
      ],
      [
        "solution",
        -9.413775927754255
      ],
      [
        "ship",
        -9.414302957969527
      ],
      [
        "perfection",
        -9.414472284837462
      ],
      [
        "service",
        -9.415240619239327
      ],
      [
        "Suc",
        -9.415554843865564
      ],
      [
        "bound",
        -9.424464451685719
      ],
      [
        "De",
        -9.425776587391258
      ],
      [
        "correct",
        -9.42790967376863
      ],
      [
        "preced",
        -9.428111967263494
      ],
      [
        "thos",
        -9.430138071776362
      ],
      [
        "claim",
        -9.430461316229948
      ],
      [
        "transport",
        -9.430607784893638
      ],
      [
        "conversation",
        -9.43064354789621
      ],
      [
        "record",
        -9.430688766609553
      ],
      [
        "master",
        -9.430803177768478
      ],
      [
        "arrangement",
        -9.43084459668356
      ],
      [
        "ent",
        -9.431026995628677
      ],
      [
        "knew",
        -9.431435713890531
      ],
      [
        "earlie",
        -9.431680628543592
      ],
      [
        "mathematics",
        -9.431941636101474
      ],
      [
        "created",
        -9.432711764256137
      ],
      [
        "histor",
        -9.433039967773938
      ],
      [
        "35",
        -9.438605021285417
      ],
      [
        "marke",
        -9.43949056095883
      ],
      [
        "rate",
        -9.444778068407283
      ],
      [
        "problem",
        -9.446221417635083
      ],
      [
        "Australia",
        -9.446231786724745
      ],
      [
        "extraordinar",
        -9.446232996798496
      ],
      [
        "obtain",
        -9.446264032091133
      ],
      [
        "mathematical",
        -9.446320894429347
      ],
      [
        "Let",
        -9.44642331033733
      ],
      [
        "acquaintance",
        -9.446439961333683
      ],
      [
        "ability",
        -9.44651923469949
      ],
      [
        "scarce",
        -9.446733556207013
      ],
      [
        "distance",
        -9.44710323585079
      ],
      [
        "pposition",
        -9.447208275330219
      ],
      [
        "satisfie",
        -9.44849049962514
      ],
      [
        "reader",
        -9.448604798530601
      ],
      [
        "relative",
        -9.45063485127652
      ],
      [
        "infer",
        -9.451629487443705
      ],
      [
        "Mer",
        -9.451693939504938
      ],
      [
        "correspond",
        -9.454126194097269
      ],
      [
        "behav",
        -9.45486260278822
      ],
      [
        "ble",
        -9.45553466122417
      ],
      [
        "An",
        -9.456738681217145
      ],
      [
        "face",
        -9.458189059453236
      ],
      [
        "mile",
        -9.459869116541233
      ],
      [
        "deposit",
        -9.46149350152466
      ],
      [
        "identical",
        -9.46210766110207
      ],
      [
        "spirit",
        -9.462133683384781
      ],
      [
        "pre",
        -9.462341090872515
      ],
      [
        "beg",
        -9.470988469248084
      ],
      [
        "eath",
        -9.474234345881184
      ],
      [
        "plan",
        -9.474299224263852
      ],
      [
        "assured",
        -9.475136219699081
      ],
      [
        "remote",
        -9.478234322565406
      ],
      [
        "people",
        -9.478261982731798
      ],
      [
        "cousin",
        -9.478333432243822
      ],
      [
        "careful",
        -9.478539979044616
      ],
      [
        "construction",
        -9.478898644319436
      ],
      [
        "Ki",
        -9.48032218980085
      ],
      [
        "sake",
        -9.487890842921512
      ],
      [
        "undergo",
        -9.48836600538695
      ],
      [
        "After",
        -9.4926867717026
      ],
      [
        "beautiful",
        -9.494627991526805
      ],
      [
        "Georg",
        -9.494647521983495
      ],
      [
        "marrie",
        -9.494657047241123
      ],
      [
        "analogous",
        -9.495269052833894
      ],
      [
        "Being",
        -9.49535269751435
      ],
      [
        "remember",
        -9.49568356618325
      ],
      [
        "yield",
        -9.496718888678442
      ],
      [
        "stay",
        -9.499150415443683
      ],
      [
        "fine",
        -9.503474593094984
      ],
      [
        "Al",
        -9.50352094833353
      ],
      [
        "schema",
        -9.503676834884178
      ],
      [
        "sexual",
        -9.507454628065688
      ],
      [
        "K",
        -9.511261747779542
      ],
      [
        "serious",
        -9.511627560850885
      ],
      [
        "delight",
        -9.511638378268195
      ],
      [
        "shape",
        -9.512149402449289
      ],
      [
        "analytical",
        -9.51267853461072
      ],
      [
        "dog",
        -9.513450130691883
      ],
      [
        "cold",
        -9.516706713683362
      ],
      [
        "learn",
        -9.517217439117932
      ],
      [
        "varie",
        -9.518083994742291
      ],
      [
        "experiment",
        -9.518889694384603
      ],
      [
        "stripe",
        -9.523795402808592
      ],
      [
        "exception",
        -9.525058002581648
      ],
      [
        "metaphysics",
        -9.52574294806448
      ],
      [
        "previous",
        -9.528243124241467
      ],
      [
        "striking",
        -9.528243425434471
      ],
      [
        "negative",
        -9.528247088314838
      ],
      [
        "ure",
        -9.529922240337772
      ],
      [
        "God",
        -9.530395498209462
      ],
      [
        "elve",
        -9.530621018482847
      ],
      [
        "surprise",
        -9.53121263752876
      ],
      [
        "examin",
        -9.531768401957454
      ],
      [
        "abstract",
        -9.532270051805979
      ],
      [
        "cease",
        -9.538316697796734
      ],
      [
        "Ne",
        -9.539157807488715
      ],
      [
        "conscious",
        -9.544078293616057
      ],
      [
        "arriv",
        -9.544869942635408
      ],
      [
        "determinate",
        -9.545356436410426
      ],
      [
        "wonder",
        -9.545372703488809
      ],
      [
        "senses",
        -9.545409324322055
      ],
      [
        "Chapter",
        -9.545484945740725
      ],
      [
        "tail",
        -9.545579634082676
      ],
      [
        "disposition",
        -9.54567884039334
      ],
      [
        "cial",
        -9.545725310765715
      ],
      [
        "reciprocal",
        -9.545914136055314
      ],
      [
        "demonstrate",
        -9.546388509308068
      ],
      [
        "throw",
        -9.546401392093724
      ],
      [
        "fail",
        -9.546590832355326
      ],
      [
        "produc",
        -9.548803204746074
      ],
      [
        "seek",
        -9.550504412897201
      ],
      [
        "seri",
        -9.552005282824686
      ],
      [
        "bodie",
        -9.553993586430835
      ],
      [
        "Lon",
        -9.553998084167398
      ],
      [
        "adde",
        -9.557039663599124
      ],
      [
        "regulati",
        -9.557671579662081
      ],
      [
        "considerabl",
        -9.56067172384854
      ],
      [
        "Will",
        -9.561521738315765
      ],
      [
        "check",
        -9.563075730075697
      ],
      [
        "growth",
        -9.564399262589085
      ],
      [
        "avoid",
        -9.564408184335452
      ],
      [
        "past",
        -9.564509892777089
      ],
      [
        "per",
        -9.566195567775349
      ],
      [
        "define",
        -9.569472051471255
      ],
      [
        "fishe",
        -9.57006449677969
      ],
      [
        "imagine",
        -9.571294380875099
      ],
      [
        "occurre",
        -9.580238834728094
      ],
      [
        "husband",
        -9.580887470635695
      ],
      [
        "blind",
        -9.580900452486198
      ],
      [
        "beaut",
        -9.581061571121438
      ],
      [
        "lie",
        -9.581789140724815
      ],
      [
        "severe",
        -9.582109879237748
      ],
      [
        "vain",
        -9.582974301237808
      ],
      [
        "path",
        -9.588473494886578
      ],
      [
        "passe",
        -9.588599208365675
      ],
      [
        "fossil",
        -9.589105650562669
      ],
      [
        "try",
        -9.592212824799219
      ],
      [
        "attle",
        -9.594046646000523
      ],
      [
        "ur",
        -9.596409143755965
      ],
      [
        "labour",
        -9.598109410139235
      ],
      [
        "U",
        -9.598704090714122
      ],
      [
        "reference",
        -9.598891462116613
      ],
      [
        "criticism",
        -9.599184705100614
      ],
      [
        "requisite",
        -9.599261014985917
      ],
      [
        "uniform",
        -9.599437536408738
      ],
      [
        "mberle",
        -9.59945385685415
      ],
      [
        "reflection",
        -9.599507059270113
      ],
      [
        "subsequent",
        -9.599638328689245
      ],
      [
        "dialectical",
        -9.60060661560686
      ],
      [
        "essor",
        -9.602358110301921
      ],
      [
        "smile",
        -9.60364502346433
      ],
      [
        "declare",
        -9.604825466877582
      ],
      [
        "owing",
        -9.605994543124877
      ],
      [
        "intellectual",
        -9.606116219612737
      ],
      [
        "divide",
        -9.606802873908201
      ],
      [
        "giv",
        -9.606846988800672
      ],
      [
        "introduce",
        -9.607880352928113
      ],
      [
        "affect",
        -9.608012168477805
      ],
      [
        "notice",
        -9.611572887673814
      ],
      [
        "subordinate",
        -9.61171102370039
      ],
      [
        "town",
        -9.615324106227169
      ],
      [
        "spread",
        -9.617312419567899
      ],
      [
        "V",
        -9.617473705421977
      ],
      [
        "child",
        -9.61758646733606
      ],
      [
        "adult",
        -9.617587032772896
      ],
      [
        "34",
        -9.617594977444936
      ],
      [
        "lady",
        -9.617698337144416
      ],
      [
        "cosmological",
        -9.618181928496568
      ],
      [
        "poor",
        -9.618499527357255
      ],
      [
        "fixed",
        -9.622230391912401
      ],
      [
        "engage",
        -9.623056051474743
      ],
      [
        "originate",
        -9.62872004823095
      ],
      [
        "ology",
        -9.62970777848627
      ],
      [
        "six",
        -9.630221864833022
      ],
      [
        "dom",
        -9.630470059999709
      ],
      [
        "proportion",
        -9.631996873929543
      ],
      [
        "pain",
        -9.63460404677264
      ],
      [
        "manifest",
        -9.6359624632026
      ],
      [
        "comprehend",
        -9.63645373474043
      ],
      [
        "fundamental",
        -9.636453784203642
      ],
      [
        "adequate",
        -9.63652443674558
      ],
      [
        "jaw",
        -9.636527533229035
      ],
      [
        "characteristic",
        -9.63659525954137
      ],
      [
        "demand",
        -9.63670853905072
      ],
      [
        "dogmatical",
        -9.637118627972395
      ],
      [
        "carriage",
        -9.638290146046305
      ],
      [
        "suppos",
        -9.638636633932872
      ],
      [
        "please",
        -9.639309598064296
      ],
      [
        "afford",
        -9.639583760041525
      ],
      [
        "itz",
        -9.639597024614195
      ],
      [
        "ell",
        -9.639898373098191
      ],
      [
        "Nor",
        -9.640016926562696
      ],
      [
        "repeated",
        -9.640221704492479
      ],
      [
        "cell",
        -9.64026783824402
      ],
      [
        "trial",
        -9.640588115482725
      ],
      [
        "Unit",
        -9.641692064113968
      ],
      [
        "continual",
        -9.642051054514129
      ],
      [
        "weight",
        -9.64426729473999
      ],
      [
        "judg",
        -9.644514326260975
      ],
      [
        "contradictor",
        -9.649858807961099
      ],
      [
        "ism",
        -9.652848436514983
      ],
      [
        "diversit",
        -9.653779545535214
      ],
      [
        "thorough",
        -9.65568904818538
      ],
      [
        "acknowledge",
        -9.657040487498437
      ],
      [
        "excellent",
        -9.657285921416621
      ],
      [
        "Your",
        -9.657467368375436
      ],
      [
        "slave",
        -9.658459050503021
      ],
      [
        "definite",
        -9.659023323028508
      ],
      [
        "agreeabl",
        -9.661513651924167
      ],
      [
        "led",
        -9.662635582524587
      ],
      [
        "civilit",
        -9.662739102105451
      ],
      [
        "design",
        -9.66284028240721
      ],
      [
        "cap",
        -9.665649873230063
      ],
      [
        "table",
        -9.66678841496563
      ],
      [
        "retain",
        -9.667249454900789
      ],
      [
        "astonish",
        -9.668582016090694
      ],
      [
        "Se",
        -9.671997871895321
      ],
      [
        "fair",
        -9.673461443137727
      ],
      [
        "fruit",
        -9.675208000795674
      ],
      [
        "destructi",
        -9.675292366093363
      ],
      [
        "simultaneous",
        -9.675301871032284
      ],
      [
        "pride",
        -9.675335429713355
      ],
      [
        "secure",
        -9.675441065469872
      ],
      [
        "district",
        -9.67546056986439
      ],
      [
        "born",
        -9.675908530263195
      ],
      [
        "Brit",
        -9.676022705704519
      ],
      [
        "larv",
        -9.676290067062808
      ],
      [
        "describe",
        -9.677326730664634
      ],
      [
        "presen",
        -9.67828636277566
      ],
      [
        "book",
        -9.678442701494113
      ],
      [
        "limitation",
        -9.67860993530926
      ],
      [
        "smalle",
        -9.6792395844565
      ],
      [
        "reduce",
        -9.682493013964713
      ],
      [
        "direction",
        -9.682857696550148
      ],
      [
        "dance",
        -9.684987672806542
      ],
      [
        "II",
        -9.686243556929416
      ],
      [
        "oppose",
        -9.686517797124347
      ],
      [
        "que",
        -9.687938195390775
      ],
      [
        "dispute",
        -9.689088694027227
      ],
      [
        "isuse",
        -9.690501737579579
      ],
      [
        "prey",
        -9.690880266449566
      ],
      [
        "dut",
        -9.693759539599135
      ],
      [
        "rising",
        -9.693775730870131
      ],
      [
        "30",
        -9.69394107183084
      ],
      [
        "25",
        -9.69450960178346
      ],
      [
        "strange",
        -9.695001688812726
      ],
      [
        "figure",
        -9.695292402187436
      ],
      [
        "wif",
        -9.69572410081578
      ],
      [
        "intelligence",
        -9.695774918855488
      ],
      [
        "38",
        -9.696323672486297
      ],
      [
        "forward",
        -9.696520792397784
      ],
      [
        "possession",
        -9.697267403680906
      ],
      [
        "Ros",
        -9.69732030728279
      ],
      [
        "commence",
        -9.703584598910934
      ],
      [
        "friends",
        -9.704129541576012
      ],
      [
        "main",
        -9.704618741765591
      ],
      [
        "16",
        -9.707550170776182
      ],
      [
        "remove",
        -9.70919059172183
      ],
      [
        "door",
        -9.714223542725783
      ],
      [
        "fill",
        -9.714556104950137
      ],
      [
        "mutual",
        -9.715700519608596
      ],
      [
        "contingenc",
        -9.715716357771015
      ],
      [
        "instant",
        -9.715718350411201
      ],
      [
        "conviction",
        -9.71573343432842
      ],
      [
        "curious",
        -9.715799582847447
      ],
      [
        "operation",
        -9.715810686598854
      ],
      [
        "week",
        -9.715914631226669
      ],
      [
        "suffer",
        -9.716091898365109
      ],
      [
        "Engl",
        -9.71657875632002
      ],
      [
        "inter",
        -9.719477836426776
      ],
      [
        "accord",
        -9.71979419296979
      ],
      [
        "North",
        -9.721177230396792
      ],
      [
        "product",
        -9.721547352453783
      ],
      [
        "persuade",
        -9.722483357365347
      ],
      [
        "deserve",
        -9.722981641012485
      ],
      [
        "assure",
        -9.723812912726023
      ],
      [
        "ago",
        -9.727256184088581
      ],
      [
        "motive",
        -9.731425063029533
      ],
      [
        "guid",
        -9.731439349786555
      ],
      [
        "con",
        -9.732125863320402
      ],
      [
        "type",
        -9.733199857884017
      ],
      [
        "ality",
        -9.734344947372662
      ],
      [
        "fortune",
        -9.736531950841703
      ],
      [
        "standard",
        -9.736541334481618
      ],
      [
        "inference",
        -9.736931646647646
      ],
      [
        "conjunctio",
        -9.737059402501973
      ],
      [
        "analysis",
        -9.737744215765744
      ],
      [
        "gentleman",
        -9.739514659245442
      ],
      [
        "includ",
        -9.740563286996888
      ],
      [
        "fic",
        -9.741728411850103
      ],
      [
        "useless",
        -9.742484000037665
      ],
      [
        "quick",
        -9.748807476329173
      ],
      [
        "alter",
        -9.754280797671052
      ],
      [
        "deal",
        -9.756300868597709
      ],
      [
        "void",
        -9.756371990635353
      ],
      [
        "attack",
        -9.757813819250664
      ],
      [
        "quarter",
        -9.757819894349513
      ],
      [
        "month",
        -9.758379355093059
      ],
      [
        "doubtful",
        -9.759056237161897
      ],
      [
        "univers",
        -9.760448942992095
      ],
      [
        "partial",
        -9.761131996769752
      ],
      [
        "lapse",
        -9.763370003000988
      ],
      [
        "chang",
        -9.765459234477898
      ],
      [
        "branche",
        -9.767703806125741
      ],
      [
        "particularly",
        -9.774138517124602
      ],
      [
        "sel",
        -9.7755279977845
      ],
      [
        "Gla",
        -9.775744322994047
      ],
      [
        "oge",
        -9.775867797879764
      ],
      [
        "surprised",
        -9.776420426164579
      ],
      [
        "hundred",
        -9.778187842780847
      ],
      [
        "promise",
        -9.779077300022438
      ],
      [
        "publish",
        -9.779549569682482
      ],
      [
        "broke",
        -9.779549665077916
      ],
      [
        "surround",
        -9.779558447975576
      ],
      [
        "parallel",
        -9.779572632097187
      ],
      [
        "wax",
        -9.779622260206216
      ],
      [
        "mouth",
        -9.779703701671947
      ],
      [
        "trust",
        -9.78028272816848
      ],
      [
        "discussion",
        -9.780369709675174
      ],
      [
        "criterion",
        -9.780844125485324
      ],
      [
        "wished",
        -9.781825496786542
      ],
      [
        "test",
        -9.783105420955696
      ],
      [
        "precede",
        -9.783158724407993
      ],
      [
        "convert",
        -9.783577073869228
      ],
      [
        "run",
        -9.786246151536352
      ],
      [
        "red",
        -9.786582874043546
      ],
      [
        "handsome",
        -9.787496654706167
      ],
      [
        "fro",
        -9.78831214915616
      ],
      [
        "provide",
        -9.789124335684557
      ],
      [
        "terre",
        -9.790204835096635
      ],
      [
        "marine",
        -9.795812496260208
      ],
      [
        "ball",
        -9.796147888927084
      ],
      [
        "abstracti",
        -9.796511452847824
      ],
      [
        "reproducti",
        -9.797284293357343
      ],
      [
        "drawing",
        -9.797366409871332
      ],
      [
        "37",
        -9.799840511985034
      ],
      [
        "ultimate",
        -9.801771791871543
      ],
      [
        "exhibit",
        -9.801771792192772
      ],
      [
        "major",
        -9.801771933754397
      ],
      [
        "extensive",
        -9.801984746585557
      ],
      [
        "scale",
        -9.802628194469644
      ],
      [
        "accidental",
        -9.805108159050278
      ],
      [
        "forego",
        -9.805276596699432
      ],
      [
        "ial",
        -9.806567011983923
      ],
      [
        "sensibl",
        -9.807336323098212
      ],
      [
        "graduate",
        -9.80913904773174
      ],
      [
        "rich",
        -9.811045899547317
      ],
      [
        "numer",
        -9.812466425883757
      ],
      [
        "critic",
        -9.818306238628878
      ],
      [
        "examine",
        -9.819785086099749
      ],
      [
        "increas",
        -9.822840454764115
      ],
      [
        "affirm",
        -9.824207201703617
      ],
      [
        "According",
        -9.824499064609446
      ],
      [
        "carry",
        -9.824522144779463
      ],
      [
        "rapid",
        -9.824620727827913
      ],
      [
        "situation",
        -9.824666450244761
      ],
      [
        "189",
        -9.824677711053425
      ],
      [
        "supplant",
        -9.824774559390898
      ],
      [
        "dynamical",
        -9.824810977315154
      ],
      [
        "isolate",
        -9.824950922070592
      ],
      [
        "undoubted",
        -9.825019596325149
      ],
      [
        "26",
        -9.829160593277832
      ],
      [
        "danger",
        -9.829509689931228
      ],
      [
        "expresse",
        -9.832131747040027
      ],
      [
        "warm",
        -9.833581273478307
      ],
      [
        "approach",
        -9.836000476468087
      ],
      [
        "stigma",
        -9.841231666153998
      ],
      [
        "carrie",
        -9.844216164497876
      ],
      [
        "motion",
        -9.846869459152368
      ],
      [
        "aking",
        -9.84732466948798
      ],
      [
        "acquaint",
        -9.847443925042827
      ],
      [
        "birth",
        -9.847755876456038
      ],
      [
        "southern",
        -9.847800838929805
      ],
      [
        "geographical",
        -9.847804241663681
      ],
      [
        "maxim",
        -9.847922554877606
      ],
      [
        "dominan",
        -9.848202810514472
      ],
      [
        "Their",
        -9.84885688748939
      ],
      [
        "horn",
        -9.849638229083384
      ],
      [
        "satisfaction",
        -9.850441377817457
      ],
      [
        "terti",
        -9.850474321385208
      ],
      [
        "competit",
        -9.851767881384086
      ],
      [
        "hair",
        -9.853153726324223
      ],
      [
        "ages",
        -9.854419872510391
      ],
      [
        "stands",
        -9.854710737365885
      ],
      [
        "domesticat",
        -9.854936214043592
      ],
      [
        "select",
        -9.85770346103191
      ],
      [
        "Un",
        -9.857942449931317
      ],
      [
        "reject",
        -9.862592409926531
      ],
      [
        "authorit",
        -9.866101862471128
      ],
      [
        "minute",
        -9.86713973501109
      ],
      [
        "readi",
        -9.86817686489742
      ],
      [
        "escape",
        -9.86878292879232
      ],
      [
        "longe",
        -9.868858321861065
      ],
      [
        "mental",
        -9.86912070513183
      ],
      [
        "reflect",
        -9.871043661071553
      ],
      [
        "mongrel",
        -9.871564408005195
      ],
      [
        "State",
        -9.871581171524912
      ],
      [
        "positive",
        -9.871649404450167
      ],
      [
        "Not",
        -9.871849765290198
      ],
      [
        "deny",
        -9.872114512057045
      ],
      [
        "Do",
        -9.87217675075406
      ],
      [
        "intercross",
        -9.872184304530919
      ],
      [
        "study",
        -9.872393771837373
      ],
      [
        "agenc",
        -9.872453051897685
      ],
      [
        "vast",
        -9.872520246417066
      ],
      [
        "glad",
        -9.872785668217496
      ],
      [
        "24",
        -9.87281672733274
      ],
      [
        "feather",
        -9.873076227945676
      ],
      [
        "deep",
        -9.873622689031983
      ],
      [
        "arbitrar",
        -9.874259138878028
      ],
      [
        "insist",
        -9.875013191463042
      ],
      [
        "ruck",
        -9.87658723977183
      ],
      [
        "beside",
        -9.879319264026808
      ],
      [
        "hind",
        -9.881947795833897
      ],
      [
        "Ze",
        -9.882040672875497
      ],
      [
        "gon",
        -9.882618672890962
      ],
      [
        "AL",
        -9.882981540111324
      ],
      [
        "deduced",
        -9.883511187700579
      ],
      [
        "pursue",
        -9.88917537387131
      ],
      [
        "success",
        -9.89086472915987
      ],
      [
        "loss",
        -9.891309493487707
      ],
      [
        "composit",
        -9.892495958065902
      ],
      [
        "ends",
        -9.89302711363398
      ],
      [
        "listen",
        -9.893266927033089
      ],
      [
        "ü",
        -9.895954646261522
      ],
      [
        "ä",
        -9.895954646261526
      ],
      [
        "suspect",
        -9.895954655261214
      ],
      [
        "compliment",
        -9.896001049514867
      ],
      [
        "profit",
        -9.896027250755544
      ],
      [
        "superior",
        -9.896119471694929
      ],
      [
        "demonstration",
        -9.896247787724821
      ],
      [
        "temperat",
        -9.896283938883425
      ],
      [
        "level",
        -9.896402544042306
      ],
      [
        "eager",
        -9.896697561706038
      ],
      [
        "officer",
        -9.896716987848473
      ],
      [
        "obvious",
        -9.89679218912176
      ],
      [
        "resist",
        -9.897210894993123
      ],
      [
        "glaci",
        -9.89725712499816
      ],
      [
        "older",
        -9.89813246757108
      ],
      [
        "pleas",
        -9.901011204855802
      ],
      [
        "11",
        -9.901950253543136
      ],
      [
        "aught",
        -9.908104757831541
      ],
      [
        "receiv",
        -9.911303701059015
      ],
      [
        "preservati",
        -9.91333358337154
      ],
      [
        "admir",
        -9.913634963466386
      ],
      [
        "accumulate",
        -9.915813741239049
      ],
      [
        "diversifi",
        -9.918809330302565
      ],
      [
        "limb",
        -9.919516449079865
      ],
      [
        "certaint",
        -9.920742080050143
      ],
      [
        "syllogism",
        -9.920943305192392
      ],
      [
        "eminent",
        -9.92096291865374
      ],
      [
        "exclusive",
        -9.921002455684922
      ],
      [
        "Even",
        -9.921072829143723
      ],
      [
        "noumen",
        -9.921182348136945
      ],
      [
        "perform",
        -9.921197946102588
      ],
      [
        "Forster",
        -9.92123665558849
      ],
      [
        "detail",
        -9.921329146989123
      ],
      [
        "gram",
        -9.921379761399962
      ],
      [
        "Well",
        -9.921755824643267
      ],
      [
        "hither",
        -9.921794212155948
      ],
      [
        "imply",
        -9.92204446045395
      ],
      [
        "adaptation",
        -9.922293721654889
      ],
      [
        "pretend",
        -9.922306924554043
      ],
      [
        "highl",
        -9.923886978865703
      ],
      [
        "duck",
        -9.924300591943705
      ],
      [
        "correlate",
        -9.925556624413462
      ],
      [
        "bone",
        -9.925883517358724
      ],
      [
        "branch",
        -9.926557381255353
      ],
      [
        "comfort",
        -9.927997027916163
      ],
      [
        "write",
        -9.930235687284885
      ],
      [
        "Ver",
        -9.933931749499394
      ],
      [
        "Ou",
        -9.935340073071195
      ],
      [
        "inferr",
        -9.937934893815974
      ],
      [
        "states",
        -9.941131230627306
      ],
      [
        "mass",
        -9.942301486951093
      ],
      [
        "Speci",
        -9.94531960473213
      ],
      [
        "opportunit",
        -9.946595672328316
      ],
      [
        "abrupt",
        -9.946595704865484
      ],
      [
        "inevitabl",
        -9.946608607653648
      ],
      [
        "average",
        -9.946609039077552
      ],
      [
        "spontaneous",
        -9.946796039030879
      ],
      [
        "indispensabl",
        -9.946847181150432
      ],
      [
        "crustacean",
        -9.946935999761285
      ],
      [
        "Ha",
        -9.947370148332974
      ],
      [
        "Here",
        -9.947442622652671
      ],
      [
        "wishe",
        -9.949048499669223
      ],
      [
        "les",
        -9.949305651175301
      ],
      [
        "eight",
        -9.951029555561437
      ],
      [
        "observ",
        -9.953449615703025
      ],
      [
        "trifl",
        -9.955883167873525
      ],
      [
        "erous",
        -9.958386181095706
      ],
      [
        "ade",
        -9.958741832689963
      ],
      [
        "speculation",
        -9.962893686214333
      ],
      [
        "tru",
        -9.966471320852145
      ],
      [
        "naturalis",
        -9.967490654443917
      ],
      [
        "chose",
        -9.96851213376727
      ],
      [
        "27",
        -9.968567977413414
      ],
      [
        "ated",
        -9.969076721310106
      ],
      [
        "conceive",
        -9.970862618916728
      ],
      [
        "continue",
        -9.971347637553677
      ],
      [
        "etc",
        -9.97231798033839
      ],
      [
        "Conception",
        -9.972911462913853
      ],
      [
        "straight",
        -9.972911501705678
      ],
      [
        "satisfactor",
        -9.97291152456092
      ],
      [
        "enormous",
        -9.972919077289212
      ],
      [
        "conceal",
        -9.972932230972088
      ],
      [
        "language",
        -9.972958903035277
      ],
      [
        "cuckoo",
        -9.972968288060759
      ],
      [
        "homologous",
        -9.973046901887518
      ],
      [
        "movement",
        -9.973152323932167
      ],
      [
        "expectation",
        -9.974084186968248
      ],
      [
        "trouble",
        -9.974159332680104
      ],
      [
        "grant",
        -9.974488529043155
      ],
      [
        "task",
        -9.974896466921233
      ],
      [
        "fords",
        -9.975322311875082
      ],
      [
        "Never",
        -9.97696484904192
      ],
      [
        "thank",
        -9.977907397425973
      ],
      [
        "later",
        -9.978368168571485
      ],
      [
        "propose",
        -9.979720990676327
      ],
      [
        "European",
        -9.980183166185387
      ],
      [
        "39",
        -9.980815593052421
      ],
      [
        "union",
        -9.98114377620719
      ],
      [
        "north",
        -9.98660981838127
      ],
      [
        "cave",
        -9.994564706868104
      ],
      [
        "antinom",
        -9.997787193416043
      ],
      [
        "deceive",
        -9.998565021781737
      ],
      [
        "pair",
        -9.998963184154979
      ],
      [
        "Principle",
        -9.999938489161462
      ],
      [
        "multitude",
        -9.99993849440405
      ],
      [
        "silence",
        -9.99994339061894
      ],
      [
        "stamen",
        -10.00002317672439
      ],
      [
        "trace",
        -10.000245043621302
      ],
      [
        "display",
        -10.000279189655547
      ],
      [
        "sediment",
        -10.000764879729065
      ],
      [
        "improvement",
        -10.001065611192155
      ],
      [
        "More",
        -10.001716431543187
      ],
      [
        "compell",
        -10.002681977530495
      ],
      [
        "build",
        -10.003006286523267
      ],
      [
        "inclination",
        -10.003153125016244
      ],
      [
        "dinner",
        -10.004615872107372
      ],
      [
        "minutes",
        -10.004997168177688
      ],
      [
        "transmitt",
        -10.00568508857487
      ],
      [
        "20",
        -10.007538073667392
      ],
      [
        "ut",
        -10.009107150360947
      ],
      [
        "compositio",
        -10.015972459038
      ],
      [
        "admire",
        -10.016291705726756
      ],
      [
        "invariabl",
        -10.02066180199602
      ],
      [
        "17",
        -10.021159511545786
      ],
      [
        "ease",
        -10.0214140970077
      ],
      [
        "probabilit",
        -10.025502324472233
      ],
      [
        "intuite",
        -10.025587361343762
      ],
      [
        "rtner",
        -10.027706724323801
      ],
      [
        "Africa",
        -10.027716625798943
      ],
      [
        "Philips",
        -10.027716841718577
      ],
      [
        "pretension",
        -10.027718706806947
      ],
      [
        "graft",
        -10.027788646400335
      ],
      [
        "humour",
        -10.02789160140794
      ],
      [
        "furnishe",
        -10.02789584709124
      ],
      [
        "firm",
        -10.028047618544331
      ],
      [
        "rew",
        -10.028221105113262
      ],
      [
        "36",
        -10.028952135025245
      ],
      [
        "involve",
        -10.031537674456944
      ],
      [
        "arrange",
        -10.032017507899615
      ],
      [
        "assign",
        -10.032900096252611
      ],
      [
        "ver",
        -10.033247098852595
      ],
      [
        "Mar",
        -10.03594589274833
      ],
      [
        "chain",
        -10.036148217091114
      ],
      [
        "peculiarit",
        -10.036204172110873
      ],
      [
        "wood",
        -10.036712501999617
      ],
      [
        "attache",
        -10.038340807296406
      ],
      [
        "skin",
        -10.038735692948839
      ],
      [
        "knowing",
        -10.040425060519535
      ],
      [
        "admirabl",
        -10.042367206631592
      ],
      [
        "mature",
        -10.043246449593818
      ],
      [
        "hive",
        -10.043254101358983
      ],
      [
        "exterminate",
        -10.044977814615077
      ],
      [
        "dependent",
        -10.047135016449435
      ],
      [
        "infinit",
        -10.04724863380993
      ],
      [
        "psycholog",
        -10.052014332260285
      ],
      [
        "benefic",
        -10.052240941349648
      ],
      [
        "wait",
        -10.052940242042881
      ],
      [
        "fitte",
        -10.053712810834112
      ],
      [
        "tic",
        -10.05441795268286
      ],
      [
        "search",
        -10.056177523916046
      ],
      [
        "prevail",
        -10.056287697060572
      ],
      [
        "voice",
        -10.056288508603824
      ],
      [
        "injurious",
        -10.056298800064711
      ],
      [
        "invitation",
        -10.05634568605361
      ],
      [
        "quadruped",
        -10.056445587179807
      ],
      [
        "shore",
        -10.056497511220472
      ],
      [
        "spite",
        -10.058139460670747
      ],
      [
        "passage",
        -10.058746796280506
      ],
      [
        "address",
        -10.059467300931365
      ],
      [
        "sorr",
        -10.060386375895256
      ],
      [
        "distress",
        -10.06039807658261
      ],
      [
        "measure",
        -10.061841020711935
      ],
      [
        "proceeding",
        -10.063723431436378
      ],
      [
        "societ",
        -10.06430641664575
      ],
      [
        "forget",
        -10.071902018941323
      ],
      [
        "intention",
        -10.0720639482617
      ],
      [
        "guide",
        -10.072265826923854
      ],
      [
        "decided",
        -10.072409141413084
      ],
      [
        "angle",
        -10.073498067549666
      ],
      [
        "foot",
        -10.07511158678722
      ],
      [
        "meant",
        -10.075484328445135
      ],
      [
        "confess",
        -10.075860705464551
      ],
      [
        "itted",
        -10.079106971014696
      ],
      [
        "transcendent",
        -10.082859911347064
      ],
      [
        "writ",
        -10.083547725370511
      ],
      [
        "doubted",
        -10.085064624468773
      ],
      [
        "native",
        -10.085245891472729
      ],
      [
        "Archipelago",
        -10.08569945947507
      ],
      [
        "countenance",
        -10.085699693790065
      ],
      [
        "pistil",
        -10.08570091428595
      ],
      [
        "Hurst",
        -10.085702365469603
      ],
      [
        "piece",
        -10.085708094492947
      ],
      [
        "signification",
        -10.08571225229035
      ],
      [
        "sceptic",
        -10.085719835320537
      ],
      [
        "neighbourhood",
        -10.085725758638478
      ],
      [
        "entitle",
        -10.085883091811752
      ],
      [
        "accumulation",
        -10.085992778266636
      ],
      [
        "spot",
        -10.086053968272415
      ],
      [
        "fancy",
        -10.086194672884648
      ],
      [
        "homogene",
        -10.086564029296271
      ],
      [
        "unconscious",
        -10.08677995709494
      ],
      [
        "cosmic",
        -10.087002570088082
      ],
      [
        "pleasant",
        -10.087268585292856
      ],
      [
        "exceeding",
        -10.087497117255943
      ],
      [
        "identit",
        -10.08815576354569
      ],
      [
        "confiden",
        -10.088446050152182
      ],
      [
        "enlarge",
        -10.089440467114102
      ],
      [
        "flight",
        -10.093855029471547
      ],
      [
        "fertilised",
        -10.096476888269395
      ],
      [
        "annihilate",
        -10.09688811659099
      ],
      [
        "inform",
        -10.099444820252396
      ],
      [
        "29",
        -10.099637389550526
      ],
      [
        "Th",
        -10.100149718139594
      ],
      [
        "aggregate",
        -10.104196694531176
      ],
      [
        "assist",
        -10.104350289171647
      ],
      [
        "regular",
        -10.108099052610998
      ],
      [
        "resolve",
        -10.109065941423413
      ],
      [
        "surviv",
        -10.110932494927315
      ],
      [
        "utilit",
        -10.1121552417977
      ],
      [
        "divergen",
        -10.113757979009709
      ],
      [
        "temper",
        -10.115495440707654
      ],
      [
        "epoch",
        -10.116002703643435
      ],
      [
        "choice",
        -10.11600306414661
      ],
      [
        "applicab",
        -10.116004377163469
      ],
      [
        "benefit",
        -10.116006355982629
      ],
      [
        "creature",
        -10.116010412413479
      ],
      [
        "kingdom",
        -10.116017344367163
      ],
      [
        "portion",
        -10.116023015686444
      ],
      [
        "comparative",
        -10.116027843004543
      ],
      [
        "niece",
        -10.116108613753058
      ],
      [
        "illustration",
        -10.116136055228694
      ],
      [
        "twelve",
        -10.116223900732896
      ],
      [
        "aboriginal",
        -10.116275492826023
      ],
      [
        "scheme",
        -10.116395762443885
      ],
      [
        "singular",
        -10.116864197070637
      ],
      [
        "philosophical",
        -10.116911134953597
      ],
      [
        "image",
        -10.11710492960043
      ],
      [
        "concreto",
        -10.118413357072468
      ],
      [
        "blu",
        -10.120277253761046
      ],
      [
        "justi",
        -10.120302061064042
      ],
      [
        "humble",
        -10.121146719689978
      ],
      [
        "arctic",
        -10.123606130094712
      ],
      [
        "south",
        -10.123797226628435
      ],
      [
        "grand",
        -10.125377109113217
      ],
      [
        "Hook",
        -10.126362716847233
      ],
      [
        "Again",
        -10.126674126710059
      ],
      [
        "praise",
        -10.127868416951559
      ],
      [
        "collected",
        -10.129737473783274
      ],
      [
        "arm",
        -10.129932337181293
      ],
      [
        "Under",
        -10.134333248118
      ],
      [
        "venture",
        -10.13616037113321
      ],
      [
        "decide",
        -10.137455187120398
      ],
      [
        "econom",
        -10.13783185379543
      ],
      [
        "significanc",
        -10.141851577012815
      ],
      [
        "trie",
        -10.142417835996387
      ],
      [
        "var",
        -10.142747521840842
      ],
      [
        "ible",
        -10.143245150786004
      ],
      [
        "induce",
        -10.146850468587168
      ],
      [
        "silent",
        -10.147256276454764
      ],
      [
        "unavoidabl",
        -10.147300414909747
      ],
      [
        "confirm",
        -10.147309803467301
      ],
      [
        "earnest",
        -10.147356562026282
      ],
      [
        "reply",
        -10.147425236440254
      ],
      [
        "supply",
        -10.14747720798465
      ],
      [
        "beetle",
        -10.147529916502005
      ],
      [
        "effort",
        -10.147799060765353
      ],
      [
        "restrict",
        -10.147811782008942
      ],
      [
        "engagement",
        -10.147979060613558
      ],
      [
        "Idea",
        -10.15058339751069
      ],
      [
        "dislike",
        -10.151774858459868
      ],
      [
        "mistaken",
        -10.153785846304288
      ],
      [
        "justifie",
        -10.154241101623157
      ],
      [
        "believ",
        -10.154349131846839
      ],
      [
        "impose",
        -10.15482530711278
      ],
      [
        "doing",
        -10.154995073624832
      ],
      [
        "reproduction",
        -10.156077849313519
      ],
      [
        "endure",
        -10.158497733692554
      ],
      [
        "ca",
        -10.158893570964375
      ],
      [
        "18",
        -10.161452576779633
      ],
      [
        "wit",
        -10.16665024207164
      ],
      [
        "migrate",
        -10.169726265672493
      ],
      [
        "prima",
        -10.171353728857227
      ],
      [
        "unite",
        -10.172003336457283
      ],
      [
        "Criti",
        -10.174144578699673
      ],
      [
        "suggest",
        -10.178895697174642
      ],
      [
        "‘",
        -10.17951055427751
      ],
      [
        "evil",
        -10.179520823849856
      ],
      [
        "hemisphere",
        -10.179522751600649
      ],
      [
        "entertain",
        -10.17954503691518
      ],
      [
        "servant",
        -10.179548296020172
      ],
      [
        "problematical",
        -10.179643678000142
      ],
      [
        "attachment",
        -10.1797871269301
      ],
      [
        "fauna",
        -10.179847069466877
      ],
      [
        "circle",
        -10.179890586849758
      ],
      [
        "affair",
        -10.17993297513153
      ],
      [
        "denie",
        -10.18005899196509
      ],
      [
        "relationship",
        -10.180896766959508
      ],
      [
        "choose",
        -10.18104071755634
      ],
      [
        "flora",
        -10.181763338536449
      ],
      [
        "alarm",
        -10.181929031385476
      ],
      [
        "Island",
        -10.182961067524804
      ],
      [
        "height",
        -10.183129546171967
      ],
      [
        "credit",
        -10.185673195813685
      ],
      [
        "elegan",
        -10.18713769583756
      ],
      [
        "vice",
        -10.189715812311164
      ],
      [
        "allude",
        -10.191139845498997
      ],
      [
        "ers",
        -10.19138649773253
      ],
      [
        "station",
        -10.193735226406396
      ],
      [
        "urge",
        -10.196178906920913
      ],
      [
        "uch",
        -10.20687115369581
      ],
      [
        "Y",
        -10.207743989496993
      ],
      [
        "acted",
        -10.209058527922027
      ],
      [
        "establishe",
        -10.20972551065885
      ],
      [
        "ch",
        -10.211050174866765
      ],
      [
        "00",
        -10.212671710159968
      ],
      [
        "obscure",
        -10.21284404612739
      ],
      [
        "brief",
        -10.212847102941803
      ],
      [
        "Austen",
        -10.212849975595285
      ],
      [
        "volume",
        -10.212861425094564
      ],
      [
        "excite",
        -10.21312748486199
      ],
      [
        "health",
        -10.213260801063097
      ],
      [
        "furnish",
        -10.213351163388023
      ],
      [
        "harmon",
        -10.213537977242453
      ],
      [
        "whale",
        -10.213615676310067
      ],
      [
        "thickness",
        -10.21362672499929
      ],
      [
        "advantageous",
        -10.214624965181862
      ],
      [
        "unusual",
        -10.214884230257729
      ],
      [
        "civil",
        -10.215289100241081
      ],
      [
        "page",
        -10.217159322227097
      ],
      [
        "rose",
        -10.217514345129185
      ],
      [
        "domesticati",
        -10.219456656686363
      ],
      [
        "19",
        -10.221707224341046
      ],
      [
        "conjecture",
        -10.22294871783754
      ],
      [
        "selected",
        -10.22343971455201
      ],
      [
        "empt",
        -10.22406454242797
      ],
      [
        "gentlem",
        -10.225192886492188
      ],
      [
        "becom",
        -10.225742677833516
      ],
      [
        "explic",
        -10.228318602990049
      ],
      [
        "ative",
        -10.228876224281647
      ],
      [
        "observer",
        -10.230099758874138
      ],
      [
        "lose",
        -10.230620367762683
      ],
      [
        "ascertain",
        -10.231687781238767
      ],
      [
        "laugh",
        -10.240668163146148
      ],
      [
        "underst",
        -10.240978499561551
      ],
      [
        "Man",
        -10.2415152378385
      ],
      [
        "dialectic",
        -10.24436609234193
      ],
      [
        "fossils",
        -10.245309853591026
      ],
      [
        "incline",
        -10.24714504654285
      ],
      [
        "neighbour",
        -10.247295734987315
      ],
      [
        "satisfy",
        -10.247327598582157
      ],
      [
        "fault",
        -10.247327598836677
      ],
      [
        "pretty",
        -10.247339835237677
      ],
      [
        "breakfast",
        -10.247381479984313
      ],
      [
        "profound",
        -10.247462367699985
      ],
      [
        "match",
        -10.247470781391398
      ],
      [
        "Space",
        -10.247497228761699
      ],
      [
        "habitual",
        -10.247542715920302
      ],
      [
        "defect",
        -10.247872097834541
      ],
      [
        "white",
        -10.248051058300433
      ],
      [
        "suspicion",
        -10.24808816952289
      ],
      [
        "workers",
        -10.24847379719445
      ],
      [
        "dissimilar",
        -10.248531730748597
      ],
      [
        "taste",
        -10.248798782034253
      ],
      [
        "Cambri",
        -10.25021694985109
      ],
      [
        "apart",
        -10.250965831387376
      ],
      [
        "sent",
        -10.25227000167019
      ],
      [
        "exposition",
        -10.253406047684873
      ],
      [
        "nerve",
        -10.25516942197461
      ],
      [
        "converse",
        -10.25572359272341
      ],
      [
        "remov",
        -10.2590114692298
      ],
      [
        "eading",
        -10.262506014623188
      ],
      [
        "Hun",
        -10.263307758330974
      ],
      [
        "ON",
        -10.26493282039964
      ],
      [
        "universalit",
        -10.267561048542326
      ],
      [
        "absurd",
        -10.269611722871666
      ],
      [
        "thick",
        -10.271994638068445
      ],
      [
        "coexisten",
        -10.273427587501091
      ],
      [
        "improbab",
        -10.274207345759494
      ],
      [
        "itude",
        -10.278737100187639
      ],
      [
        "accident",
        -10.278943085086883
      ],
      [
        "Æ",
        -10.281017676969949
      ],
      [
        "fift",
        -10.281400828349025
      ],
      [
        "omen",
        -10.281526301099976
      ],
      [
        "orrow",
        -10.281962978600209
      ],
      [
        "fortunate",
        -10.282409694859014
      ],
      [
        "public",
        -10.282449277515791
      ],
      [
        "recommend",
        -10.28260896956456
      ],
      [
        "tique",
        -10.282695851181854
      ],
      [
        "touch",
        -10.282745148774653
      ],
      [
        "incipi",
        -10.283031090958259
      ],
      [
        "surprising",
        -10.283040937955812
      ],
      [
        "horizon",
        -10.283040942135084
      ],
      [
        "blood",
        -10.283041664216357
      ],
      [
        "opponent",
        -10.283042760282806
      ],
      [
        "triangle",
        -10.283068671019015
      ],
      [
        "deviation",
        -10.283073065998675
      ],
      [
        "liberty",
        -10.283078810432531
      ],
      [
        "reversion",
        -10.283084312295642
      ],
      [
        "float",
        -10.283096003448682
      ],
      [
        "centur",
        -10.283098929586657
      ],
      [
        "foreign",
        -10.283136401460144
      ],
      [
        "representative",
        -10.283348653855194
      ],
      [
        "debt",
        -10.283424977159987
      ],
      [
        "rote",
        -10.283448528317384
      ],
      [
        "break",
        -10.283558678677007
      ],
      [
        "General",
        -10.283606767775458
      ],
      [
        "anxious",
        -10.283733187516592
      ],
      [
        "style",
        -10.28400830052117
      ],
      [
        "enem",
        -10.284042614613027
      ],
      [
        "theoretical",
        -10.285162039374738
      ],
      [
        "vir",
        -10.285469754495201
      ],
      [
        "composed",
        -10.286317461968045
      ],
      [
        "stair",
        -10.286334299848056
      ],
      [
        "double",
        -10.286704982130242
      ],
      [
        "ears",
        -10.286865144235195
      ],
      [
        "----",
        -10.28758284404927
      ],
      [
        "younger",
        -10.287999216637674
      ],
      [
        "hook",
        -10.288685468068966
      ],
      [
        "strata",
        -10.28963692130706
      ],
      [
        "compar",
        -10.289813199434365
      ],
      [
        "writing",
        -10.291251850736483
      ],
      [
        "Gal",
        -10.292664494879489
      ],
      [
        "ray",
        -10.292969967358786
      ],
      [
        "comb",
        -10.295049691392546
      ],
      [
        "ratu",
        -10.301198252544943
      ],
      [
        "title",
        -10.301263387305223
      ],
      [
        "continu",
        -10.301440333640485
      ],
      [
        "finite",
        -10.30223869122444
      ],
      [
        "inquire",
        -10.30749786783316
      ],
      [
        "185",
        -10.311077530774607
      ],
      [
        "mous",
        -10.313204170725083
      ],
      [
        "encourage",
        -10.31335956448286
      ],
      [
        "prior",
        -10.31342646361462
      ],
      [
        "Can",
        -10.316502542772735
      ],
      [
        "relat",
        -10.317960351189743
      ],
      [
        "par",
        -10.318008486249798
      ],
      [
        "bearing",
        -10.3191566797355
      ],
      [
        "strength",
        -10.319925859057586
      ],
      [
        "/",
        -10.320077968982856
      ],
      [
        "regiment",
        -10.32007814451865
      ],
      [
        "regret",
        -10.320083287768291
      ],
      [
        "sentiment",
        -10.32008336479172
      ],
      [
        "implie",
        -10.320083684313467
      ],
      [
        "illegitimate",
        -10.320086539891149
      ],
      [
        "modify",
        -10.320107229784519
      ],
      [
        "permanenc",
        -10.320116617121528
      ],
      [
        "hypothetical",
        -10.320124177428147
      ],
      [
        "butterfl",
        -10.320129234136695
      ],
      [
        "impression",
        -10.320157007087898
      ],
      [
        "Good",
        -10.320177187621892
      ],
      [
        "local",
        -10.320230803821142
      ],
      [
        "negation",
        -10.320261944320666
      ],
      [
        "conjoin",
        -10.32026412326703
      ],
      [
        "apago",
        -10.320270965225488
      ],
      [
        "delightful",
        -10.320346623873338
      ],
      [
        "finish",
        -10.320356897148752
      ],
      [
        "perish",
        -10.320518579831308
      ],
      [
        "tumbler",
        -10.32086694526881
      ],
      [
        "seize",
        -10.321015183368917
      ],
      [
        "pon",
        -10.321086679721393
      ],
      [
        "root",
        -10.32115055351884
      ],
      [
        "Nature",
        -10.322024937307605
      ],
      [
        "watch",
        -10.32282528211515
      ],
      [
        "dependenc",
        -10.323224752867214
      ],
      [
        "forgot",
        -10.323273266393933
      ],
      [
        "detect",
        -10.323803198072977
      ],
      [
        "sound",
        -10.324138401459772
      ],
      [
        "welcome",
        -10.324723866855289
      ],
      [
        "expos",
        -10.325094752634595
      ],
      [
        "Gra",
        -10.32560967036438
      ],
      [
        "pause",
        -10.325769119423462
      ],
      [
        "_Co",
        -10.328648594594057
      ],
      [
        "blame",
        -10.330489642766114
      ],
      [
        "zo",
        -10.333252844832023
      ],
      [
        "season",
        -10.33378107815874
      ],
      [
        "subsist",
        -10.336107473678442
      ],
      [
        "Re",
        -10.336172734345181
      ],
      [
        "gentle",
        -10.339243700217164
      ],
      [
        "capacit",
        -10.340116766503975
      ],
      [
        "IV",
        -10.342001021385
      ],
      [
        "hearing",
        -10.342404746721371
      ],
      [
        "meeting",
        -10.342668952843043
      ],
      [
        "attach",
        -10.343626423759538
      ],
      [
        "anticipate",
        -10.344360328064978
      ],
      [
        "admitt",
        -10.344433677874814
      ],
      [
        "ller",
        -10.344918174413118
      ],
      [
        "fertilis",
        -10.345317986508089
      ],
      [
        "tri",
        -10.345385036816388
      ],
      [
        "ium",
        -10.34590150355215
      ],
      [
        "ring",
        -10.346328791878634
      ],
      [
        "bad",
        -10.347747501844252
      ],
      [
        "collect",
        -10.348746238170547
      ],
      [
        "apodeictic",
        -10.34880429367741
      ],
      [
        "danc",
        -10.350779143836833
      ],
      [
        "desir",
        -10.351849309052305
      ],
      [
        "govern",
        -10.354343159146163
      ],
      [
        "road",
        -10.356952687976769
      ],
      [
        "divisib",
        -10.357551060589227
      ],
      [
        "nectar",
        -10.358186011058446
      ],
      [
        "pound",
        -10.358447214273863
      ],
      [
        "transcend",
        -10.358455137226636
      ],
      [
        "principal",
        -10.358539508765412
      ],
      [
        "curiosit",
        -10.358539556839872
      ],
      [
        "black",
        -10.358541656578904
      ],
      [
        "drop",
        -10.358561304095733
      ],
      [
        "botanist",
        -10.358579972658868
      ],
      [
        "confusion",
        -10.358606699201726
      ],
      [
        "assurance",
        -10.358623062753134
      ],
      [
        "geologist",
        -10.35868447761058
      ],
      [
        "narrow",
        -10.358727979128618
      ],
      [
        "scienti",
        -10.358731151316814
      ],
      [
        "urian",
        -10.358741507639236
      ],
      [
        "entail",
        -10.358897164837634
      ],
      [
        "hood",
        -10.358945999202039
      ],
      [
        "immense",
        -10.358957993288598
      ],
      [
        "posteriori",
        -10.359218875108901
      ],
      [
        "antecedent",
        -10.359756519057273
      ],
      [
        "metaphysical",
        -10.360329864938675
      ],
      [
        "fourth",
        -10.361802857867676
      ],
      [
        "indefinite",
        -10.362201058816293
      ],
      [
        "unequal",
        -10.362392193354705
      ],
      [
        "enounce",
        -10.362606343989986
      ],
      [
        "ma",
        -10.363398908583626
      ],
      [
        "X",
        -10.363922602107753
      ],
      [
        "overlook",
        -10.364711231919555
      ],
      [
        "neuter",
        -10.365189071016049
      ],
      [
        "pig",
        -10.365990956955681
      ],
      [
        "ebrate",
        -10.366045571057803
      ],
      [
        "flow",
        -10.36636376303103
      ],
      [
        "Cap",
        -10.366863980766619
      ],
      [
        "stated",
        -10.36853915951008
      ],
      [
        "12",
        -10.369076848608403
      ],
      [
        "mainl",
        -10.371228685940507
      ],
      [
        "subst",
        -10.371396188896622
      ],
      [
        "clothe",
        -10.376048688195606
      ],
      [
        "parasit",
        -10.378241894835838
      ],
      [
        "similarit",
        -10.378942376151748
      ],
      [
        "recognize",
        -10.37994206095533
      ],
      [
        "flat",
        -10.380200821526142
      ],
      [
        "estimate",
        -10.380834588463264
      ],
      [
        "subsisten",
        -10.381562655629281
      ],
      [
        "incapa",
        -10.381706740562036
      ],
      [
        "reasonable",
        -10.387050795969618
      ],
      [
        "refer",
        -10.387217271151437
      ],
      [
        "cel",
        -10.388645263782303
      ],
      [
        "ach",
        -10.389256677586076
      ],
      [
        "olle",
        -10.390919475221866
      ],
      [
        "23",
        -10.392075712179004
      ],
      [
        "ex",
        -10.397007214897293
      ],
      [
        "garden",
        -10.3976451575203
      ],
      [
        "edge",
        -10.398062192785087
      ],
      [
        "spontane",
        -10.398225123713367
      ],
      [
        "ö",
        -10.398539507444395
      ],
      [
        "=",
        -10.398539507444395
      ],
      [
        "prospect",
        -10.39853950755002
      ],
      [
        "journey",
        -10.398539886725395
      ],
      [
        "avail",
        -10.398550878508177
      ],
      [
        "defence",
        -10.398567672257773
      ],
      [
        "Summ",
        -10.39856995683176
      ],
      [
        "hermaphrodite",
        -10.398589561910246
      ],
      [
        "depth",
        -10.398632681925921
      ],
      [
        "Time",
        -10.398636489438761
      ],
      [
        "assumption",
        -10.398658406630387
      ],
      [
        "generi",
        -10.398813268142186
      ],
      [
        "proud",
        -10.398843982641756
      ],
      [
        "favourite",
        -10.398979047571
      ],
      [
        "dress",
        -10.399285942259487
      ],
      [
        "yoursel",
        -10.399486778647066
      ],
      [
        "adjoin",
        -10.399525364330684
      ],
      [
        "picture",
        -10.399603212384989
      ],
      [
        "stem",
        -10.399714224400212
      ],
      [
        "seedling",
        -10.40187726299705
      ],
      [
        "winter",
        -10.402418276642855
      ],
      [
        "recover",
        -10.402439284934465
      ],
      [
        "plate",
        -10.403943667908493
      ],
      [
        "enclose",
        -10.404098692697577
      ],
      [
        "polite",
        -10.404392646885164
      ],
      [
        "cipl",
        -10.40479246588445
      ],
      [
        ":--",
        -10.405520763821622
      ],
      [
        "count",
        -10.40607082259187
      ],
      [
        "Wal",
        -10.406513743798765
      ],
      [
        "illus",
        -10.407205921135946
      ],
      [
        "nic",
        -10.411698515225442
      ],
      [
        "egan",
        -10.412306812532137
      ],
      [
        "visitor",
        -10.413989399160249
      ],
      [
        "active",
        -10.414431335545952
      ],
      [
        "libr",
        -10.414542260781904
      ],
      [
        "divers",
        -10.414830504871246
      ],
      [
        "v",
        -10.420288056567129
      ],
      [
        "dark",
        -10.421342951289988
      ],
      [
        "accompanie",
        -10.422027490158829
      ],
      [
        "kill",
        -10.423309318763085
      ],
      [
        "demic",
        -10.424096232792515
      ],
      [
        "protect",
        -10.42544823848826
      ],
      [
        "Hil",
        -10.427824785667028
      ],
      [
        "sign",
        -10.42966057910102
      ],
      [
        "recollect",
        -10.431001637667261
      ],
      [
        "40",
        -10.43189671629168
      ],
      [
        "Na",
        -10.432211152944603
      ],
      [
        "wors",
        -10.432830226406217
      ],
      [
        "mone",
        -10.433548907844447
      ],
      [
        "secret",
        -10.433550268688256
      ],
      [
        "hypothes",
        -10.436088455094168
      ],
      [
        "practic",
        -10.43751268358568
      ],
      [
        "mock",
        -10.438109413827865
      ],
      [
        "mistake",
        -10.438643004538118
      ],
      [
        "rong",
        -10.439408345146678
      ],
      [
        "ize",
        -10.439539017653939
      ],
      [
        "interrupt",
        -10.439666021070154
      ],
      [
        "infinitu",
        -10.440110743169363
      ],
      [
        "conflict",
        -10.440206175852119
      ],
      [
        "nephew",
        -10.440206189046535
      ],
      [
        "denud",
        -10.440206929192003
      ],
      [
        "instrument",
        -10.440207003580014
      ],
      [
        "lamell",
        -10.440214072444572
      ],
      [
        "vigorous",
        -10.440217650510569
      ],
      [
        "affectionate",
        -10.440231531020105
      ],
      [
        "adopt",
        -10.44023257383214
      ],
      [
        "specimen",
        -10.440233169752926
      ],
      [
        "reveal",
        -10.440239119817399
      ],
      [
        "company",
        -10.44033617955646
      ],
      [
        "request",
        -10.440348937827691
      ],
      [
        "paper",
        -10.440387834167662
      ],
      [
        "neglect",
        -10.44041263648059
      ],
      [
        "vig",
        -10.440479515349002
      ],
      [
        "SCEN",
        -10.44048406559525
      ],
      [
        "cirripede",
        -10.440544185941603
      ],
      [
        "embed",
        -10.440609751707786
      ],
      [
        "excessive",
        -10.440784684734718
      ],
      [
        "affirmative",
        -10.440836230452696
      ],
      [
        "Scot",
        -10.440961722004916
      ],
      [
        "rial",
        -10.44200415016243
      ],
      [
        "axiom",
        -10.444016229804832
      ],
      [
        "stern",
        -10.444251465016233
      ],
      [
        "lessen",
        -10.445061634764805
      ],
      [
        "intend",
        -10.445594565337384
      ],
      [
        "exclude",
        -10.445678260340006
      ],
      [
        "flatter",
        -10.44632320865804
      ],
      [
        "precise",
        -10.446326324158228
      ],
      [
        "mine",
        -10.446738286310818
      ],
      [
        "survive",
        -10.447691345995862
      ],
      [
        "neare",
        -10.448395177789083
      ],
      [
        "accumulat",
        -10.44848503421104
      ],
      [
        "ological",
        -10.453121764588934
      ],
      [
        "ge",
        -10.457288126588299
      ],
      [
        "got",
        -10.457690680096274
      ],
      [
        "Car",
        -10.457725824488552
      ],
      [
        "refuse",
        -10.459391066881956
      ],
      [
        "feed",
        -10.45944137058976
      ],
      [
        "depart",
        -10.459783089350813
      ],
      [
        "ear",
        -10.4603093719671
      ],
      [
        "sophistica",
        -10.465714601601213
      ],
      [
        "ally",
        -10.470453802711058
      ],
      [
        "antecede",
        -10.471386160997866
      ],
      [
        "assum",
        -10.475852661510816
      ],
      [
        "Hum",
        -10.478712044171477
      ],
      [
        "facilit",
        -10.481358999352137
      ],
      [
        "Sil",
        -10.482741296060718
      ],
      [
        "charge",
        -10.48357706974253
      ],
      [
        "augment",
        -10.483583157158119
      ],
      [
        "ice",
        -10.483648918487102
      ],
      [
        "Analytic",
        -10.48368496394988
      ],
      [
        "tropic",
        -10.483686550199362
      ],
      [
        "modes",
        -10.483690126301841
      ],
      [
        "dispers",
        -10.483707187776872
      ],
      [
        "valu",
        -10.483754555114412
      ],
      [
        "inferior",
        -10.483760189841028
      ],
      [
        "grade",
        -10.48392602183065
      ],
      [
        "correlation",
        -10.483930478930573
      ],
      [
        "mud",
        -10.485898256955279
      ],
      [
        "imaginar",
        -10.487651454432676
      ],
      [
        "indifference",
        -10.488253118068155
      ],
      [
        "antithe",
        -10.488297898162418
      ],
      [
        "sincere",
        -10.488394602567444
      ],
      [
        "ION",
        -10.488930872180124
      ],
      [
        "Inde",
        -10.490911034967755
      ],
      [
        "pay",
        -10.491450127880224
      ],
      [
        "grain",
        -10.492214656284716
      ],
      [
        "tting",
        -10.492681369166792
      ],
      [
        "Di",
        -10.493255861849605
      ],
      [
        "stone",
        -10.49354548880865
      ],
      [
        "OUS",
        -10.495468268932806
      ],
      [
        "Bat",
        -10.495710822821422
      ],
      [
        "start",
        -10.496679240146978
      ],
      [
        "section",
        -10.497720181111438
      ],
      [
        "dding",
        -10.500934850506741
      ],
      [
        "diverg",
        -10.50287319488666
      ],
      [
        "reappear",
        -10.504778596099724
      ],
      [
        "share",
        -10.505877685942611
      ],
      [
        "quati",
        -10.506078365756988
      ],
      [
        "sixt",
        -10.507406255110224
      ],
      [
        "Fr",
        -10.508434742682244
      ],
      [
        "admissib",
        -10.510377392299016
      ],
      [
        "hatche",
        -10.511255154156972
      ],
      [
        "merit",
        -10.511342028505444
      ],
      [
        "bold",
        -10.513805082817028
      ],
      [
        "pra",
        -10.514811643577216
      ],
      [
        "IS",
        -10.515834509591155
      ],
      [
        "osmological",
        -10.515870664957195
      ],
      [
        "distinguishe",
        -10.518567244500106
      ],
      [
        "guard",
        -10.519231728304662
      ],
      [
        "Leibnitz",
        -10.520734633923137
      ],
      [
        "petition",
        -10.52212787410237
      ],
      [
        "twic",
        -10.527464927120807
      ],
      [
        "mediate",
        -10.528455503030436
      ],
      [
        "India",
        -10.528787087995745
      ],
      [
        "successful",
        -10.528834212212328
      ],
      [
        "contrivance",
        -10.529138980899937
      ],
      [
        "primitive",
        -10.529139054726134
      ],
      [
        "window",
        -10.529172807441753
      ],
      [
        "repti",
        -10.529210814520965
      ],
      [
        "Beside",
        -10.52922729867328
      ],
      [
        "palæontologist",
        -10.529227924739153
      ],
      [
        "diffuse",
        -10.529239085009534
      ],
      [
        "restrain",
        -10.529421463916131
      ],
      [
        "quiet",
        -10.529448687264617
      ],
      [
        "lace",
        -10.529464654253823
      ],
      [
        "intimate",
        -10.529503962873754
      ],
      [
        "collection",
        -10.529619926615005
      ],
      [
        "centre",
        -10.529627444836152
      ],
      [
        "terior",
        -10.529628059400803
      ],
      [
        "equator",
        -10.529669574213917
      ],
      [
        "blend",
        -10.530128891463042
      ],
      [
        "entreat",
        -10.53048274269699
      ],
      [
        "centra",
        -10.531544471771674
      ],
      [
        "ES",
        -10.532300953670482
      ],
      [
        "reserve",
        -10.534089217073035
      ],
      [
        "lip",
        -10.53448049933214
      ],
      [
        "current",
        -10.534637831209114
      ],
      [
        "familiar",
        -10.535120721963104
      ],
      [
        "prepare",
        -10.53534963399984
      ],
      [
        "charming",
        -10.53611044844115
      ],
      [
        "quant",
        -10.538045356400364
      ],
      [
        "cal",
        -10.54018327234121
      ],
      [
        "excuse",
        -10.540939755706653
      ],
      [
        "RAN",
        -10.542259074891703
      ],
      [
        "eldest",
        -10.544296169860417
      ],
      [
        "conformabl",
        -10.545156810455524
      ],
      [
        "river",
        -10.549101992018178
      ],
      [
        "Bot",
        -10.549683002924391
      ],
      [
        "cultivate",
        -10.549728649486273
      ],
      [
        "requir",
        -10.550032019271463
      ],
      [
        "bar",
        -10.550535599999975
      ],
      [
        "shame",
        -10.554172434293415
      ],
      [
        "drive",
        -10.55853314711399
      ],
      [
        "prov",
        -10.563788604118601
      ],
      [
        "repeat",
        -10.567183561547015
      ],
      [
        "secut",
        -10.568136615473737
      ],
      [
        "constituti",
        -10.570739018535294
      ],
      [
        "Existence",
        -10.576758052652384
      ],
      [
        "World",
        -10.57675950486394
      ],
      [
        "Second",
        -10.576760358557037
      ],
      [
        "realissimum",
        -10.576763056787382
      ],
      [
        "eceptiv",
        -10.576784553124991
      ],
      [
        "innate",
        -10.576807986252339
      ],
      [
        "subtle",
        -10.576915044636099
      ],
      [
        "partner",
        -10.576933308792333
      ],
      [
        "boast",
        -10.577005320620696
      ],
      [
        "proposal",
        -10.577006477666181
      ],
      [
        "shake",
        -10.577034789774958
      ],
      [
        "modern",
        -10.5770365222875
      ],
      [
        "separation",
        -10.577154563780073
      ],
      [
        "scene",
        -10.577192055583113
      ],
      [
        "electric",
        -10.577304378611363
      ],
      [
        "Maria",
        -10.577439665756408
      ],
      [
        "delicate",
        -10.577468620634544
      ],
      [
        "annual",
        -10.577685014532907
      ],
      [
        "recollection",
        -10.577728774969799
      ],
      [
        "affirmation",
        -10.577739398227656
      ],
      [
        "project",
        -10.577884031039922
      ],
      [
        "petal",
        -10.578347207993852
      ],
      [
        "rash",
        -10.578555508052336
      ],
      [
        "climb",
        -10.578688369968937
      ],
      [
        "affe",
        -10.578786364711819
      ],
      [
        "efficient",
        -10.580770104095627
      ],
      [
        "cene",
        -10.580849038522043
      ],
      [
        "requirement",
        -10.581017346453134
      ],
      [
        "Alp",
        -10.582103048042518
      ],
      [
        "membrane",
        -10.58211750389148
      ],
      [
        "zer",
        -10.582126014726054
      ],
      [
        "dæ",
        -10.583546084126139
      ],
      [
        "works",
        -10.585557790128606
      ],
      [
        "everal",
        -10.585997938477153
      ],
      [
        "rang",
        -10.58638364273962
      ],
      [
        "edition",
        -10.588377290099466
      ],
      [
        "referr",
        -10.588637065896446
      ],
      [
        "interfere",
        -10.590759200094439
      ],
      [
        "tolerable",
        -10.593164368316826
      ],
      [
        "preserv",
        -10.593548609329995
      ],
      [
        "summit",
        -10.593601480489683
      ],
      [
        "unlike",
        -10.595932517102474
      ],
      [
        "blow",
        -10.596461714562128
      ],
      [
        "_that",
        -10.598888014387363
      ],
      [
        "authorize",
        -10.598917875564698
      ],
      [
        "weak",
        -10.599322611994761
      ],
      [
        "frai",
        -10.600087762770773
      ],
      [
        "star",
        -10.600452678443375
      ],
      [
        "permit",
        -10.602584690979171
      ],
      [
        "ck",
        -10.602680890539789
      ],
      [
        "introduc",
        -10.603122725675323
      ],
      [
        "ious",
        -10.6032096684192
      ],
      [
        "dealism",
        -10.603940717719068
      ],
      [
        "mus",
        -10.604622612313111
      ],
      [
        "cautious",
        -10.604981913275706
      ],
      [
        "hat",
        -10.607708128690714
      ],
      [
        "directions",
        -10.610021720752734
      ],
      [
        "fold",
        -10.612580105717965
      ],
      [
        "comfortabl",
        -10.613333336279373
      ],
      [
        "dry",
        -10.616796944089593
      ],
      [
        "euter",
        -10.618381264929479
      ],
      [
        "tensive",
        -10.620776147123635
      ],
      [
        "swim",
        -10.621150124285636
      ],
      [
        "proportional",
        -10.621211455079955
      ],
      [
        "companion",
        -10.621412874761944
      ],
      [
        "analytic",
        -10.622547457662257
      ],
      [
        "ating",
        -10.62475661031015
      ],
      [
        "gir",
        -10.62561859937546
      ],
      [
        "constitut",
        -10.625727826090207
      ],
      [
        "ATION",
        -10.625985014303431
      ],
      [
        "propriet",
        -10.626644833802288
      ],
      [
        "*",
        -10.62675802805422
      ],
      [
        "Certain",
        -10.626761198681862
      ],
      [
        "orchid",
        -10.626761886598912
      ],
      [
        "speech",
        -10.626765307510823
      ],
      [
        "million",
        -10.626771271908277
      ],
      [
        "adduce",
        -10.626773019210587
      ],
      [
        "legitimate",
        -10.626797326965637
      ],
      [
        "province",
        -10.626801129223521
      ],
      [
        "æsthetic",
        -10.62685926692505
      ],
      [
        "dimorphi",
        -10.626859608420848
      ],
      [
        "accurate",
        -10.627011331247186
      ],
      [
        "Malay",
        -10.627035500734383
      ],
      [
        "command",
        -10.627125996557988
      ],
      [
        "desert",
        -10.627353847553646
      ],
      [
        "noble",
        -10.627453427660072
      ],
      [
        "visc",
        -10.627753107987537
      ],
      [
        "Whil",
        -10.627776888766508
      ],
      [
        "shock",
        -10.627849402715597
      ],
      [
        "latitude",
        -10.628243131463117
      ],
      [
        "powerful",
        -10.62826748560168
      ],
      [
        "lowland",
        -10.628352525882915
      ],
      [
        "destin",
        -10.62884863719752
      ],
      [
        "ascend",
        -10.62919468140873
      ],
      [
        "instinctive",
        -10.62922138410571
      ],
      [
        "Gre",
        -10.62947199130781
      ],
      [
        "reverse",
        -10.629653845563594
      ],
      [
        "violent",
        -10.630350917854326
      ],
      [
        "endow",
        -10.630663910190712
      ],
      [
        "dispose",
        -10.630866910179327
      ],
      [
        "anxi",
        -10.631801331338043
      ],
      [
        "frame",
        -10.633056443839198
      ],
      [
        "combine",
        -10.634903811543847
      ],
      [
        "geometric",
        -10.635555746451288
      ],
      [
        "stranger",
        -10.63587391461965
      ],
      [
        "breeder",
        -10.637649453448399
      ],
      [
        "bu",
        -10.638580970965453
      ],
      [
        "irregular",
        -10.63864210393523
      ],
      [
        "spend",
        -10.640799405140658
      ],
      [
        "_me",
        -10.640851426149313
      ],
      [
        "Are",
        -10.641604936019489
      ],
      [
        "_you",
        -10.643396510379635
      ],
      [
        "exterminati",
        -10.64690338064167
      ],
      [
        "genealog",
        -10.64755057281892
      ],
      [
        "advis",
        -10.648442671617214
      ],
      [
        "decrease",
        -10.649310343497794
      ],
      [
        "Hav",
        -10.650479892078927
      ],
      [
        "move",
        -10.652006389290436
      ],
      [
        "mov",
        -10.654799804480765
      ],
      [
        "ascribe",
        -10.664762996230529
      ],
      [
        "endur",
        -10.664791664885925
      ],
      [
        "Organ",
        -10.66524736710562
      ],
      [
        "insensibl",
        -10.666231884599526
      ],
      [
        "card",
        -10.6671249863709
      ],
      [
        "diminishe",
        -10.667674484083513
      ],
      [
        "roduction",
        -10.669284703131325
      ],
      [
        "geometr",
        -10.670313308421713
      ],
      [
        "layer",
        -10.670373527228785
      ],
      [
        "secur",
        -10.67067789611127
      ],
      [
        "deduce",
        -10.671099381501444
      ],
      [
        "charm",
        -10.672294961949229
      ],
      [
        "park",
        -10.672668971479373
      ],
      [
        "consisten",
        -10.673752372838056
      ],
      [
        "fancie",
        -10.675807264077715
      ],
      [
        "apprehend",
        -10.676308254275552
      ],
      [
        "larva",
        -10.67678790526608
      ],
      [
        "subsid",
        -10.676983115568685
      ],
      [
        "rear",
        -10.678108576983828
      ],
      [
        "hurch",
        -10.678668356859436
      ],
      [
        "disappoint",
        -10.678982706202959
      ],
      [
        "courage",
        -10.679111087320805
      ],
      [
        "Character",
        -10.679389616209853
      ],
      [
        "erroneous",
        -10.679389658043245
      ],
      [
        "suffice",
        -10.679391402010443
      ],
      [
        "vegetable",
        -10.679392626396355
      ],
      [
        "felicit",
        -10.679392879843723
      ],
      [
        "fashion",
        -10.679392894656099
      ],
      [
        "barrier",
        -10.679396999673045
      ],
      [
        "contempt",
        -10.679437793822183
      ],
      [
        "sequence",
        -10.679452581097841
      ],
      [
        "report",
        -10.679497167739672
      ],
      [
        "fantail",
        -10.679501483626515
      ],
      [
        "persuasion",
        -10.679534403834413
      ],
      [
        "resentment",
        -10.679558931741168
      ],
      [
        "coast",
        -10.679562430320619
      ],
      [
        "justify",
        -10.67963847830858
      ],
      [
        "loud",
        -10.679664527898968
      ],
      [
        "attraction",
        -10.679672887338757
      ],
      [
        "disappointment",
        -10.679817714338082
      ],
      [
        "Variet",
        -10.679875470495302
      ],
      [
        "housekeep",
        -10.680048119449285
      ],
      [
        "occurrence",
        -10.680121077931663
      ],
      [
        "acute",
        -10.680139597532758
      ],
      [
        "moderate",
        -10.680202621411652
      ],
      [
        "unwilling",
        -10.68028520000567
      ],
      [
        "score",
        -10.680460202844532
      ],
      [
        "alteration",
        -10.680535018259615
      ],
      [
        "impruden",
        -10.680965167210246
      ],
      [
        "grass",
        -10.681120370233302
      ],
      [
        "Satur",
        -10.681455436450348
      ],
      [
        "barre",
        -10.681713398902625
      ],
      [
        "welf",
        -10.682900368064466
      ],
      [
        "ake",
        -10.682990657632772
      ],
      [
        "forth",
        -10.683032841914367
      ],
      [
        "sweet",
        -10.686720149408673
      ],
      [
        "data",
        -10.68712130639371
      ],
      [
        "geolog",
        -10.688303890156348
      ],
      [
        "Domestic",
        -10.688865606370976
      ],
      [
        "cogitat",
        -10.689053482241327
      ],
      [
        "antic",
        -10.689463236812784
      ],
      [
        "studie",
        -10.690171508849998
      ],
      [
        "wind",
        -10.6921256514078
      ],
      [
        "uncommon",
        -10.693658147997276
      ],
      [
        "ddle",
        -10.694911298175166
      ],
      [
        "propagate",
        -10.695395176340702
      ],
      [
        "z",
        -10.697177738417391
      ],
      [
        "_her",
        -10.699265012320339
      ],
      [
        "miser",
        -10.699968570694011
      ],
      [
        "13",
        -10.701135779261811
      ],
      [
        "music",
        -10.701248670535465
      ],
      [
        "pronounce",
        -10.701417189647419
      ],
      [
        "unnecessar",
        -10.702310950147103
      ],
      [
        "physic",
        -10.702878653392297
      ],
      [
        "pedi",
        -10.70411357494398
      ],
      [
        "illustrate",
        -10.704502254351025
      ],
      [
        "covere",
        -10.707834699835225
      ],
      [
        "vol",
        -10.709764592063985
      ],
      [
        "ester",
        -10.711048229101415
      ],
      [
        "Charl",
        -10.711828785590802
      ],
      [
        "21",
        -10.713534899955837
      ],
      [
        "caus",
        -10.714991042719742
      ],
      [
        "tolerabl",
        -10.716108574502666
      ],
      [
        "unning",
        -10.717950271553493
      ],
      [
        "heav",
        -10.718986240950105
      ],
      [
        "La",
        -10.719282339798873
      ],
      [
        "suit",
        -10.72089860885839
      ],
      [
        "competen",
        -10.723158846520166
      ],
      [
        "investigate",
        -10.724629579069159
      ],
      [
        "bow",
        -10.730620885988845
      ],
      [
        "crop",
        -10.73224542042004
      ],
      [
        "especial",
        -10.733568647695165
      ],
      [
        "thirt",
        -10.73479894650872
      ],
      [
        "archipelago",
        -10.734945162558112
      ],
      [
        "artificial",
        -10.734945162576755
      ],
      [
        "approbation",
        -10.73494516912663
      ],
      [
        "decline",
        -10.734947977230007
      ],
      [
        "strike",
        -10.734948772016608
      ],
      [
        "edifice",
        -10.734948932273674
      ],
      [
        "abnormal",
        -10.734976179647449
      ],
      [
        "esteem",
        -10.734979401854028
      ],
      [
        "protest",
        -10.735005240882195
      ],
      [
        "immutab",
        -10.73501767117733
      ],
      [
        "catch",
        -10.735019610591724
      ],
      [
        "feature",
        -10.735046888238077
      ],
      [
        "pardon",
        -10.735053472577885
      ],
      [
        "compound",
        -10.735146437277766
      ],
      [
        "goose",
        -10.735161212812525
      ],
      [
        "abandon",
        -10.73517491109089
      ],
      [
        "flesh",
        -10.735198799736688
      ],
      [
        "profession",
        -10.735343002157775
      ],
      [
        "sentence",
        -10.735419757709732
      ],
      [
        "rude",
        -10.735513199714132
      ],
      [
        "private",
        -10.735531441842353
      ],
      [
        "treatise",
        -10.735592847946492
      ],
      [
        "clover",
        -10.73564770194505
      ],
      [
        "Kent",
        -10.735842325836291
      ],
      [
        "ancestor",
        -10.735937612086303
      ],
      [
        "novel",
        -10.736154298149554
      ],
      [
        "bert",
        -10.736232776568205
      ],
      [
        "rsonage",
        -10.736595444380896
      ],
      [
        "skull",
        -10.736739649050765
      ],
      [
        "angr",
        -10.738202684527938
      ],
      [
        "borrow",
        -10.738614217081365
      ],
      [
        "educat",
        -10.740699838534091
      ],
      [
        "bestow",
        -10.740765817499108
      ],
      [
        "olution",
        -10.741898488552934
      ],
      [
        "renew",
        -10.743198208079352
      ],
      [
        "battle",
        -10.744177136308714
      ],
      [
        "poly",
        -10.74517157345742
      ],
      [
        "Indian",
        -10.745885838648551
      ],
      [
        "ter",
        -10.746449865850897
      ],
      [
        "dead",
        -10.746614179499867
      ],
      [
        "list",
        -10.750537866617272
      ],
      [
        "teleolog",
        -10.75397545817082
      ],
      [
        "vision",
        -10.755116078983594
      ],
      [
        "separat",
        -10.755892201150424
      ],
      [
        "youth",
        -10.755967192034053
      ],
      [
        "communicate",
        -10.757568362421694
      ],
      [
        "occurr",
        -10.757998752120379
      ],
      [
        "indifferent",
        -10.759496801422577
      ],
      [
        "summ",
        -10.759693367292769
      ],
      [
        "ethic",
        -10.760842596960522
      ],
      [
        "prescribe",
        -10.760995619341218
      ],
      [
        "ECTION",
        -10.765484704280084
      ],
      [
        "Though",
        -10.767285500276994
      ],
      [
        "breath",
        -10.77068906933485
      ],
      [
        "spare",
        -10.770758810548235
      ],
      [
        "curv",
        -10.771380887435706
      ],
      [
        "tempt",
        -10.773788818771338
      ],
      [
        "contradict",
        -10.773881700318407
      ],
      [
        "stitute",
        -10.776012335995798
      ],
      [
        "VI",
        -10.776365135614533
      ],
      [
        "tion",
        -10.778202351805774
      ],
      [
        "advantages",
        -10.77927922219125
      ],
      [
        "uber",
        -10.784053956919172
      ],
      [
        "_your",
        -10.79078131552706
      ],
      [
        "news",
        -10.791214644162753
      ],
      [
        "ould",
        -10.79148340239427
      ],
      [
        "ë",
        -10.792880410022594
      ],
      [
        "accomplish",
        -10.793335999745965
      ],
      [
        "injur",
        -10.793489244943672
      ],
      [
        "superfluous",
        -10.793768692034387
      ],
      [
        "incessant",
        -10.793768877264657
      ],
      [
        "grateful",
        -10.79376942553055
      ],
      [
        "Origin",
        -10.79376945298636
      ],
      [
        "communication",
        -10.793798943324417
      ],
      [
        "entrance",
        -10.793804990393141
      ],
      [
        "obligation",
        -10.793813257946832
      ],
      [
        "conceit",
        -10.793874062189282
      ],
      [
        "antenn",
        -10.79388426591294
      ],
      [
        "declaration",
        -10.79406509199432
      ],
      [
        "green",
        -10.794236848561598
      ],
      [
        "discursive",
        -10.79428322114073
      ],
      [
        "incidental",
        -10.794377328104698
      ],
      [
        "Fir",
        -10.794407581375463
      ],
      [
        "Look",
        -10.794606522682944
      ],
      [
        "generous",
        -10.795016170760348
      ],
      [
        "roll",
        -10.795139047722271
      ],
      [
        "organiz",
        -10.795148362940985
      ],
      [
        "confused",
        -10.795174781370688
      ],
      [
        "sketch",
        -10.79568038517125
      ],
      [
        "shallow",
        -10.795877577734682
      ],
      [
        "Last",
        -10.795949471442395
      ],
      [
        "PRO",
        -10.796567976715181
      ],
      [
        "fifth",
        -10.797461568843149
      ],
      [
        "stopp",
        -10.797738471370614
      ],
      [
        "abundant",
        -10.798495574323805
      ],
      [
        "metaphysic",
        -10.799828080782984
      ],
      [
        "zen",
        -10.800148512071301
      ],
      [
        "game",
        -10.802131647086547
      ],
      [
        "minor",
        -10.802454674972823
      ],
      [
        "leaf",
        -10.804357421118365
      ],
      [
        "talent",
        -10.805925898426082
      ],
      [
        "vegetati",
        -10.806006571150082
      ],
      [
        "hopeless",
        -10.806936061903933
      ],
      [
        "thrush",
        -10.80714092208084
      ],
      [
        "equall",
        -10.808311983726487
      ],
      [
        "colonis",
        -10.80895500218547
      ],
      [
        "glands",
        -10.809323587739163
      ],
      [
        "_I",
        -10.80953639478218
      ],
      [
        "abort",
        -10.809739312481799
      ],
      [
        "thinker",
        -10.810731717070976
      ],
      [
        "eduction",
        -10.811597082646172
      ],
      [
        "necessitate",
        -10.81239640724557
      ],
      [
        "branchi",
        -10.813550696741492
      ],
      [
        "rain",
        -10.813931548705972
      ],
      [
        "shoulder",
        -10.817195255094877
      ],
      [
        "gratifi",
        -10.818027432901658
      ],
      [
        "bas",
        -10.821612536538971
      ],
      [
        "intende",
        -10.82255041008727
      ],
      [
        "schemat",
        -10.823231922718046
      ],
      [
        "compos",
        -10.825529652453064
      ],
      [
        "permitt",
        -10.826544906965193
      ],
      [
        "estate",
        -10.827134331288047
      ],
      [
        "outer",
        -10.827189203516035
      ],
      [
        "serv",
        -10.827561420312657
      ],
      [
        "balance",
        -10.828803452332485
      ],
      [
        "causal",
        -10.830517246497472
      ],
      [
        "quitt",
        -10.83084432024968
      ],
      [
        "siz",
        -10.832995495406692
      ],
      [
        "completi",
        -10.833351769452467
      ],
      [
        "invite",
        -10.834139883876592
      ],
      [
        "gr",
        -10.835397095251851
      ],
      [
        "quit",
        -10.837404055023093
      ],
      [
        "eated",
        -10.837515896839722
      ],
      [
        "revert",
        -10.841123184375451
      ],
      [
        "Aga",
        -10.842290985187308
      ],
      [
        "eception",
        -10.842345819023002
      ],
      [
        "disturbe",
        -10.844092060021799
      ],
      [
        "relie",
        -10.844278601963552
      ],
      [
        "consent",
        -10.845819746276813
      ],
      [
        "prefer",
        -10.846508777394861
      ],
      [
        "ke",
        -10.848049931678984
      ],
      [
        "imitate",
        -10.850204927031182
      ],
      [
        "mortal",
        -10.85072733314228
      ],
      [
        "prehensi",
        -10.85090245888673
      ],
      [
        "magn",
        -10.854406343401264
      ],
      [
        "deficien",
        -10.854761345581736
      ],
      [
        "plum",
        -10.85496258234362
      ],
      [
        "contemporaneous",
        -10.85626869197347
      ],
      [
        "intelligent",
        -10.856268697419964
      ],
      [
        "Rudiment",
        -10.856268783036018
      ],
      [
        "impulse",
        -10.856268861949836
      ],
      [
        "attentive",
        -10.856269772763396
      ],
      [
        "bottom",
        -10.856270543018704
      ],
      [
        "Change",
        -10.856276374767905
      ],
      [
        "Extinct",
        -10.85627863753526
      ],
      [
        "elder",
        -10.856279421436197
      ],
      [
        "segment",
        -10.856280621487148
      ],
      [
        "stream",
        -10.856282578978252
      ],
      [
        "sanguine",
        -10.85628516468742
      ],
      [
        "metamorphose",
        -10.856318784882
      ],
      [
        "religio",
        -10.856332110053089
      ],
      [
        "woodpecker",
        -10.856342044286361
      ],
      [
        "mandible",
        -10.856399890741887
      ],
      [
        "popular",
        -10.856412021841965
      ],
      [
        "cheerful",
        -10.856430513005801
      ],
      [
        "neck",
        -10.856469229573694
      ],
      [
        "anomal",
        -10.856479103717312
      ],
      [
        "compassion",
        -10.856499005079485
      ],
      [
        "amusement",
        -10.856509864094257
      ],
      [
        "elevation",
        -10.856519292607224
      ],
      [
        "fiction",
        -10.85654113624761
      ],
      [
        "sensitive",
        -10.856958780826117
      ],
      [
        "contrast",
        -10.85706166746795
      ],
      [
        "unfortunate",
        -10.857403490685497
      ],
      [
        "front",
        -10.857433184054244
      ],
      [
        "confound",
        -10.857552662370635
      ],
      [
        "ruin",
        -10.857795388628343
      ],
      [
        "unalter",
        -10.858153444086344
      ],
      [
        "preference",
        -10.85912113120009
      ],
      [
        "trimorphi",
        -10.859451546825191
      ],
      [
        "zone",
        -10.859493437969688
      ],
      [
        "legislati",
        -10.861195563039074
      ],
      [
        "withstand",
        -10.861403160607205
      ],
      [
        "disagreeabl",
        -10.861739241226868
      ],
      [
        "ldest",
        -10.862566326662463
      ],
      [
        "distinguishable",
        -10.862584374379402
      ],
      [
        "occupy",
        -10.862898797073782
      ],
      [
        "clearness",
        -10.865022340083982
      ],
      [
        "primar",
        -10.865104040475272
      ],
      [
        "competitor",
        -10.865178487012404
      ],
      [
        "grave",
        -10.865987027080331
      ],
      [
        "writer",
        -10.866645366357092
      ],
      [
        "ification",
        -10.867032934481378
      ],
      [
        "VII",
        -10.868263904243413
      ],
      [
        "heath",
        -10.869420547825438
      ],
      [
        "prejudice",
        -10.869541385130487
      ],
      [
        "ynthetical",
        -10.869777634503617
      ],
      [
        "avicularia",
        -10.872056541477557
      ],
      [
        "reache",
        -10.873065800158283
      ],
      [
        "Pra",
        -10.87428754176707
      ],
      [
        "assembl",
        -10.874945269275893
      ],
      [
        "Whe",
        -10.875033897059868
      ],
      [
        "presentation",
        -10.876198521855889
      ],
      [
        "fire",
        -10.876216343078578
      ],
      [
        "Mal",
        -10.877171725273385
      ],
      [
        "amaze",
        -10.879547464458335
      ],
      [
        "reated",
        -10.880207067903836
      ],
      [
        "nderstanding",
        -10.882359573695943
      ],
      [
        "astonishing",
        -10.883082248912887
      ],
      [
        "retaining",
        -10.883167420336456
      ],
      [
        "mingle",
        -10.883838713785725
      ],
      [
        "skill",
        -10.885076327375891
      ],
      [
        "unnatural",
        -10.8856731542228
      ],
      [
        "plane",
        -10.886358822659425
      ],
      [
        "visib",
        -10.887962626996432
      ],
      [
        "personal",
        -10.890831069724253
      ],
      [
        "22",
        -10.891162508909243
      ],
      [
        "schools",
        -10.894849667225332
      ],
      [
        "fossili",
        -10.895950134531569
      ],
      [
        "generate",
        -10.897422956822206
      ],
      [
        "Plat",
        -10.897432451690685
      ],
      [
        "Creat",
        -10.898586378433489
      ],
      [
        "iving",
        -10.900385293735415
      ],
      [
        "possessor",
        -10.902023769941419
      ],
      [
        "_a_1",
        -10.902802563040545
      ],
      [
        "germinate",
        -10.903414889429557
      ],
      [
        "Where",
        -10.906220410485773
      ],
      [
        "advanc",
        -10.906825007024107
      ],
      [
        "pup",
        -10.907211677774916
      ],
      [
        "modest",
        -10.908659299623096
      ],
      [
        "anger",
        -10.910343680657679
      ],
      [
        "reproach",
        -10.912341180133497
      ],
      [
        "fond",
        -10.913960268204297
      ],
      [
        "axi",
        -10.915368708023063
      ],
      [
        "mer",
        -10.917250810615762
      ],
      [
        "disgrace",
        -10.917738956542433
      ],
      [
        "solid",
        -10.91800117459583
      ],
      [
        "profess",
        -10.919444116848286
      ],
      [
        "ridge",
        -10.919796584841311
      ],
      [
        "basin",
        -10.920333459382505
      ],
      [
        "System",
        -10.920573291072902
      ],
      [
        "enjoy",
        -10.922645292750392
      ],
      [
        "palæo",
        -10.922823088256074
      ],
      [
        "victor",
        -10.922908691436191
      ],
      [
        "Phenomena",
        -10.922935360477133
      ],
      [
        "hurry",
        -10.922936316706814
      ],
      [
        "implicit",
        -10.922947699381822
      ],
      [
        "Effect",
        -10.922948488622403
      ],
      [
        "progen",
        -10.922951015999868
      ],
      [
        "fourteen",
        -10.922960971490443
      ],
      [
        "notorious",
        -10.922972032687476
      ],
      [
        "combination",
        -10.92301019724919
      ],
      [
        "reckon",
        -10.923057646149388
      ],
      [
        "effectual",
        -10.923058817033674
      ],
      [
        "oscillation",
        -10.923121652805996
      ],
      [
        "peace",
        -10.923123528589946
      ],
      [
        "supplie",
        -10.923214313745436
      ],
      [
        "betray",
        -10.923236964927947
      ],
      [
        "embarrassment",
        -10.923297501837586
      ],
      [
        "psychological",
        -10.923360338949887
      ],
      [
        "painful",
        -10.923392301018447
      ],
      [
        "exertion",
        -10.923432426635001
      ],
      [
        "elephant",
        -10.923669769312225
      ],
      [
        "immanent",
        -10.92378628340374
      ],
      [
        "juncti",
        -10.923976237135792
      ],
      [
        "monstrosit",
        -10.924069500620792
      ],
      [
        "methodical",
        -10.924193603947717
      ],
      [
        "fatal",
        -10.924206809580935
      ],
      [
        "description",
        -10.924534482698034
      ],
      [
        "lips",
        -10.925099219994342
      ],
      [
        "savage",
        -10.925117227722476
      ],
      [
        "coat",
        -10.925628265686793
      ],
      [
        "memor",
        -10.925875366475804
      ],
      [
        "unworth",
        -10.92592037298024
      ],
      [
        "posit",
        -10.926506295865929
      ],
      [
        "unexpected",
        -10.926553528437898
      ],
      [
        "unfavourabl",
        -10.927136634410529
      ],
      [
        "intuit",
        -10.927539538233258
      ],
      [
        "Cause",
        -10.927978413527022
      ],
      [
        "postulate",
        -10.929474586028618
      ],
      [
        "vertebrate",
        -10.929530288567607
      ],
      [
        "multiplic",
        -10.929890717343474
      ],
      [
        "reside",
        -10.93014328750064
      ],
      [
        "rais",
        -10.930952700253439
      ],
      [
        "acclimatis",
        -10.930995635903813
      ],
      [
        "misunderstand",
        -10.93195787595307
      ],
      [
        "aire",
        -10.932291009135911
      ],
      [
        "ebra",
        -10.932722999089405
      ],
      [
        "atitude",
        -10.934032912733342
      ],
      [
        "apt",
        -10.934390497387415
      ],
      [
        "66",
        -10.934951240092731
      ],
      [
        "Hu",
        -10.935511549598216
      ],
      [
        "glance",
        -10.937849528593286
      ],
      [
        "raid",
        -10.939154164214116
      ],
      [
        "appar",
        -10.939307234479926
      ],
      [
        "recognise",
        -10.94181164857658
      ],
      [
        "originat",
        -10.941863087440293
      ],
      [
        "indicat",
        -10.943228385847036
      ],
      [
        "stop",
        -10.946711295050664
      ],
      [
        "contribute",
        -10.947037144262417
      ],
      [
        "solve",
        -10.948494307495126
      ],
      [
        "OR",
        -10.948985183034708
      ],
      [
        "lens",
        -10.95069451019038
      ],
      [
        "Du",
        -10.950807124248433
      ],
      [
        "bore",
        -10.951047408244362
      ],
      [
        "war",
        -10.9547066187656
      ],
      [
        "Or",
        -10.955386262088366
      ],
      [
        "bud",
        -10.956537695034804
      ],
      [
        "activ",
        -10.958358077030804
      ],
      [
        "rejoice",
        -10.95909911229692
      ],
      [
        "plu",
        -10.960189715909348
      ],
      [
        "Pa",
        -10.962271222676433
      ],
      [
        "bre",
        -10.966587626613133
      ],
      [
        "Dis",
        -10.968978013355919
      ],
      [
        "indication",
        -10.976213441708774
      ],
      [
        "convenience",
        -10.976573532009347
      ],
      [
        "corpor",
        -10.97811816854437
      ],
      [
        "Sch",
        -10.978450042198942
      ],
      [
        "admissi",
        -10.979648994134143
      ],
      [
        "incred",
        -10.980203608050328
      ],
      [
        "uncertain",
        -10.981981317495464
      ],
      [
        "divin",
        -10.982017294343775
      ],
      [
        "prepar",
        -10.984319779346775
      ],
      [
        "ternal",
        -10.984521716642917
      ],
      [
        "fallac",
        -10.98501699771495
      ],
      [
        "qui",
        -10.98649205659653
      ],
      [
        "addresse",
        -10.988049541930451
      ],
      [
        "conceivabl",
        -10.988616651421642
      ],
      [
        "cha",
        -10.992051728241279
      ],
      [
        "potent",
        -10.992219991501532
      ],
      [
        "exert",
        -10.993851588515325
      ],
      [
        "situat",
        -10.993898791078957
      ],
      [
        "odality",
        -10.99410403722372
      ],
      [
        "142",
        -10.994137734227156
      ],
      [
        "regulate",
        -10.99436395488471
      ],
      [
        "obscurit",
        -10.994363961114088
      ],
      [
        "greyhound",
        -10.994363968576044
      ],
      [
        "pattern",
        -10.994364414784304
      ],
      [
        "conquer",
        -10.99436524004782
      ],
      [
        "devour",
        -10.99436543209579
      ],
      [
        "inseparabl",
        -10.994365703762684
      ],
      [
        "awkward",
        -10.994366742164475
      ],
      [
        "impertinen",
        -10.994375357889112
      ],
      [
        "whisper",
        -10.9943884960074
      ],
      [
        "patron",
        -10.994392865651571
      ],
      [
        "southward",
        -10.994401247088922
      ],
      [
        "ovule",
        -10.99442921815923
      ],
      [
        "misfortune",
        -10.99445167016662
      ],
      [
        "leisure",
        -10.994463431800003
      ],
      [
        "gig",
        -10.994512860749698
      ],
      [
        "formula",
        -10.994514430009657
      ],
      [
        "exclaim",
        -10.994534181732279
      ],
      [
        "bladder",
        -10.994627364523476
      ],
      [
        "strengthen",
        -10.994662483631632
      ],
      [
        "marsupial",
        -10.99467272070633
      ],
      [
        "Col",
        -10.994769195971669
      ],
      [
        "enjoyment",
        -10.994816032593107
      ],
      [
        "instruction",
        -10.994859467543328
      ],
      [
        "perpetual",
        -10.995009006112117
      ],
      [
        "specifie",
        -10.995177153722928
      ],
      [
        "numerical",
        -10.995239476254373
      ],
      [
        "cut",
        -10.996702758688684
      ],
      [
        "unluck",
        -10.996833918028543
      ],
      [
        "regressive",
        -10.996845451200135
      ],
      [
        "revolution",
        -10.996916633821435
      ],
      [
        "anticipation",
        -10.997258374442312
      ],
      [
        "worm",
        -10.9974005406022
      ],
      [
        "allowance",
        -10.997529892663497
      ],
      [
        "comprehensib",
        -10.99758647639141
      ],
      [
        "Alph",
        -10.997842291131933
      ],
      [
        "elope",
        -10.998337645788233
      ],
      [
        "idle",
        -10.999309689153101
      ],
      [
        "finger",
        -10.999378816069234
      ],
      [
        "presume",
        -11.002067940581309
      ],
      [
        "rar",
        -11.002385444268567
      ],
      [
        "ack",
        -11.003165620572078
      ],
      [
        "gaine",
        -11.003476573428701
      ],
      [
        "GEO",
        -11.00361650170113
      ],
      [
        "remind",
        -11.003925395759563
      ],
      [
        "izing",
        -11.004130753784283
      ],
      [
        "agent",
        -11.004209287781212
      ],
      [
        "ENTAL",
        -11.004627689243108
      ],
      [
        "pursuit",
        -11.004819740655035
      ],
      [
        "Part",
        -11.005527318200539
      ],
      [
        "carrier",
        -11.005864302327272
      ],
      [
        "Wat",
        -11.006877877776718
      ],
      [
        "super",
        -11.010498411897741
      ],
      [
        "impatient",
        -11.011414425128224
      ],
      [
        "physio",
        -11.012098017083815
      ],
      [
        "Fin",
        -11.012219255283028
      ],
      [
        "suitable",
        -11.015369797873529
      ],
      [
        "resembl",
        -11.017749112686369
      ],
      [
        "ward",
        -11.019827105959584
      ],
      [
        "Other",
        -11.022830968375851
      ],
      [
        "vex",
        -11.023085571022158
      ],
      [
        "civilis",
        -11.02417954983557
      ],
      [
        "_my",
        -11.024396789962323
      ],
      [
        "é",
        -11.025242919967232
      ],
      [
        "Paci",
        -11.025867840178861
      ],
      [
        "ame",
        -11.030951100388517
      ],
      [
        "lation",
        -11.03199504553212
      ],
      [
        "suck",
        -11.03241410371605
      ],
      [
        "matur",
        -11.032466661932427
      ],
      [
        "ped",
        -11.033930306733366
      ],
      [
        "Den",
        -11.037241214414307
      ],
      [
        "volit",
        -11.0422677414604
      ],
      [
        "fluctuat",
        -11.042386737235685
      ],
      [
        "fallaci",
        -11.043008587973981
      ],
      [
        "miserabl",
        -11.043341441708742
      ],
      [
        "conclud",
        -11.04649192332246
      ],
      [
        "movabl",
        -11.048058814415803
      ],
      [
        "devote",
        -11.048078511685361
      ],
      [
        "court",
        -11.050214547526643
      ],
      [
        "voluntar",
        -11.05220044771896
      ],
      [
        "unhapp",
        -11.052581776844145
      ],
      [
        "xperience",
        -11.052935347701371
      ],
      [
        "grieve",
        -11.05376456056733
      ],
      [
        "Com",
        -11.054110185255027
      ],
      [
        "ody",
        -11.055422442803494
      ],
      [
        "ascen",
        -11.05544081276451
      ],
      [
        "lowe",
        -11.05593092456073
      ],
      [
        "partie",
        -11.057276909478164
      ],
      [
        "hill",
        -11.05866916467891
      ],
      [
        "mamma",
        -11.060724634698516
      ],
      [
        "spine",
        -11.061518309046413
      ],
      [
        "exclud",
        -11.062025262128005
      ],
      [
        "50",
        -11.066206651306905
      ],
      [
        "criteri",
        -11.066594925481061
      ],
      [
        "arrang",
        -11.06692265598934
      ],
      [
        "du",
        -11.067660717822468
      ],
      [
        "Logic",
        -11.06829846804441
      ],
      [
        "instruct",
        -11.070752308276521
      ],
      [
        "embarrass",
        -11.070867190564329
      ],
      [
        "accura",
        -11.070892267000591
      ],
      [
        "triumph",
        -11.07121160450327
      ],
      [
        "°",
        -11.071287006987303
      ],
      [
        "metamorphosis",
        -11.071287006987303
      ],
      [
        "fragment",
        -11.071287034925383
      ],
      [
        "Instinct",
        -11.0712870421536
      ],
      [
        "phaenomen",
        -11.071287076745287
      ],
      [
        "flourish",
        -11.071287085142092
      ],
      [
        "scholastic",
        -11.071287150216074
      ],
      [
        "vibracul",
        -11.071289406996883
      ],
      [
        "Edward",
        -11.071289638511612
      ],
      [
        "crawl",
        -11.071289750895776
      ],
      [
        "prodigious",
        -11.071290301455829
      ],
      [
        "mathematician",
        -11.07129409741685
      ],
      [
        "accustom",
        -11.071308687704665
      ],
      [
        "congratulation",
        -11.071320916163803
      ],
      [
        "muscle",
        -11.071322310305069
      ],
      [
        "accompany",
        -11.071348871804876
      ],
      [
        "harmonize",
        -11.071361907228113
      ],
      [
        "Ocean",
        -11.071367287088314
      ],
      [
        "expense",
        -11.071400929905233
      ],
      [
        "dreadful",
        -11.071402983986225
      ],
      [
        "encounter",
        -11.071415624753651
      ],
      [
        "rabbit",
        -11.07144683913384
      ],
      [
        "ample",
        -11.071633001651737
      ],
      [
        "upward",
        -11.071705806659715
      ],
      [
        "transformation",
        -11.071845394221139
      ],
      [
        "honest",
        -11.071932381838238
      ],
      [
        "warn",
        -11.072104065262518
      ],
      [
        "udgements",
        -11.072111091475147
      ],
      [
        "appeal",
        -11.07227013988544
      ],
      [
        "heaven",
        -11.07229536660626
      ],
      [
        "ANTI",
        -11.072312222736784
      ],
      [
        "measurement",
        -11.072446825650008
      ],
      [
        "weakness",
        -11.0725269672872
      ],
      [
        "poison",
        -11.07254743990972
      ],
      [
        "Smit",
        -11.072639061861429
      ],
      [
        "lung",
        -11.072647376286598
      ],
      [
        "delay",
        -11.072823160638203
      ],
      [
        "joy",
        -11.072909275822486
      ],
      [
        "granit",
        -11.072923838566307
      ],
      [
        "dden",
        -11.07320114492233
      ],
      [
        "seque",
        -11.075104229941019
      ],
      [
        "broad",
        -11.076092391395195
      ],
      [
        "flore",
        -11.076189781494822
      ],
      [
        "gravit",
        -11.076835136274596
      ],
      [
        "abode",
        -11.077074420651764
      ],
      [
        "fancier",
        -11.077187975253198
      ],
      [
        "cella",
        -11.077717360838678
      ],
      [
        "Hop",
        -11.077950610872547
      ],
      [
        "substantial",
        -11.078648389600746
      ],
      [
        "mund",
        -11.079110907767962
      ],
      [
        "caste",
        -11.079188171655145
      ],
      [
        "calm",
        -11.07989768365361
      ],
      [
        "Philosoph",
        -11.080908703484305
      ],
      [
        "train",
        -11.082213505197213
      ],
      [
        "governe",
        -11.08231108063753
      ],
      [
        "travell",
        -11.083607505108349
      ],
      [
        "Tu",
        -11.087539138479274
      ],
      [
        "Who",
        -11.087770999062661
      ],
      [
        "laughing",
        -11.088095891181181
      ],
      [
        "indirect",
        -11.090225586474208
      ],
      [
        "recur",
        -11.090237631602056
      ],
      [
        "defend",
        -11.090444822456377
      ],
      [
        "plac",
        -11.09387031244479
      ],
      [
        "iller",
        -11.093988407459147
      ],
      [
        "walke",
        -11.098299654350098
      ],
      [
        "stalk",
        -11.09838774608642
      ],
      [
        "luck",
        -11.09859850504689
      ],
      [
        "willing",
        -11.101807022610187
      ],
      [
        "ng",
        -11.104447170482928
      ],
      [
        "cus",
        -11.104550560739849
      ],
      [
        "urg",
        -11.107821137305937
      ],
      [
        "chai",
        -11.111421891610066
      ],
      [
        "bur",
        -11.112466145142537
      ],
      [
        "Swi",
        -11.11307549125812
      ],
      [
        "speculat",
        -11.115325309449126
      ],
      [
        "Lo",
        -11.117683678546605
      ],
      [
        "46",
        -11.119116541932403
      ],
      [
        "abound",
        -11.119256534332179
      ],
      [
        "uneas",
        -11.121634014891189
      ],
      [
        "embrace",
        -11.122303301062075
      ],
      [
        "Eg",
        -11.124555087956175
      ],
      [
        "intersect",
        -11.126465827135817
      ],
      [
        "declar",
        -11.127375854811449
      ],
      [
        "75",
        -11.128083657669128
      ],
      [
        "pointed",
        -11.129238393837358
      ],
      [
        "press",
        -11.130102298578548
      ],
      [
        "weigh",
        -11.13136550798775
      ],
      [
        "acqui",
        -11.131528771320852
      ],
      [
        "delica",
        -11.13244552621913
      ],
      [
        "convenient",
        -11.136322808725286
      ],
      [
        "forbid",
        -11.136341373160128
      ],
      [
        "salt",
        -11.136752843758105
      ],
      [
        "indefinit",
        -11.136978884139733
      ],
      [
        "boundar",
        -11.13877120611564
      ],
      [
        "Geo",
        -11.140176221130766
      ],
      [
        "nerv",
        -11.143165242122466
      ],
      [
        "lion",
        -11.14336894050638
      ],
      [
        "See",
        -11.143791690907843
      ],
      [
        "inner",
        -11.144547340432137
      ],
      [
        "erect",
        -11.146543303998785
      ],
      [
        "bright",
        -11.147061805699247
      ],
      [
        "fix",
        -11.147211306892753
      ],
      [
        "confident",
        -11.147586964363434
      ],
      [
        "ratio",
        -11.148018684128115
      ],
      [
        "post",
        -11.150047567806089
      ],
      [
        "tract",
        -11.151078536013987
      ],
      [
        "argue",
        -11.151733953921632
      ],
      [
        "gate",
        -11.151808215003353
      ],
      [
        "Metaphysic",
        -11.152058024553597
      ],
      [
        "describ",
        -11.15216844630463
      ],
      [
        "ING",
        -11.154376833569666
      ],
      [
        "vertebræ",
        -11.154620340324675
      ],
      [
        "paralogism",
        -11.15462034032674
      ],
      [
        "carnivor",
        -11.154620340420017
      ],
      [
        "caterpillar",
        -11.15462034053841
      ],
      [
        "Hybrid",
        -11.15462034616079
      ],
      [
        "heterogene",
        -11.15462034656904
      ],
      [
        "cliff",
        -11.154620487949172
      ],
      [
        "disguise",
        -11.154620571008966
      ],
      [
        "purchase",
        -11.15462151564349
      ],
      [
        "capsule",
        -11.154621674257559
      ],
      [
        "LOGIC",
        -11.154621945326868
      ],
      [
        "Empiric",
        -11.154624344835197
      ],
      [
        "German",
        -11.154626871431152
      ],
      [
        "valley",
        -11.154627487180887
      ],
      [
        "rhomb",
        -11.154627984660785
      ],
      [
        "cruel",
        -11.15462963241889
      ],
      [
        "Insect",
        -11.154634003461604
      ],
      [
        "caution",
        -11.154656490006115
      ],
      [
        "deliver",
        -11.1546648621081
      ],
      [
        "hesitate",
        -11.15466901738061
      ],
      [
        "chamber",
        -11.154681847155356
      ],
      [
        "consult",
        -11.15471481789663
      ],
      [
        "Habit",
        -11.154715203242167
      ],
      [
        "wretched",
        -11.154720441417489
      ],
      [
        "Woll",
        -11.15472244847687
      ],
      [
        "blank",
        -11.154728963637602
      ],
      [
        "milk",
        -11.154773225053454
      ],
      [
        "tongue",
        -11.154795725645151
      ],
      [
        "smiling",
        -11.154796491474258
      ],
      [
        "coach",
        -11.154798707956056
      ],
      [
        "backward",
        -11.154863388979155
      ],
      [
        "Vari",
        -11.154894499725362
      ],
      [
        "foster",
        -11.154927470180487
      ],
      [
        "thankful",
        -11.154951566220904
      ],
      [
        "ignifie",
        -11.155480994741824
      ],
      [
        "insuperabl",
        -11.15553218218183
      ],
      [
        "premiss",
        -11.155604379090244
      ],
      [
        "pouter",
        -11.15566976265239
      ],
      [
        "TRI",
        -11.155676350760862
      ],
      [
        "solicit",
        -11.155695648433245
      ],
      [
        "historical",
        -11.155838619410078
      ],
      [
        "injure",
        -11.15606011047675
      ],
      [
        "outward",
        -11.156274715070538
      ],
      [
        "bank",
        -11.156482647415134
      ],
      [
        "urrie",
        -11.157440557459712
      ],
      [
        "disadvantage",
        -11.157542393611394
      ],
      [
        "differs",
        -11.15846368967363
      ],
      [
        "cutting",
        -11.159087105053295
      ],
      [
        "blush",
        -11.15944347650477
      ],
      [
        "oak",
        -11.15985557064475
      ],
      [
        "Use",
        -11.15985672845095
      ],
      [
        "fulfil",
        -11.160102450705494
      ],
      [
        "reduction",
        -11.160109960041945
      ],
      [
        "Rev",
        -11.160224184938734
      ],
      [
        "cover",
        -11.161328924098637
      ],
      [
        "Crustacean",
        -11.162001427541767
      ],
      [
        "pen",
        -11.162095779418717
      ],
      [
        "brain",
        -11.162477417776298
      ],
      [
        "32",
        -11.163271691391149
      ],
      [
        "aceous",
        -11.163964655296201
      ],
      [
        "morphi",
        -11.164184958934639
      ],
      [
        "listene",
        -11.164542730521141
      ],
      [
        "fellow",
        -11.164916982415384
      ],
      [
        "_You",
        -11.165010372298234
      ],
      [
        "alternate",
        -11.165437754848991
      ],
      [
        "flock",
        -11.165821076434753
      ],
      [
        "lateral",
        -11.166553028474725
      ],
      [
        "Par",
        -11.167799449627346
      ],
      [
        "Prote",
        -11.168167044349358
      ],
      [
        "gence",
        -11.168275986068073
      ],
      [
        "Plato",
        -11.169999231076922
      ],
      [
        "preferr",
        -11.17041746002247
      ],
      [
        "90",
        -11.170604293061364
      ],
      [
        "wander",
        -11.171298709204642
      ],
      [
        "resolv",
        -11.174971511632297
      ],
      [
        "Barr",
        -11.176045632133881
      ],
      [
        "trans",
        -11.176948157803091
      ],
      [
        "dogmatism",
        -11.177249250645424
      ],
      [
        "presumpti",
        -11.180209747059683
      ],
      [
        "thread",
        -11.180347539171159
      ],
      [
        "executi",
        -11.183689532737397
      ],
      [
        "teache",
        -11.186356509411556
      ],
      [
        "served",
        -11.186409323019669
      ],
      [
        "unconditional",
        -11.186652811554561
      ],
      [
        "Introduct",
        -11.187094279264524
      ],
      [
        "swarm",
        -11.187729788853673
      ],
      [
        "60",
        -11.188871462387509
      ],
      [
        "hole",
        -11.189544482588094
      ],
      [
        "j",
        -11.190957938067744
      ],
      [
        "school",
        -11.191186684334419
      ],
      [
        "rid",
        -11.194411481857667
      ],
      [
        "ger",
        -11.198326963953063
      ],
      [
        "compensat",
        -11.200769010379766
      ],
      [
        "arch",
        -11.20133667661511
      ],
      [
        "brea",
        -11.20188772705298
      ],
      [
        "ighting",
        -11.203108865768003
      ],
      [
        "til",
        -11.204973505577044
      ],
      [
        "45",
        -11.20549814360764
      ],
      [
        "physiolog",
        -11.20614296518673
      ],
      [
        "faint",
        -11.207001358678182
      ],
      [
        "ture",
        -11.207919652534775
      ],
      [
        "ultr",
        -11.208723421225859
      ],
      [
        "pond",
        -11.208979818397772
      ],
      [
        "diverge",
        -11.212362239397018
      ],
      [
        "cogita",
        -11.214621552042885
      ],
      [
        "heat",
        -11.215353941653206
      ],
      [
        "differentiat",
        -11.21547585986173
      ],
      [
        "istic",
        -11.215610729765709
      ],
      [
        "moth",
        -11.218551298815555
      ],
      [
        "unreasonabl",
        -11.221482991881567
      ],
      [
        "import",
        -11.223413782950598
      ],
      [
        "cum",
        -11.22375144174082
      ],
      [
        "rough",
        -11.22444450647457
      ],
      [
        "rctic",
        -11.224647463695016
      ],
      [
        "glo",
        -11.226660448604866
      ],
      [
        "consol",
        -11.227061671689546
      ],
      [
        "striv",
        -11.227190998389869
      ],
      [
        "witness",
        -11.228229779272434
      ],
      [
        "URE",
        -11.228290911222468
      ],
      [
        "arsi",
        -11.229999421093485
      ],
      [
        "lock",
        -11.230821547162845
      ],
      [
        "loft",
        -11.231880345517956
      ],
      [
        "Any",
        -11.232611199756386
      ],
      [
        "affords",
        -11.232709110492316
      ],
      [
        "ze",
        -11.234761082088799
      ],
      [
        "compel",
        -11.236164503559978
      ],
      [
        "contra",
        -11.238770291033761
      ],
      [
        "vis",
        -11.238928853251863
      ],
      [
        "revolv",
        -11.241664903418044
      ],
      [
        "counter",
        -11.242304115002531
      ],
      [
        "covering",
        -11.243150744144241
      ],
      [
        "phides",
        -11.24420249576826
      ],
      [
        "nutri",
        -11.244267559879097
      ],
      [
        "imitation",
        -11.244352358764136
      ],
      [
        "excess",
        -11.245244249063914
      ],
      [
        "ollar",
        -11.245407394424781
      ],
      [
        "aston",
        -11.245515188549497
      ],
      [
        "Himalaya",
        -11.245529434192317
      ],
      [
        "obstacle",
        -11.245529436277572
      ],
      [
        "Marsupial",
        -11.245529436999881
      ],
      [
        "exaggerate",
        -11.245529445902042
      ],
      [
        "extravagan",
        -11.245529448096537
      ],
      [
        "hexagon",
        -11.245529470847721
      ],
      [
        "sacrifice",
        -11.245529494280254
      ],
      [
        "dimension",
        -11.245529869439242
      ],
      [
        "morpholog",
        -11.245529998142722
      ],
      [
        "Among",
        -11.2455300367212
      ],
      [
        "announce",
        -11.245533537025718
      ],
      [
        "dispense",
        -11.245534448095258
      ],
      [
        "territor",
        -11.245536972177037
      ],
      [
        "parish",
        -11.24558227916872
      ],
      [
        "convey",
        -11.245595174898426
      ],
      [
        "couple",
        -11.245599503930121
      ],
      [
        "chicken",
        -11.24561266344767
      ],
      [
        "gnaw",
        -11.24575546497415
      ],
      [
        "normal",
        -11.245855443499451
      ],
      [
        "intuitive",
        -11.245882869007326
      ],
      [
        "disease",
        -11.24593511670301
      ],
      [
        "Variation",
        -11.245981026186413
      ],
      [
        "immortal",
        -11.245992347806265
      ],
      [
        "Grant",
        -11.246015213432994
      ],
      [
        "dirt",
        -11.246124320731631
      ],
      [
        "Water",
        -11.246125493137917
      ],
      [
        "eighteen",
        -11.246262845018888
      ],
      [
        "eternit",
        -11.246272718788429
      ],
      [
        "crowd",
        -11.246360931791772
      ],
      [
        "approximate",
        -11.246570182108574
      ],
      [
        "interruption",
        -11.246739198576204
      ],
      [
        "obstinate",
        -11.246929943405616
      ],
      [
        "optic",
        -11.247028851655495
      ],
      [
        "vexation",
        -11.247390423119981
      ],
      [
        "awaken",
        -11.247632510172139
      ],
      [
        "oulder",
        -11.247671185564776
      ],
      [
        "radi",
        -11.247780170065582
      ],
      [
        "squirrel",
        -11.248578841071534
      ],
      [
        "vital",
        -11.248623903665063
      ],
      [
        "pter",
        -11.248762467481697
      ],
      [
        "hunt",
        -11.249000293567576
      ],
      [
        "icte",
        -11.250786144757095
      ],
      [
        "existent",
        -11.250848358233382
      ],
      [
        "barb",
        -11.251329737849055
      ],
      [
        "susceptib",
        -11.252668846498546
      ],
      [
        "permissi",
        -11.252811146736763
      ],
      [
        "adhere",
        -11.253244125010085
      ],
      [
        "summon",
        -11.253290991942597
      ],
      [
        "tissue",
        -11.253415614187738
      ],
      [
        "offence",
        -11.253611740440151
      ],
      [
        "cent",
        -11.253712686259977
      ],
      [
        "186",
        -11.256084341252357
      ],
      [
        "perceiv",
        -11.25652670767036
      ],
      [
        "envelope",
        -11.257620958744626
      ],
      [
        "pursu",
        -11.258525182131805
      ],
      [
        "lly",
        -11.259318034825167
      ],
      [
[...]
