{
  "version": "1.0",
  "truncation": null,
  "padding": null,
  "added_tokens": [
    {
      "id": 0,
      "content": "[UNK]",
      "single_word": false,
      "lstrip": false,
      "rstrip": false,
      "normalized": false,
      "special": true
    },
    {
      "id": 1,
      "content": "[CLS]",
      "single_word": false,
      "lstrip": false,
      "rstrip": false,
      "normalized": false,
      "special": true
    },
    {
      "id": 2,
      "content": "[SEP]",
      "single_word": false,
      "lstrip": false,
      "rstrip": false,
      "normalized": false,
      "special": true
    },
    {
      "id": 3,
      "content": "[PAD]",
      "single_word": false,
      "lstrip": false,
      "rstrip": false,
      "normalized": false,
      "special": true
    },
    {
      "id": 4,
      "content": "[MASK]",
      "single_word": false,
      "lstrip": false,
      "rstrip": false,
      "normalized": false,
      "special": true
    }
  ],
  "normalizer": null,
  "pre_tokenizer": {
    "type": "Whitespace"
  },
  "post_processor": null,
  "decoder": null,
  "model": {
    "type": "WordPiece",
    "unk_token": "[UNK]",
    "continuing_subword_prefix": "##",
    "max_input_chars_per_word": 100,
    "vocab": {
      "[UNK]": 0,
      "[CLS]": 1,
      "[SEP]": 2,
      "[PAD]": 3,
      "[MASK]": 4,
      "!": 5,
      "&": 6,
      "(": 7,
      ")": 8,
      "*": 9,
      "+": 10,
      ",": 11,
      "-": 12,
      ".": 13,
      "/": 14,
      "0": 15,
      "1": 16,
      "2": 17,
      "3": 18,
      "4": 19,
      "5": 20,
      "6": 21,
      "7": 22,
      "8": 23,
      "9": 24,
      ":": 25,
      ";": 26,
      "=": 27,
      ">": 28,
      "?": 29,
      "A": 30,
      "B": 31,
      "C": 32,
      "D": 33,
      "E": 34,
      "F": 35,
      "G": 36,
      "H": 37,
      "I": 38,
      "J": 39,
      "K": 40,
      "L": 41,
      "M": 42,
      "N": 43,
      "O": 44,
      "P": 45,
      "Q": 46,
      "R": 47,
      "S": 48,
      "T": 49,
      "U": 50,
      "V": 51,
      "W": 52,
      "X": 53,
      "Y": 54,
      "Z": 55,
      "[": 56,
      "]": 57,
      "^": 58,
      "_": 59,
      "a": 60,
      "b": 61,
      "c": 62,
      "d": 63,
      "e": 64,
      "f": 65,
      "g": 66,
      "h": 67,
      "i": 68,
      "j": 69,
      "k": 70,
      "l": 71,
      "m": 72,
      "n": 73,
      "o": 74,
      "p": 75,
      "q": 76,
      "r": 77,
      "s": 78,
      "t": 79,
      "u": 80,
      "v": 81,
      "w": 82,
      "x": 83,
      "y": 84,
      "z": 85,
      "{": 86,
      "}": 87,
      "§": 88,
      "°": 89,
      "·": 90,
      "À": 91,
      "Æ": 92,
      "Ë": 93,
      "Ö": 94,
      "à": 95,
      "â": 96,
      "ä": 97,
      "æ": 98,
      "è": 99,
      "é": 100,
      "ê": 101,
      "ë": 102,
      "ô": 103,
      "ö": 104,
      "ü": 105,
      "Œ": 106,
      "œ": 107,
      "–": 108,
      "—": 109,
      "‘": 110,
      "’": 111,
      "“": 112,
      "”": 113,
      "##r": 114,
      "##a": 115,
      "##d": 116,
      "##i": 117,
      "##t": 118,
      "##o": 119,
      "##n": 120,
      "##g": 121,
      "##e": 122,
      "##l": 123,
      "##h": 124,
      "##y": 125,
      "##8": 126,
      "##0": 127,
      "##w": 128,
      "##s": 129,
      "##c": 130,
      "##u": 131,
      "##p": 132,
      "##v": 133,
      "##k": 134,
      "##b": 135,
      "##f": 136,
      "##m": 137,
      "##_": 138,
      "##x": 139,
      "##j": 140,
      "##N": 141,
      "##G": 142,
      "##U": 143,
      "##L": 144,
      "##A": 145,
      "##T": 146,
      "##’": 147,
      "##-": 148,
      "##“": 149,
      "##O": 150,
      "##R": 151,
      "##Y": 152,
      "##M": 153,
      "##B": 154,
      "##[": 155,
      "##z": 156,
      "##9": 157,
      "##2": 158,
      "##I": 159,
      "##E": 160,
      "##1": 161,
      "##6": 162,
      "##V": 163,
      "##é": 164,
      "##D": 165,
      "##S": 166,
      "##q": 167,
      "##5": 168,
      "##7": 169,
      "##4": 170,
      "##C": 171,
      "##H": 172,
      "##Z": 173,
      "##W": 174,
      "##/": 175,
      "##æ": 176,
      "##]": 177,
      "##K": 178,
      "##X": 179,
      "##3": 180,
      "##P": 181,
      "##ö": 182,
      "##—": 183,
      "##Æ": 184,
      "##–": 185,
      "##Ö": 186,
      "##)": 187,
      "##”": 188,
      "##;": 189,
      "##F": 190,
      "##Q": 191,
      "##.": 192,
      "##ê": 193,
      "##à": 194,
      "##,": 195,
      "##ë": 196,
      "##=": 197,
      "##‘": 198,
      "##è": 199,
      "##Œ": 200,
      "##â": 201,
      "##(": 202,
      "##§": 203,
      "##ä": 204,
      "##Ë": 205,
      "##{": 206,
      "##J": 207,
      "##ô": 208,
      "##>": 209,
      "##}": 210,
      "##?": 211,
      "##œ": 212,
      "##:": 213,
      "##ü": 214,
      "##*": 215,
      "th": 216,
      "##er": 217,
      "the": 218,
      "##on": 219,
      "##en": 220,
      "##in": 221,
      "of": 222,
      "##at": 223,
      "##es": 224,
      "##nd": 225,
      "##ed": 226,
      "##it": 227,
      "in": 228,
      "##ion": 229,
      "##or": 230,
      "##an": 231,
      "##ou": 232,
      "to": 233,
      "##is": 234,
      "##al": 235,
      "##ar": 236,
      "##ing": 237,
      "##ic": 238,
      "and": 239,
      "##ec": 240,
      "##ly": 241,
      "##re": 242,
      "be": 243,
      "##om": 244,
      "##as": 245,
      "wh": 246,
      "##ce": 247,
      "##ent": 248,
      "##le": 249,
      "##th": 250,
      "##ll": 251,
      "con": 252,
      "##st": 253,
      "##se": 254,
      "is": 255,
      "##ve": 256,
      "re": 257,
      "it": 258,
      "no": 259,
      "that": 260,
      "as": 261,
      "pr": 262,
      "##ect": 263,
      "ha": 264,
      "##ut": 265,
      "on": 266,
      "for": 267,
      "an": 268,
      "##ich": 269,
      "##ation": 270,
      "which": 271,
      "##ter": 272,
      "##ir": 273,
      "ex": 274,
      "##im": 275,
      "##ur": 276,
      "##ith": 277,
      "##ow": 278,
      "##ld": 279,
      "##gh": 280,
      "##ere": 281,
      "##os": 282,
      "not": 283,
      "with": 284,
      "or": 285,
      "su": 286,
      "##id": 287,
      "##ver": 288,
      "##ess": 289,
      "##he": 290,
      "##ies": 291,
      "##ac": 292,
      "##tion": 293,
      "##ition": 294,
      "##ay": 295,
      "##ther": 296,
      "##ity": 297,
      "by": 298,
      "##et": 299,
      "we": 300,
      "sp": 301,
      "##if": 302,
      "##am": 303,
      "have": 304,
      "##ab": 305,
      "##ist": 306,
      "##ain": 307,
      "this": 308,
      "fr": 309,
      "are": 310,
      "##od": 311,
      "se": 312,
      "##ence": 313,
      "##ould": 314,
      "##ul": 315,
      "st": 316,
      "all": 317,
      "from": 318,
      "at": 319,
      "##il": 320,
      "de": 321,
      "##pp": 322,
      "##ch": 323,
      "##og": 324,
      "##ge": 325,
      "##ate": 326,
      "##ure": 327,
      "##mp": 328,
      "##iv": 329,
      "but": 330,
      "##ical": 331,
      "can": 332,
      "##us": 333,
      "her": 334,
      "##ore": 335,
      "##ant": 336,
      "##ib": 337,
      "##ad": 338,
      "##ject": 339,
      "com": 340,
      "##ive": 341,
      "##ght": 342,
      "so": 343,
      "##end": 344,
      "pro": 345,
      "##bject": 346,
      "##est": 347,
      "spec": 348,
      "##ill": 349,
      "al": 350,
      "##cep": 351,
      "##oss": 352,
      "##ust": 353,
      "was": 354,
      "he": 355,
      "##our": 356,
      "##ous": 357,
      "##li": 358,
      "un": 359,
      "##and": 360,
      "##ol": 361,
      "other": 362,
      "form": 363,
      "ac": 364,
      "##ome": 365,
      "##ception": 366,
      "##um": 367,
      "The": 368,
      "int": 369,
      "sh": 370,
      "##ame": 371,
      "been": 372,
      "##qu": 373,
      "##inc": 374,
      "me": 375,
      "##sel": 376,
      "##uc": 377,
      "exp": 378,
      "per": 379,
      "species": 380,
      "man": 381,
      "ch": 382,
      "their": 383,
      "ne": 384,
      "##ans": 385,
      "they": 386,
      "##fer": 387,
      "##tain": 388,
      "nat": 389,
      "par": 390,
      "its": 391,
      "##able": 392,
      "there": 393,
      "und": 394,
      "##ough": 395,
      "tr": 396,
      "##ance": 397,
      "object": 398,
      "##ari": 399,
      "##ot": 400,
      "conception": 401,
      "##ak": 402,
      "has": 403,
      "##ard": 404,
      "under": 405,
      "she": 406,
      "##ose": 407,
      "##ment": 408,
      "do": 409,
      "you": 410,
      "one": 411,
      "##ason": 412,
      "would": 413,
      "any": 414,
      "his": 415,
      "ab": 416,
      "some": 417,
      "##ple": 418,
      "##all": 419,
      "had": 420,
      "##dition": 421,
      "dif": 422,
      "ad": 423,
      "only": 424,
      "poss": 425,
      "##ally": 426,
      "may": 427,
      "##ations": 428,
      "same": 429,
      "##ong": 430,
      "pl": 431,
      "will": 432,
      "gen": 433,
      "##esent": 434,
      "must": 435,
      "##ig": 436,
      "Mr": 437,
      "them": 438,
      "our": 439,
      "reason": 440,
      "##ary": 441,
      "more": 442,
      "##self": 443,
      "##op": 444,
      "##ap": 445,
      "exist": 446,
      "gr": 447,
      "part": 448,
      "But": 449,
      "##ud": 450,
      "Th": 451,
      "##ible": 452,
      "##ost": 453,
      "ph": 454,
      "##ens": 455,
      "##em": 456,
      "##ff": 457,
      "##ind": 458,
      "##ated": 459,
      "tim": 460,
      "vari": 461,
      "##pr": 462,
      "##ach": 463,
      "condition": 464,
      "##ection": 465,
      "app": 466,
      "these": 467,
      "##ord": 468,
      "dis": 469,
      "gener": 470,
      "qu": 471,
      "##eri": 472,
      "time": 473,
      "imp": 474,
      "if": 475,
      "differ": 476,
      "en": 477,
      "##thing": 478,
      "##now": 479,
      "##ight": 480,
      "my": 481,
      "cont": 482,
      "##ery": 483,
      "##ound": 484,
      "such": 485,
      "ind": 486,
      "than": 487,
      "##ish": 488,
      "##au": 489,
      "being": 490,
      "##ort": 491,
      ".”": 492,
      "##term": 493,
      "##reat": 494,
      "##ace": 495,
      "##ility": 496,
      "##ers": 497,
      "str": 498,
      "cas": 499,
      "ev": 500,
      "rel": 501,
      "##out": 502,
      "##fore": 503,
      "very": 504,
      "cons": 505,
      "le": 506,
      "##ult": 507,
      "acc": 508,
      "him": 509,
      "us": 510,
      "cog": 511,
      "were": 512,
      "emp": 513,
      "ever": 514,
      "reg": 515,
      "cl": 516,
      "know": 517,
      "dist": 518,
      "when": 519,
      "##ted": 520,
      "how": 521,
      "##ew": 522,
      "could": 523,
      "##oll": 524,
      "##ite": 525,
      "##stand": 526,
      "##ip": 527,
      "##ied": 528,
      "who": 529,
      "sy": 530,
      "##el": 531,
      "wor": 532,
      "tw": 533,
      "##ine": 534,
      "##als": 535,
      "##ural": 536,
      "##ree": 537,
      "prop": 538,
      "giv": 539,
      "##ently": 540,
      "##uch": 541,
      "##ecess": 542,
      "In": 543,
      "##aw": 544,
      "mere": 545,
      "##act": 546,
      "great": 547,
      "##ear": 548,
      "##ertain": 549,
      "ar": 550,
      "##not": 551,
      "##ond": 552,
      "It": 553,
      "##cc": 554,
      "##omen": 555,
      "experi": 556,
      "understand": 557,
      "what": 558,
      "necess": 559,
      "cannot": 560,
      "res": 561,
      "am": 562,
      "##cend": 563,
      "each": 564,
      "princ": 565,
      "experience": 566,
      "##enomen": 567,
      "ext": 568,
      "##one": 569,
      "bec": 570,
      "##ause": 571,
      "##ings": 572,
      "##ast": 573,
      "##un": 574,
      "phenomen": 575,
      "##ely": 576,
      "nature": 577,
      "certain": 578,
      "repr": 579,
      "##ag": 580,
      "cogn": 581,
      "up": 582,
      "determ": 583,
      "rem": 584,
      "natural": 585,
      "##her": 586,
      "##ants": 587,
      "mod": 588,
      "comp": 589,
      "##ves": 590,
      "##oun": 591,
      "two": 592,
      "intu": 593,
      "id": 594,
      "cr": 595,
      "pure": 596,
      "many": 597,
      "##ces": 598,
      "##ci": 599,
      "ag": 600,
      "given": 601,
      "##ori": 602,
      "bet": 603,
      "trans": 604,
      "##ass": 605,
      "sel": 606,
      "possible": 607,
      "##osition": 608,
      "##ok": 609,
      "##inct": 610,
      "##ality": 611,
      "##ake": 612,
      "intuition": 613,
      "every": 614,
      "att": 615,
      "most": 616,
      "fir": 617,
      "much": 618,
      "sub": 619,
      "go": 620,
      "li": 621,
      "##ell": 622,
      "understanding": 623,
      "represent": 624,
      "itself": 625,
      "into": 626,
      "des": 627,
      "##eth": 628,
      "conditions": 629,
      "org": 630,
      "##cy": 631,
      "##way": 632,
      "conceptions": 633,
      "should": 634,
      "case": 635,
      "##ental": 636,
      "##age": 637,
      "##les": 638,
      "char": 639,
      "without": 640,
      "rec": 641,
      "##other": 642,
      "present": 643,
      "##ress": 644,
      "even": 645,
      "##ise": 646,
      "##oduc": 647,
      "existence": 648,
      "##ert": 649,
      "first": 650,
      "subject": 651,
      "inter": 652,
      "Eli": 653,
      "##olog": 654,
      "ide": 655,
      "Eliz": 656,
      "For": 657,
      "cognition": 658,
      "##ved": 659,
      "inc": 660,
      "determin": 661,
      "##ving": 662,
      "inst": 663,
      "##irical": 664,
      "##mon": 665,
      "pri": 666,
      "sa": 667,
      "empirical": 668,
      "##abeth": 669,
      "Elizabeth": 670,
      "thr": 671,
      "##sequ": 672,
      "forms": 673,
      "##acter": 674,
      "##een": 675,
      "##ought": 676,
      "##ific": 677,
      "##ep": 678,
      "character": 679,
      "##ber": 680,
      "##igh": 681,
      "##ink": 682,
      "priori": 683,
      "##ected": 684,
      "see": 685,
      "ser": 686,
      "sens": 687,
      "##itt": 688,
      "far": 689,
      "therefore": 690,
      "different": 691,
      "regard": 692,
      "##iz": 693,
      "##lie": 694,
      "never": 695,
      "variet": 696,
      "world": 697,
      "lik": 698,
      "ob": 699,
      "##ue": 700,
      "anim": 701,
      "phenomena": 702,
      "thus": 703,
      "##ry": 704,
      "##ider": 705,
      "##ang": 706,
      "supp": 707,
      "ass": 708,
      "lo": 709,
      "long": 710,
      "##oth": 711,
      "means": 712,
      ",”": 713,
      "##ount": 714,
      "##led": 715,
      "br": 716,
      "those": 717,
      "##ness": 718,
      "num": 719,
      "##ial": 720,
      "pre": 721,
      "through": 722,
      "##ibility": 723,
      "im": 724,
      "comple": 725,
      "consider": 726,
      "##ween": 727,
      "belie": 728,
      "##nth": 729,
      "##ever": 730,
      "then": 731,
      "##av": 732,
      "between": 733,
      "objects": 734,
      "accord": 735,
      "well": 736,
      "##ual": 737,
      "##ful": 738,
      "##atter": 739,
      "##ner": 740,
      "##ark": 741,
      "said": 742,
      "though": 743,
      "ow": 744,
      "##ro": 745,
      "##ile": 746,
      "##ether": 747,
      "synth": 748,
      "##cendental": 749,
      "high": 750,
      "law": 751,
      "##oin": 752,
      "##its": 753,
      "##ory": 754,
      "perf": 755,
      "abs": 756,
      "nothing": 757,
      "We": 758,
      "##ten": 759,
      "aff": 760,
      "disc": 761,
      "fl": 762,
      "consequ": 763,
      "now": 764,
      "merely": 765,
      "say": 766,
      "##ire": 767,
      "##ative": 768,
      "##uct": 769,
      "##fter": 770,
      "conc": 771,
      "think": 772,
      "produc": 773,
      "selection": 774,
      "##ife": 775,
      "##ited": 776,
      "##selves": 777,
      "Wh": 778,
      "##ways": 779,
      "unity": 780,
      "found": 781,
      "##ane": 782,
      "necessary": 783,
      "things": 784,
      "always": 785,
      "relation": 786,
      "organ": 787,
      "##ingle": 788,
      "##ower": 789,
      "##nal": 790,
      "general": 791,
      "##fin": 792,
      "might": 793,
      "your": 794,
      "fact": 795,
      "##arly": 796,
      "sim": 797,
      "thought": 798,
      "##over": 799,
      "does": 800,
      "occ": 801,
      "##ither": 802,
      "##ys": 803,
      "##ide": 804,
      "##ange": 805,
      "##tions": 806,
      "jud": 807,
      "##ions": 808,
      "varieties": 809,
      "upon": 810,
      "##iple": 811,
      "##str": 812,
      "This": 813,
      "##ather": 814,
      "whole": 815,
      "##olut": 816,
      "##oc": 817,
      "plants": 818,
      "##ollow": 819,
      "less": 820,
      "##iss": 821,
      "lar": 822,
      "—,": 823,
      "own": 824,
      "##vers": 825,
      "appear": 826,
      "conn": 827,
      "call": 828,
      "##ily": 829,
      "follow": 830,
      "transcendental": 831,
      "principle": 832,
      "life": 833,
      "ins": 834,
      "##ects": 835,
      "shall": 836,
      "If": 837,
      "Dar": 838,
      "eff": 839,
      "out": 840,
      "having": 841,
      "animals": 842,
      "Darcy": 843,
      "),": 844,
      "fe": 845,
      "##fic": 846,
      "##edi": 847,
      "##ts": 848,
      "again": 849,
      "ca": 850,
      "##ade": 851,
      "former": 852,
      "contin": 853,
      "##ense": 854,
      "##ates": 855,
      "##oub": 856,
      "##ents": 857,
      "another": 858,
      "ord": 859,
      "princip": 860,
      "manner": 861,
      "common": 862,
      "adm": 863,
      "however": 864,
      "according": 865,
      "##own": 866,
      "because": 867,
      "##ivid": 868,
      "cause": 869,
      "kind": 870,
      "whether": 871,
      "##orm": 872,
      "##so": 873,
      "##are": 874,
      "after": 875,
      "prob": 876,
      "##vel": 877,
      "import": 878,
      "lim": 879,
      "##old": 880,
      "##br": 881,
      "sever": 882,
      "##lo": 883,
      "##osed": 884,
      "##light": 885,
      "distinct": 886,
      "end": 887,
      "space": 888,
      "##eds": 889,
      "##ady": 890,
      "idea": 891,
      "use": 892,
      "##ie": 893,
      "##land": 894,
      "deg": 895,
      "##ism": 896,
      "##ick": 897,
      "before": 898,
      "parts": 899,
      "judge": 900,
      "##ious": 901,
      "##ably": 902,
      "contr": 903,
      "absolut": 904,
      "litt": 905,
      "several": 906,
      "##esis": 907,
      "##iod": 908,
      "period": 909,
      "##ediate": 910,
      "##ward": 911,
      "also": 912,
      "adv": 913,
      "principles": 914,
      "##ng": 915,
      "often": 916,
      "new": 917,
      "alone": 918,
      "##ulty": 919,
      "He": 920,
      "little": 921,
      "perfect": 922,
      "consequently": 923,
      "##ia": 924,
      "contain": 925,
      "pres": 926,
      "##igin": 927,
      "series": 928,
      "##uth": 929,
      "##erm": 930,
      "seem": 931,
      "make": 932,
      "##up": 933,
      "proposition": 934,
      "##ird": 935,
      "state": 936,
      "##te": 937,
      "##urn": 938,
      "happ": 939,
      "##emp": 940,
      "##stem": 941,
      "good": 942,
      "find": 943,
      "##uous": 944,
      "##enn": 945,
      "##though": 946,
      "##oup": 947,
      "##arr": 948,
      "cor": 949,
      "vi": 950,
      "conf": 951,
      "struct": 952,
      "still": 953,
      "number": 954,
      "did": 955,
      "##ences": 956,
      "like": 957,
      "hy": 958,
      "op": 959,
      "over": 960,
      "sm": 961,
      "##ice": 962,
      "##ope": 963,
      "resp": 964,
      "cases": 965,
      "look": 966,
      "On": 967,
      "##uring": 968,
      "Mrs": 969,
      "bre": 970,
      "individ": 971,
      "##ived": 972,
      "##ments": 973,
      "sense": 974,
      "possibility": 975,
      "both": 976,
      "themselves": 977,
      "system": 978,
      "Benn": 979,
      "##long": 980,
      "Bennet": 981,
      "sec": 982,
      "sur": 983,
      "##here": 984,
      "##ict": 985,
      "##quir": 986,
      "ques": 987,
      "yet": 988,
      "group": 989,
      "##ified": 990,
      "##ished": 991,
      "And": 992,
      "give": 993,
      "pur": 994,
      "sc": 995,
      "succ": 996,
      "caus": 997,
      "success": 998,
      "##avour": 999,
      "##par": 1000,
      "thing": 1001,
      "poin": 1002,
      "mat": 1003,
      "##ked": 1004,
      "##ances": 1005,
      "expl": 1006,
      "possess": 1007,
      "val": 1008,
      "remark": 1009,
      "view": 1010,
      "##mat": 1011,
      "She": 1012,
      "##rem": 1013,
      "##ological": 1014,
      "origin": 1015,
      "young": 1016,
      "place": 1017,
      "class": 1018,
      "made": 1019,
      "belong": 1020,
      "unc": 1021,
      "obs": 1022,
      "where": 1023,
      "rep": 1024,
      "although": 1025,
      "##mb": 1026,
      "doub": 1027,
      "here": 1028,
      "nor": 1029,
      "##rib": 1030,
      "either": 1031,
      "##most": 1032,
      "emplo": 1033,
      "##ification": 1034,
      "degree": 1035,
      "act": 1036,
      "Bingle": 1037,
      "Miss": 1038,
      "hand": 1039,
      "dec": 1040,
      "few": 1041,
      "just": 1042,
      "##ised": 1043,
      "quite": 1044,
      "##etical": 1045,
      "imm": 1046,
      "called": 1047,
      "something": 1048,
      "employ": 1049,
      "inv": 1050,
      "const": 1051,
      "Bingley": 1052,
      "##ister": 1053,
      "cross": 1054,
      "fam": 1055,
      "##ins": 1056,
      "##ists": 1057,
      "soon": 1058,
      "##velop": 1059,
      "mind": 1060,
      "##ustr": 1061,
      "Jane": 1062,
      "exam": 1063,
      "believe": 1064,
      "laws": 1065,
      "become": 1066,
      "##ood": 1067,
      "##ign": 1068,
      "dom": 1069,
      "latter": 1070,
      "sister": 1071,
      "?”": 1072,
      "way": 1073,
      "fac": 1074,
      "opp": 1075,
      "develop": 1076,
      "diffic": 1077,
      "during": 1078,
      "##osop": 1079,
      "##ilosop": 1080,
      "large": 1081,
      "close": 1082,
      "discover": 1083,
      "anal": 1084,
      "##ceed": 1085,
      "##lic": 1086,
      "synthesis": 1087,
      "structure": 1088,
      "Now": 1089,
      "##ention": 1090,
      "ground": 1091,
      "respect": 1092,
      "##ular": 1093,
      "##ail": 1094,
      "##ledge": 1095,
      "bird": 1096,
      "As": 1097,
      "##ici": 1098,
      "chang": 1099,
      "##hab": 1100,
      "count": 1101,
      "ent": 1102,
      "concl": 1103,
      "obser": 1104,
      "##ivers": 1105,
      "almost": 1106,
      "term": 1107,
      "##ove": 1108,
      "inhab": 1109,
      "philosop": 1110,
      "##gg": 1111,
      "hab": 1112,
      "order": 1113,
      "real": 1114,
      "inde": 1115,
      "power": 1116,
      "##ually": 1117,
      "dep": 1118,
      "ill": 1119,
      "slight": 1120,
      "es": 1121,
      "generally": 1122,
      "least": 1123,
      "three": 1124,
      "##hap": 1125,
      "##ks": 1126,
      "add": 1127,
      "##cious": 1128,
      "toge": 1129,
      "subst": 1130,
      "##ize": 1131,
      "together": 1132,
      "day": 1133,
      "##ase": 1134,
      "##itut": 1135,
      "##estic": 1136,
      "small": 1137,
      "--": 1138,
      "beg": 1139,
      "while": 1140,
      "proper": 1141,
      "name": 1142,
      "##fl": 1143,
      "##iment": 1144,
      "arr": 1145,
      "##ating": 1146,
      "ple": 1147,
      "##ave": 1148,
      "knowledge": 1149,
      "let": 1150,
      "dir": 1151,
      "mor": 1152,
      "##ty": 1153,
      "##of": 1154,
      "##ater": 1155,
      "hum": 1156,
      "ge": 1157,
      "herself": 1158,
      "change": 1159,
      "remain": 1160,
      "off": 1161,
      "express": 1162,
      "question": 1163,
      "##ced": 1164,
      "too": 1165,
      "word": 1166,
      "bl": 1167,
      "##iving": 1168,
      "##ude": 1169,
      "log": 1170,
      "sci": 1171,
      "sensuous": 1172,
      "ro": 1173,
      "##ateg": 1174,
      "##cept": 1175,
      "representation": 1176,
      "purp": 1177,
      "pass": 1178,
      "rest": 1179,
      "##sw": 1180,
      "##lied": 1181,
      "domestic": 1182,
      "intell": 1183,
      "answ": 1184,
      "genera": 1185,
      "corr": 1186,
      "##usion": 1187,
      "descend": 1188,
      "##wards": 1189,
      "feel": 1190,
      "tend": 1191,
      "##ule": 1192,
      "imposs": 1193,
      "inhabit": 1194,
      "reality": 1195,
      "doubt": 1196,
      "cour": 1197,
      "##less": 1198,
      "##king": 1199,
      "##--": 1200,
      "##imate": 1201,
      "show": 1202,
      "##ning": 1203,
      "##ham": 1204,
      "##ph": 1205,
      "exter": 1206,
      "categ": 1207,
      "exc": 1208,
      "others": 1209,
      "##omet": 1210,
      "synthetical": 1211,
      "met": 1212,
      "manif": 1213,
      "philosoph": 1214,
      "pleas": 1215,
      "##ody": 1216,
      "comm": 1217,
      "last": 1218,
      "within": 1219,
      "known": 1220,
      "constitut": 1221,
      "answer": 1222,
      "partic": 1223,
      "produced": 1224,
      ".,": 1225,
      "prog": 1226,
      "sphere": 1227,
      "about": 1228,
      "When": 1229,
      "ele": 1230,
      "##itted": 1231,
      "##owers": 1232,
      "conscious": 1233,
      "dr": 1234,
      "fert": 1235,
      "grad": 1236,
      "determined": 1237,
      "second": 1238,
      "sl": 1239,
      "take": 1240,
      "perception": 1241,
      "equ": 1242,
      "##asion": 1243,
      "##finite": 1244,
      ".—": 1245,
      "stand": 1246,
      "They": 1247,
      "disp": 1248,
      "evid": 1249,
      "instance": 1250,
      "##brid": 1251,
      "##ities": 1252,
      "##ulative": 1253,
      "objective": 1254,
      "##ffici": 1255,
      "characters": 1256,
      "birds": 1257,
      "impossible": 1258,
      "cir": 1259,
      "##red": 1260,
      "Thus": 1261,
      "tak": 1262,
      "##ency": 1263,
      "internal": 1264,
      "fre": 1265,
      "el": 1266,
      "##mer": 1267,
      "##ination": 1268,
      "island": 1269,
      "##aph": 1270,
      "important": 1271,
      "indeed": 1272,
      "##yond": 1273,
      "##uce": 1274,
      "##unc": 1275,
      "judgement": 1276,
      "purpose": 1277,
      "external": 1278,
      "bas": 1279,
      "##ught": 1280,
      "true": 1281,
      "advant": 1282,
      "incre": 1283,
      "absolutely": 1284,
      "family": 1285,
      "come": 1286,
      "##ended": 1287,
      "##uction": 1288,
      "sat": 1289,
      "##arily": 1290,
      "quant": 1291,
      "modified": 1292,
      "##haps": 1293,
      "est": 1294,
      "favour": 1295,
      "spe": 1296,
      "##ability": 1297,
      "Ly": 1298,
      "##ged": 1299,
      "seen": 1300,
      "faculty": 1301,
      "You": 1302,
      "organs": 1303,
      "ought": 1304,
      "beyond": 1305,
      "##reme": 1306,
      "##uals": 1307,
      "##bl": 1308,
      "##iness": 1309,
      "##ors": 1310,
      "relations": 1311,
      "complete": 1312,
      "hybrid": 1313,
      "There": 1314,
      "myself": 1315,
      "compar": 1316,
      "groups": 1317,
      "interm": 1318,
      "prev": 1319,
      "##iar": 1320,
      "##ribut": 1321,
      "##ons": 1322,
      "##ield": 1323,
      "Wick": 1324,
      "rule": 1325,
      "##app": 1326,
      "hear": 1327,
      "above": 1328,
      "phenomenon": 1329,
      "certainly": 1330,
      "connection": 1331,
      "Wickham": 1332,
      "col": 1333,
      "wish": 1334,
      "##ene": 1335,
      "##ale": 1336,
      "truth": 1337,
      "occasion": 1338,
      "individuals": 1339,
      "point": 1340,
      "Coll": 1341,
      "co": 1342,
      "cle": 1343,
      "ear": 1344,
      "##man": 1345,
      "##ath": 1346,
      "really": 1347,
      "##aces": 1348,
      "cogit": 1349,
      "set": 1350,
      "inher": 1351,
      "##reh": 1352,
      "##ics": 1353,
      "closely": 1354,
      "Collins": 1355,
      "ey": 1356,
      "necessity": 1357,
      "perfectly": 1358,
      "namely": 1359,
      "Ch": 1360,
      "action": 1361,
      "pers": 1362,
      "better": 1363,
      "seems": 1364,
      "circ": 1365,
      "##ern": 1366,
      "representations": 1367,
      "pec": 1368,
      "##iend": 1369,
      "friend": 1370,
      "differences": 1371,
      "considered": 1372,
      "##pec": 1373,
      "ant": 1374,
      "##augh": 1375,
      "beings": 1376,
      "arg": 1377,
      "science": 1378,
      "away": 1379,
      "side": 1380,
      "year": 1381,
      "##isf": 1382,
      "##ustration": 1383,
      "course": 1384,
      "##ories": 1385,
      "read": 1386,
      "genus": 1387,
      "simple": 1388,
      "hard": 1389,
      "ster": 1390,
      "##und": 1391,
      "infer": 1392,
      "##inction": 1393,
      "able": 1394,
      "himself": 1395,
      "occur": 1396,
      "advantage": 1397,
      "wid": 1398,
      "crit": 1399,
      "valid": 1400,
      "pecul": 1401,
      "ret": 1402,
      "##imes": 1403,
      "##ology": 1404,
      "explain": 1405,
      "immediate": 1406,
      "##ilar": 1407,
      "instinct": 1408,
      "##ouse": 1409,
      "##ured": 1410,
      "self": 1411,
      "##ometimes": 1412,
      "intermediate": 1413,
      "##ially": 1414,
      "##ack": 1415,
      "difference": 1416,
      "work": 1417,
      "contrad": 1418,
      "##ex": 1419,
      "main": 1420,
      "##esp": 1421,
      "perhaps": 1422,
      "existing": 1423,
      "effect": 1424,
      "matter": 1425,
      "vis": 1426,
      "##air": 1427,
      "##ER": 1428,
      "requ": 1429,
      "importance": 1430,
      "absolute": 1431,
      "intellig": 1432,
      "peculiar": 1433,
      "hope": 1434,
      "water": 1435,
      "##ft": 1436,
      "dear": 1437,
      "modification": 1438,
      "speak": 1439,
      "sometimes": 1440,
      "##rit": 1441,
      "mode": 1442,
      "attemp": 1443,
      "incl": 1444,
      "country": 1445,
      "##ix": 1446,
      "##edic": 1447,
      "suffici": 1448,
      "All": 1449,
      "##dia": 1450,
      "##hemat": 1451,
      "ideas": 1452,
      "##ild": 1453,
      "room": 1454,
      "Lydia": 1455,
      "rend": 1456,
      "##ian": 1457,
      "##atic": 1458,
      "conv": 1459,
      "##ension": 1460,
      "argum": 1461,
      "Ill": 1462,
      "eas": 1463,
      "##ened": 1464,
      "result": 1465,
      "imag": 1466,
      "cap": 1467,
      "single": 1468,
      "why": 1469,
      "resem": 1470,
      "depend": 1471,
      "Hence": 1472,
      "div": 1473,
      "separ": 1474,
      "nearly": 1475,
      "That": 1476,
      "desc": 1477,
      "interest": 1478,
      "manifold": 1479,
      "fin": 1480,
      "##ince": 1481,
      "sup": 1482,
      "impro": 1483,
      "example": 1484,
      "human": 1485,
      "particular": 1486,
      "consciousness": 1487,
      "Re": 1488,
      "##eng": 1489,
      "##ica": 1490,
      "facts": 1491,
      "auth": 1492,
      "sou": 1493,
      "greater": 1494,
      "necessarily": 1495,
      "rece": 1496,
      "organic": 1497,
      "colour": 1498,
      "emb": 1499,
      "mar": 1500,
      "##ued": 1501,
      "tot": 1502,
      "prec": 1503,
      "variations": 1504,
      "corresp": 1505,
      "correspond": 1506,
      "##ont": 1507,
      "determination": 1508,
      "insects": 1509,
      "difficulty": 1510,
      "satisf": 1511,
      "With": 1512,
      "rather": 1513,
      "proceed": 1514,
      "univers": 1515,
      "##uck": 1516,
      "probably": 1517,
      "developed": 1518,
      "widely": 1519,
      "Amer": 1520,
      "##iver": 1521,
      "categories": 1522,
      "Illustration": 1523,
      "##ese": 1524,
      "mean": 1525,
      "highest": 1526,
      "successive": 1527,
      "mother": 1528,
      "theory": 1529,
      "##isation": 1530,
      "various": 1531,
      "limits": 1532,
      "No": 1533,
      "best": 1534,
      "##inary": 1535,
      "pract": 1536,
      "shown": 1537,
      "uncon": 1538,
      "substance": 1539,
      "dest": 1540,
      "mak": 1541,
      "##tr": 1542,
      "##ingu": 1543,
      "once": 1544,
      "gu": 1545,
      "proof": 1546,
      "adap": 1547,
      "##ages": 1548,
      "follows": 1549,
      "habits": 1550,
      "##ength": 1551,
      "ut": 1552,
      "sure": 1553,
      "formed": 1554,
      "enough": 1555,
      "entire": 1556,
      "To": 1557,
      "##ides": 1558,
      "allied": 1559,
      "##arri": 1560,
      "##ters": 1561,
      "phys": 1562,
      "old": 1563,
      "##oid": 1564,
      "predic": 1565,
      "##ures": 1566,
      "##oduce": 1567,
      "short": 1568,
      "similar": 1569,
      "##ock": 1570,
      "changes": 1571,
      "dog": 1572,
      "right": 1573,
      "##bour": 1574,
      "anything": 1575,
      "distingu": 1576,
      "quantity": 1577,
      "##know": 1578,
      "requir": 1579,
      "determine": 1580,
      "inhabitants": 1581,
      "render": 1582,
      "left": 1583,
      "islands": 1584,
      "enter": 1585,
      "ran": 1586,
      "##upp": 1587,
      "##ready": 1588,
      "allow": 1589,
      "##epend": 1590,
      "connected": 1591,
      "constr": 1592,
      "already": 1593,
      "philosophy": 1594,
      "living": 1595,
      "##ined": 1596,
      "ourselves": 1597,
      "fel": 1598,
      "free": 1599,
      "gl": 1600,
      "land": 1601,
      "##tely": 1602,
      "##rel": 1603,
      "speculative": 1604,
      "analog": 1605,
      "Con": 1606,
      "Lady": 1607,
      "##erous": 1608,
      "##amm": 1609,
      "content": 1610,
      "strong": 1611,
      "individual": 1612,
      "hardly": 1613,
      ",--": 1614,
      "down": 1615,
      "mark": 1616,
      "These": 1617,
      "suppose": 1618,
      "completely": 1619,
      "mathemat": 1620,
      "18": 1621,
      "mom": 1622,
      "##ull": 1623,
      "seeds": 1624,
      "parent": 1625,
      "account": 1626,
      "##eless": 1627,
      "preser": 1628,
      "hyp": 1629,
      "hybrids": 1630,
      "uncondition": 1631,
      "How": 1632,
      "cre": 1633,
      "four": 1634,
      "father": 1635,
      "##ke": 1636,
      "infinite": 1637,
      "##omp": 1638,
      "causes": 1639,
      "logical": 1640,
      "My": 1641,
      "##ra": 1642,
      "##ON": 1643,
      "proc": 1644,
      "independ": 1645,
      "animal": 1646,
      "contains": 1647,
      "slow": 1648,
      "divis": 1649,
      "Of": 1650,
      "##rees": 1651,
      "##osite": 1652,
      "acqu": 1653,
      "begin": 1654,
      "fur": 1655,
      "house": 1656,
      "pi": 1657,
      "ded": 1658,
      "te": 1659,
      "##tic": 1660,
      "##iction": 1661,
      "head": 1662,
      "sensibility": 1663,
      "return": 1664,
      "fish": 1665,
      "##rr": 1666,
      "##ting": 1667,
      "flowers": 1668,
      "direct": 1669,
      "daugh": 1670,
      "tal": 1671,
      "turn": 1672,
      "##ook": 1673,
      "##lem": 1674,
      "near": 1675,
      "opin": 1676,
      "immediately": 1677,
      "wal": 1678,
      "want": 1679,
      "##aut": 1680,
      "##ately": 1681,
      "applic": 1682,
      "against": 1683,
      "breeds": 1684,
      "causality": 1685,
      "taken": 1686,
      "##gn": 1687,
      "##TI": 1688,
      "intr": 1689,
      "exists": 1690,
      "##onder": 1691,
      "What": 1692,
      "done": 1693,
      "vary": 1694,
      "##tle": 1695,
      "inf": 1696,
      "##ales": 1697,
      "except": 1698,
      "##abl": 1699,
      "##uss": 1700,
      "breed": 1701,
      "years": 1702,
      "Cather": 1703,
      "since": 1704,
      "##ger": 1705,
      "expect": 1706,
      "concern": 1707,
      "effects": 1708,
      "contrary": 1709,
      "propositions": 1710,
      "surpr": 1711,
      "circum": 1712,
      "Catherine": 1713,
      "aim": 1714,
      "entirely": 1715,
      "unconditioned": 1716,
      "##dd": 1717,
      "everything": 1718,
      "difficult": 1719,
      "early": 1720,
      "saw": 1721,
      "wr": 1722,
      "##use": 1723,
      "towards": 1724,
      "##ference": 1725,
      "care": 1726,
      "##oses": 1727,
      "##action": 1728,
      "sex": 1729,
      "neither": 1730,
      "regress": 1731,
      "among": 1732,
      "supposed": 1733,
      "presupp": 1734,
      "An": 1735,
      "sum": 1736,
      "##ules": 1737,
      "##tained": 1738,
      "indic": 1739,
      "lead": 1740,
      "##ewise": 1741,
      "amount": 1742,
      "extinct": 1743,
      "likewise": 1744,
      "development": 1745,
      "cur": 1746,
      "den": 1747,
      "poll": 1748,
      "##ble": 1749,
      "produce": 1750,
      "##igr": 1751,
      "highly": 1752,
      "explan": 1753,
      "moment": 1754,
      "further": 1755,
      "Fr": 1756,
      "sole": 1757,
      "higher": 1758,
      "systematic": 1759,
      "draw": 1760,
      "##unction": 1761,
      "Char": 1762,
      "Eur": 1763,
      "body": 1764,
      "wonder": 1765,
      "exer": 1766,
      "##osm": 1767,
      "defin": 1768,
      "##ously": 1769,
      "conditioned": 1770,
      "variety": 1771,
      "##ief": 1772,
      "practical": 1773,
      "felt": 1774,
      "##go": 1775,
      "##itude": 1776,
      "##orn": 1777,
      "variation": 1778,
      "attention": 1779,
      "Europe": 1780,
      ").": 1781,
      "ign": 1782,
      "whose": 1783,
      "##irm": 1784,
      "leg": 1785,
      "judgements": 1786,
      "sufficient": 1787,
      "##rup": 1788,
      "##estig": 1789,
      "##ume": 1790,
      "##ized": 1791,
      "crossed": 1792,
      "letter": 1793,
      "establ": 1794,
      "temp": 1795,
      "infl": 1796,
      "##ively": 1797,
      "formation": 1798,
      "plain": 1799,
      "##ember": 1800,
      "disapp": 1801,
      "cognitions": 1802,
      "admit": 1803,
      "commun": 1804,
      "##aphys": 1805,
      "hypoth": 1806,
      "till": 1807,
      "perman": 1808,
      "extent": 1809,
      "America": 1810,
      "process": 1811,
      "err": 1812,
      "length": 1813,
      "##spr": 1814,
      "##ma": 1815,
      "##outh": 1816,
      "anci": 1817,
      "neg": 1818,
      "presented": 1819,
      "discuss": 1820,
      "employed": 1821,
      "investig": 1822,
      "habit": 1823,
      "progen": 1824,
      "pollen": 1825,
      "##spring": 1826,
      "So": 1827,
      "Tr": 1828,
      "aid": 1829,
      "ration": 1830,
      "##ugg": 1831,
      "##AL": 1832,
      "##ising": 1833,
      "beaut": 1834,
      "prof": 1835,
      "attribut": 1836,
      "regarded": 1837,
      "appearance": 1838,
      "belonging": 1839,
      "espec": 1840,
      "offspring": 1841,
      "Be": 1842,
      "mamm": 1843,
      "##AP": 1844,
      "bear": 1845,
      "cond": 1846,
      "demon": 1847,
      "conting": 1848,
      "related": 1849,
      "continued": 1850,
      "eyes": 1851,
      "demonstr": 1852,
      "av": 1853,
      "##ying": 1854,
      "beh": 1855,
      "##atever": 1856,
      "subs": 1857,
      "belief": 1858,
      "following": 1859,
      "##arriage": 1860,
      "circumst": 1861,
      "ignor": 1862,
      "Nat": 1863,
      "came": 1864,
      "fall": 1865,
      "##aced": 1866,
      "sea": 1867,
      "appar": 1868,
      "##ept": 1869,
      "conclusion": 1870,
      "words": 1871,
      "descendants": 1872,
      "pleasure": 1873,
      "sterility": 1874,
      "Pro": 1875,
      "ma": 1876,
      "##bers": 1877,
      "##alf": 1878,
      "formations": 1879,
      "plant": 1880,
      "##unt": 1881,
      "points": 1882,
      "frequ": 1883,
      "else": 1884,
      "embry": 1885,
      "CH": 1886,
      "St": 1887,
      "sour": 1888,
      "##xt": 1889,
      "##TER": 1890,
      "##ata": 1891,
      "##anch": 1892,
      "mem": 1893,
      "existed": 1894,
      "lea": 1895,
      "pret": 1896,
      "productions": 1897,
      "limit": 1898,
      "opinion": 1899,
      "der": 1900,
      "min": 1901,
      "mis": 1902,
      "size": 1903,
      "##uced": 1904,
      "##ape": 1905,
      "grow": 1906,
      "regards": 1907,
      "remains": 1908,
      "preced": 1909,
      "##eavour": 1910,
      "##ines": 1911,
      "Reason": 1912,
      "explanation": 1913,
      "##asm": 1914,
      "sudd": 1915,
      "extrem": 1916,
      "agree": 1917,
      "kinds": 1918,
      "endeavour": 1919,
      "periods": 1920,
      "open": 1921,
      "##imentary": 1922,
      "influ": 1923,
      "sudden": 1924,
      "egg": 1925,
      "sign": 1926,
      "##lar": 1927,
      "##vation": 1928,
      "##orph": 1929,
      "##ret": 1930,
      "whom": 1931,
      "##ety": 1932,
      "##ote": 1933,
      "asser": 1934,
      "foundation": 1935,
      "increas": 1936,
      "Dr": 1937,
      "Long": 1938,
      "cell": 1939,
      "gent": 1940,
      "gir": 1941,
      "##arn": 1942,
      "conce": 1943,
      "##uded": 1944,
      "love": 1945,
      "complex": 1946,
      "##fully": 1947,
      "opposite": 1948,
      "geological": 1949,
      "clear": 1950,
      "At": 1951,
      "Gard": 1952,
      "Pr": 1953,
      "strugg": 1954,
      "happiness": 1955,
      "succession": 1956,
      "descended": 1957,
      "acquain": 1958,
      "rational": 1959,
      "Her": 1960,
      "mention": 1961,
      "pe": 1962,
      "##ison": 1963,
      "##theless": 1964,
      "seed": 1965,
      "need": 1966,
      "eng": 1967,
      "leave": 1968,
      "##ifications": 1969,
      "intelligible": 1970,
      "totality": 1971,
      "ancient": 1972,
      "##asmuch": 1973,
      "Nor": 1974,
      "hom": 1975,
      "mo": 1976,
      "non": 1977,
      "red": 1978,
      "sw": 1979,
      "##ven": 1980,
      "##ossil": 1981,
      "##olly": 1982,
      "abstr": 1983,
      "applied": 1984,
      "propert": 1985,
      "flower": 1986,
      "thinking": 1987,
      "metaphys": 1988,
      "progress": 1989,
      "evidence": 1990,
      "resembl": 1991,
      "pige": 1992,
      "exerc": 1993,
      "##APTER": 1994,
      "CHAPTER": 1995,
      "bene": 1996,
      "tell": 1997,
      "step": 1998,
      "##ically": 1999,
      "branch": 2000,
      "replied": 2001,
      "added": 2002,
      "increase": 2003,
      "progenit": 2004,
      "especially": 2005,
      "Gardin": 2006,
      "Al": 2007,
      "divers": 2008,
      "ful": 2009,
      "low": 2010,
      "po": 2011,
      "wa": 2012,
      "##EN": 2013,
      "##edom": 2014,
      "inquir": 2015,
      "meet": 2016,
      "play": 2017,
      "gives": 2018,
      "##sequently": 2019,
      "formerly": 2020,
      "argument": 2021,
      "application": 2022,
      "inform": 2023,
      "cat": 2024,
      "rud": 2025,
      "##ross": 2026,
      "##by": 2027,
      "##II": 2028,
      "fort": 2029,
      "memb": 2030,
      "contained": 2031,
      "##arried": 2032,
      "grounds": 2033,
      "feelings": 2034,
      "easily": 2035,
      "capable": 2036,
      "corresponding": 2037,
      "Sir": 2038,
      "back": 2039,
      "fossil": 2040,
      "half": 2041,
      "mon": 2042,
      "##body": 2043,
      "inasmuch": 2044,
      "##arm": 2045,
      "suc": 2046,
      "perce": 2047,
      "extend": 2048,
      "compet": 2049,
      "##izz": 2050,
      "numbers": 2051,
      "employment": 2052,
      "discovered": 2053,
      "excl": 2054,
      "distinguish": 2055,
      "members": 2056,
      "Ge": 2057,
      "Lizz": 2058,
      "nest": 2059,
      "##isp": 2060,
      "appreh": 2061,
      "ident": 2062,
      "brought": 2063,
      "materi": 2064,
      "require": 2065,
      "utter": 2066,
      "From": 2067,
      "line": 2068,
      "##ead": 2069,
      "accum": 2070,
      "subjective": 2071,
      "##ialect": 2072,
      "making": 2073,
      "extremely": 2074,
      "Un": 2075,
      "det": 2076,
      "##ton": 2077,
      "##til": 2078,
      "##eal": 2079,
      "##yp": 2080,
      "##wise": 2081,
      "whatever": 2082,
      "refl": 2083,
      "exact": 2084,
      "accordance": 2085,
      "observed": 2086,
      "Lizzy": 2087,
      "cosm": 2088,
      "rules": 2089,
      "##sp": 2090,
      "##ingly": 2091,
      "##read": 2092,
      "obli": 2093,
      "probable": 2094,
      "conform": 2095,
      "looked": 2096,
      "questions": 2097,
      "inherited": 2098,
      "author": 2099,
      "division": 2100,
      "lower": 2101,
      "##HE": 2102,
      "##ortion": 2103,
      "##art": 2104,
      "special": 2105,
      "heard": 2106,
      "##ached": 2107,
      "naturalists": 2108,
      "represented": 2109,
      "interv": 2110,
      "serv": 2111,
      "ess": 2112,
      "tendency": 2113,
      "equal": 2114,
      "accumul": 2115,
      "His": 2116,
      "fut": 2117,
      "lost": 2118,
      "##hip": 2119,
      "##thod": 2120,
      "def": 2121,
      "method": 2122,
      "chap": 2123,
      "shell": 2124,
      "##ountain": 2125,
      "intuitions": 2126,
      "support": 2127,
      "affin": 2128,
      "prevent": 2129,
      "descent": 2130,
      "marked": 2131,
      "solely": 2132,
      "Gardiner": 2133,
      "ap": 2134,
      "ce": 2135,
      "fem": 2136,
      "get": 2137,
      "lay": 2138,
      "sk": 2139,
      "##tive": 2140,
      "chance": 2141,
      "distinction": 2142,
      "longer": 2143,
      "useful": 2144,
      "visit": 2145,
      "beginning": 2146,
      "civ": 2147,
      "gain": 2148,
      "##esh": 2149,
      "##icism": 2150,
      "##illi": 2151,
      "otherwise": 2152,
      "affection": 2153,
      "admir": 2154,
      "sche": 2155,
      "evident": 2156,
      "Ar": 2157,
      "migr": 2158,
      "sil": 2159,
      "##alse": 2160,
      "##ars": 2161,
      "prov": 2162,
      "cried": 2163,
      "admitted": 2164,
      "moral": 2165,
      "logic": 2166,
      "freedom": 2167,
      "favourable": 2168,
      "instincts": 2169,
      "Trans": 2170,
      "##ub": 2171,
      "##ises": 2172,
      "fore": 2173,
      "proved": 2174,
      "next": 2175,
      "analy": 2176,
      "based": 2177,
      "person": 2178,
      "validity": 2179,
      "attempt": 2180,
      "universal": 2181,
      "struggle": 2182,
      "Luc": 2183,
      "Oh": 2184,
      "full": 2185,
      "false": 2186,
      "lies": 2187,
      "##ric": 2188,
      "##lot": 2189,
      "##ecting": 2190,
      "##thern": 2191,
      "throughout": 2192,
      "famil": 2193,
      "fertility": 2194,
      "dogmat": 2195,
      "##bourn": 2196,
      "Lucas": 2197,
      "age": 2198,
      "aunt": 2199,
      "due": 2200,
      "diver": 2201,
      "dialect": 2202,
      "ra": 2203,
      "bees": 2204,
      "##ided": 2205,
      "##ives": 2206,
      "doc": 2207,
      "variability": 2208,
      "appro": 2209,
      "generations": 2210,
      "strict": 2211,
      "climate": 2212,
      "affirm": 2213,
      "organisation": 2214,
      "##known": 2215,
      "rendered": 2216,
      "Longbourn": 2217,
      "exercise": 2218,
      "Col": 2219,
      "##hil": 2220,
      "##ump": 2221,
      "thous": 2222,
      "ann": 2223,
      "delight": 2224,
      "##antly": 2225,
      "sol": 2226,
      "alter": 2227,
      "chief": 2228,
      "placed": 2229,
      "relate": 2230,
      "changed": 2231,
      "Charlot": 2232,
      "girl": 2233,
      "fully": 2234,
      "thousand": 2235,
      "Charlotte": 2236,
      "coll": 2237,
      "light": 2238,
      "##aim": 2239,
      "##eness": 2240,
      "##ched": 2241,
      "unknown": 2242,
      "times": 2243,
      "used": 2244,
      "becom": 2245,
      "organism": 2246,
      "##ocks": 2247,
      "happy": 2248,
      "value": 2249,
      "cogitated": 2250,
      "adapted": 2251,
      "influence": 2252,
      "future": 2253,
      "doctr": 2254,
      "hour": 2255,
      "lad": 2256,
      "oce": 2257,
      "##port": 2258,
      "prim": 2259,
      "##ute": 2260,
      "##osit": 2261,
      "susp": 2262,
      "greatly": 2263,
      "modifications": 2264,
      "brother": 2265,
      "limited": 2266,
      "seemed": 2267,
      "remarks": 2268,
      "remarkable": 2269,
      "passed": 2270,
      "eggs": 2271,
      "!”": 2272,
      "##err": 2273,
      "##inate": 2274,
      "##ley": 2275,
      "##ibly": 2276,
      "numerous": 2277,
      "occup": 2278,
      "constitution": 2279,
      "earth": 2280,
      "daughter": 2281,
      "permanent": 2282,
      "Pure": 2283,
      "home": 2284,
      "men": 2285,
      "mountain": 2286,
      "powers": 2287,
      "##roy": 2288,
      "affected": 2289,
      "feet": 2290,
      "remarked": 2291,
      "inherit": 2292,
      "slowly": 2293,
      "##illiam": 2294,
      "ladies": 2295,
      "ke": 2296,
      "sort": 2297,
      "expected": 2298,
      "expression": 2299,
      "improved": 2300,
      "physical": 2301,
      "predicate": 2302,
      "Prof": 2303,
      "rudimentary": 2304,
      "hold": 2305,
      "sit": 2306,
      "wide": 2307,
      "##ient": 2308,
      "##iqu": 2309,
      "##get": 2310,
      "##ling": 2311,
      "offer": 2312,
      "wholly": 2313,
      "##very": 2314,
      "unless": 2315,
      "variable": 2316,
      "enc": 2317,
      "occasionally": 2318,
      "succeed": 2319,
      "chapter": 2320,
      "car": 2321,
      "gone": 2322,
      "hist": 2323,
      "range": 2324,
      "treat": 2325,
      "trees": 2326,
      "##fort": 2327,
      "told": 2328,
      "##omy": 2329,
      "conver": 2330,
      "acquir": 2331,
      "apply": 2332,
      "imper": 2333,
      "event": 2334,
      "reproduc": 2335,
      "sisters": 2336,
      "cogitate": 2337,
      "convinc": 2338,
      "temper": 2339,
      "circumstances": 2340,
      "THE": 2341,
      "_m": 2342,
      "hon": 2343,
      "##lp": 2344,
      "##any": 2345,
      "##ularly": 2346,
      "help": 2347,
      "formal": 2348,
      "cognize": 2349,
      "##part": 2350,
      "classes": 2351,
      "morning": 2352,
      "imagination": 2353,
      "exactly": 2354,
      "five": 2355,
      "rar": 2356,
      "third": 2357,
      "##erable": 2358,
      "conj": 2359,
      "convers": 2360,
      "asked": 2361,
      "##osing": 2362,
      "fresh": 2363,
      "comb": 2364,
      "addition": 2365,
      "stri": 2366,
      "distant": 2367,
      "larger": 2368,
      "properly": 2369,
      "basis": 2370,
      "explained": 2371,
      "requires": 2372,
      "mammals": 2373,
      "Transcendental": 2374,
      "Gr": 2375,
      "Is": 2376,
      "New": 2377,
      "mist": 2378,
      "##lies": 2379,
      "##inated": 2380,
      "##itz": 2381,
      "##idence": 2382,
      "spir": 2383,
      "##usions": 2384,
      "party": 2385,
      "distribut": 2386,
      "##standing": 2387,
      "compreh": 2388,
      "seeing": 2389,
      "senses": 2390,
      "consequence": 2391,
      "appears": 2392,
      "substances": 2393,
      "soul": 2394,
      "progenitor": 2395,
      "essent": 2396,
      "acquired": 2397,
      "Every": 2398,
      "Ind": 2399,
      "Such": 2400,
      "bus": 2401,
      "em": 2402,
      "fo": 2403,
      "furn": 2404,
      "join": 2405,
      "live": 2406,
      "pain": 2407,
      "sent": 2408,
      "six": 2409,
      "##uit": 2410,
      "##anced": 2411,
      "prom": 2412,
      "stage": 2413,
      "attain": 2414,
      "##ounds": 2415,
      "evening": 2416,
      "appeared": 2417,
      "ordinary": 2418,
      "original": 2419,
      "clearly": 2420,
      "meaning": 2421,
      "##TION": 2422,
      "definition": 2423,
      "11": 2424,
      "aw": 2425,
      "air": 2426,
      "cent": 2427,
      "food": 2428,
      "hop": 2429,
      "vol": 2430,
      "##hire": 2431,
      "##yn": 2432,
      "##field": 2433,
      "##erception": 2434,
      "##onel": 2435,
      "beak": 2436,
      "prove": 2437,
      "proced": 2438,
      "plan": 2439,
      "accid": 2440,
      "comparison": 2441,
      "contradiction": 2442,
      "introduc": 2443,
      "apprehension": 2444,
      "keep": 2445,
      "convinced": 2446,
      "procedure": 2447,
      "By": 2448,
      "lines": 2449,
      "mil": 2450,
      "position": 2451,
      "wild": 2452,
      "##enty": 2453,
      "##ution": 2454,
      "spok": 2455,
      "extreme": 2456,
      "ideal": 2457,
      "##itty": 2458,
      "happens": 2459,
      "belongs": 2460,
      "repe": 2461,
      "arrange": 2462,
      "received": 2463,
      "Natural": 2464,
      "Kitty": 2465,
      "Nether": 2466,
      "OF": 2467,
      "kn": 2468,
      "link": 2469,
      "mult": 2470,
      "put": 2471,
      "##oice": 2472,
      "##wh": 2473,
      "##AN": 2474,
      "##anic": 2475,
      "##ston": 2476,
      "ref": 2477,
      "area": 2478,
      "parents": 2479,
      "greatest": 2480,
      "##itting": 2481,
      "nevertheless": 2482,
      "consideration": 2483,
      "termed": 2484,
      "slightly": 2485,
      "eye": 2486,
      "sterile": 2487,
      "disappear": 2488,
      "fortun": 2489,
      "Colonel": 2490,
      "Netherfield": 2491,
      "South": 2492,
      "fear": 2493,
      "wom": 2494,
      "##equ": 2495,
      "##ford": 2496,
      "##iful": 2497,
      "##ensive": 2498,
      "##aged": 2499,
      "purely": 2500,
      "bring": 2501,
      "oper": 2502,
      "arguments": 2503,
      "resemblance": 2504,
      "kept": 2505,
      "list": 2506,
      "pal": 2507,
      "went": 2508,
      "##urally": 2509,
      "coming": 2510,
      "##uding": 2511,
      "design": 2512,
      "believed": 2513,
      "direction": 2514,
      "element": 2515,
      "fertil": 2516,
      "hypothesis": 2517,
      "doctrine": 2518,
      "imperf": 2519,
      "_th": 2520,
      "function": 2521,
      "lab": 2522,
      "##tled": 2523,
      "inj": 2524,
      "tow": 2525,
      "confin": 2526,
      "dev": 2527,
      "##ival": 2528,
      "region": 2529,
      "transition": 2530,
      "instead": 2531,
      "absence": 2532,
      "larv": 2533,
      "afterwards": 2534,
      "surf": 2535,
      "uncle": 2536,
      "investigation": 2537,
      "frequently": 2538,
      "cells": 2539,
      "utterly": 2540,
      "14": 2541,
      "Section": 2542,
      "dim": 2543,
      "##ne": 2544,
      "##anc": 2545,
      "##reg": 2546,
      "notion": 2547,
      "##istent": 2548,
      "##olved": 2549,
      "consists": 2550,
      "extinction": 2551,
      "compl": 2552,
      "simp": 2553,
      "continuous": 2554,
      "##iously": 2555,
      "scar": 2556,
      "actual": 2557,
      "crosses": 2558,
      "began": 2559,
      "contradict": 2560,
      "##ixed": 2561,
      "supreme": 2562,
      "marry": 2563,
      "community": 2564,
      "source": 2565,
      "distribution": 2566,
      "bod": 2567,
      "marriage": 2568,
      "round": 2569,
      "seri": 2570,
      "##ipr": 2571,
      "##iments": 2572,
      "##acial": 2573,
      "places": 2574,
      "going": 2575,
      "determinations": 2576,
      "declar": 2577,
      "elements": 2578,
      "heart": 2579,
      "persu": 2580,
      "maintain": 2581,
      "destroy": 2582,
      "Consequently": 2583,
      "directly": 2584,
      "town": 2585,
      "Ex": 2586,
      "Or": 2587,
      "aston": 2588,
      "hor": 2589,
      "lib": 2590,
      "##right": 2591,
      "##where": 2592,
      "##men": 2593,
      "##cely": 2594,
      "##used": 2595,
      "naturally": 2596,
      "clim": 2597,
      "transcend": 2598,
      "purs": 2599,
      "equally": 2600,
      "friends": 2601,
      "independently": 2602,
      "error": 2603,
      "acquaint": 2604,
      "families": 2605,
      "Let": 2606,
      "Sp": 2607,
      "gave": 2608,
      "hence": 2609,
      "races": 2610,
      "wings": 2611,
      "##ring": 2612,
      "##rial": 2613,
      "##io": 2614,
      "##con": 2615,
      "##bs": 2616,
      "##bit": 2617,
      "thick": 2618,
      "##ones": 2619,
      "inn": 2620,
      "asc": 2621,
      "exception": 2622,
      "areas": 2623,
      "stud": 2624,
      "until": 2625,
      "exper": 2626,
      "learn": 2627,
      "twenty": 2628,
      "arise": 2629,
      "extension": 2630,
      "remo": 2631,
      "instances": 2632,
      "continent": 2633,
      "structures": 2634,
      "preserved": 2635,
      "establish": 2636,
      "conduct": 2637,
      "derived": 2638,
      "inheritance": 2639,
      "honour": 2640,
      "woman": 2641,
      "##iproc": 2642,
      "ed": 2643,
      "mut": 2644,
      "male": 2645,
      "post": 2646,
      "##tical": 2647,
      "##gment": 2648,
      "strip": 2649,
      "worth": 2650,
      "transport": 2651,
      "deser": 2652,
      "record": 2653,
      "possesses": 2654,
      "gradations": 2655,
      "compared": 2656,
      "rank": 2657,
      "created": 2658,
      "deduction": 2659,
      "material": 2660,
      "After": 2661,
      "Austr": 2662,
      "Some": 2663,
      "har": 2664,
      "##sy": 2665,
      "took": 2666,
      "##acy": 2667,
      "spont": 2668,
      "##ulation": 2669,
      "##ucted": 2670,
      "exposed": 2671,
      "diss": 2672,
      "relates": 2673,
      "claim": 2674,
      "proportion": 2675,
      "extra": 2676,
      "serve": 2677,
      "problem": 2678,
      "correl": 2679,
      "illusion": 2680,
      "fertile": 2681,
      "perceptions": 2682,
      "occurred": 2683,
      "depends": 2684,
      "separated": 2685,
      "mathematics": 2686,
      "contingent": 2687,
      "apparently": 2688,
      "increased": 2689,
      "pigeon": 2690,
      "history": 2691,
      "knew": 2692,
      "Austral": 2693,
      "spontane": 2694,
      "extraord": 2695,
      "Sup": 2696,
      "mas": 2697,
      "##ffer": 2698,
      "##mitted": 2699,
      "##ats": 2700,
      "##edit": 2701,
      "##ogn": 2702,
      "##ustace": 2703,
      "neigh": 2704,
      "apperception": 2705,
      "accomp": 2706,
      "reciproc": 2707,
      "assured": 2708,
      "assume": 2709,
      "perfection": 2710,
      "##lands": 2711,
      "strongly": 2712,
      "##going": 2713,
      "intervals": 2714,
      "shells": 2715,
      "##ique": 2716,
      "conversation": 2717,
      "scarcely": 2718,
      "acquaintance": 2719,
      "Supreme": 2720,
      "neighbour": 2721,
      "Yes": 2722,
      "cous": 2723,
      "ten": 2724,
      "table": 2725,
      "##row": 2726,
      "##ople": 2727,
      "##gr": 2728,
      "##ech": 2729,
      "##utes": 2730,
      "actions": 2731,
      "thereby": 2732,
      "##aken": 2733,
      "determining": 2734,
      "saf": 2735,
      "looking": 2736,
      "opposition": 2737,
      "describ": 2738,
      "service": 2739,
      "business": 2740,
      "15": 2741,
      "cold": 2742,
      "yield": 2743,
      "##lt": 2744,
      "##esides": 2745,
      "infin": 2746,
      "suffer": 2747,
      "stay": 2748,
      "dem": 2749,
      "##ogr": 2750,
      "##ogism": 2751,
      "prot": 2752,
      "relative": 2753,
      "certainty": 2754,
      "remember": 2755,
      "sensation": 2756,
      "likely": 2757,
      "##teness": 2758,
      "afford": 2759,
      "accordingly": 2760,
      "surv": 2761,
      "classification": 2762,
      "days": 2763,
      "intellect": 2764,
      "inhabiting": 2765,
      "ranked": 2766,
      "independent": 2767,
      "beautiful": 2768,
      "Geor": 2769,
      "Lond": 2770,
      "fitted": 2771,
      "married": 2772,
      "sake": 2773,
      "##itation": 2774,
      "##itable": 2775,
      "##cell": 2776,
      "##istic": 2777,
      "unable": 2778,
      "acknow": 2779,
      "subord": 2780,
      "followed": 2781,
      "hands": 2782,
      "conclude": 2783,
      "category": 2784,
      "makes": 2785,
      "construction": 2786,
      "mathematical": 2787,
      "creation": 2788,
      "member": 2789,
      "suddenly": 2790,
      "surface": 2791,
      "bodies": 2792,
      "##sych": 2793,
      "London": 2794,
      "males": 2795,
      "none": 2796,
      "past": 2797,
      "run": 2798,
      "rang": 2799,
      "##IS": 2800,
      "exterm": 2801,
      "##iform": 2802,
      "##ending": 2803,
      "quar": 2804,
      "Why": 2805,
      "##olution": 2806,
      "correct": 2807,
      "manifest": 2808,
      "settled": 2809,
      "allowed": 2810,
      "Being": 2811,
      "people": 2812,
      "metaphysics": 2813,
      "obliged": 2814,
      "schema": 2815,
      "striking": 2816,
      "10": 2817,
      "Chap": 2818,
      "God": 2819,
      "Sel": 2820,
      "fine": 2821,
      "fail": 2822,
      "led": 2823,
      "path": 2824,
      "sides": 2825,
      "upp": 2826,
      "##aid": 2827,
      "##OR": 2828,
      "##IC": 2829,
      "##ES": 2830,
      "ens": 2831,
      "##angu": 2832,
      "assum": 2833,
      "##avi": 2834,
      "actually": 2835,
      "disposition": 2836,
      "analogous": 2837,
      "fishes": 2838,
      "surprise": 2839,
      "avoid": 2840,
      "leaves": 2841,
      "becomes": 2842,
      "situ": 2843,
      "arrangement": 2844,
      "labour": 2845,
      "confined": 2846,
      ");": 2847,
      "Mery": 2848,
      "di": 2849,
      "fig": 2850,
      "hus": 2851,
      "rap": 2852,
      "##rary": 2853,
      "##iary": 2854,
      "##ners": 2855,
      "##ebr": 2856,
      "##isite": 2857,
      "excell": 2858,
      "deep": 2859,
      "united": 2860,
      "chec": 2861,
      "paral": 2862,
      "objections": 2863,
      "enab": 2864,
      "regulative": 2865,
      "production": 2866,
      "effected": 2867,
      "speaking": 2868,
      "results": 2869,
      "satisfied": 2870,
      "behavi": 2871,
      "ignorant": 2872,
      "growth": 2873,
      "preceding": 2874,
      "gentle": 2875,
      "properties": 2876,
      "##what": 2877,
      "horse": 2878,
      "Meryton": 2879,
      "behaviour": 2880,
      "35": 2881,
      "Und": 2882,
      "tail": 2883,
      "vain": 2884,
      "wit": 2885,
      "##ries": 2886,
      "##day": 2887,
      "##oy": 2888,
      "##band": 2889,
      "bee": 2890,
      "isol": 2891,
      "ang": 2892,
      "##ify": 2893,
      "somewhat": 2894,
      "grat": 2895,
      "giving": 2896,
      "determinate": 2897,
      "insect": 2898,
      "break": 2899,
      "crossing": 2900,
      "blind": 2901,
      "required": 2902,
      "Chapter": 2903,
      "husband": 2904,
      "32": 2905,
      "34": 2906,
      "Eng": 2907,
      "Pember": 2908,
      "bu": 2909,
      "ball": 2910,
      "dut": 2911,
      "field": 2912,
      "rate": 2913,
      "##hib": 2914,
      "offic": 2915,
      "##ites": 2916,
      "##rew": 2917,
      "reach": 2918,
      "##istence": 2919,
      "sev": 2920,
      "comes": 2921,
      "specific": 2922,
      "uniform": 2923,
      "contemp": 2924,
      "indif": 2925,
      "remote": 2926,
      "interc": 2927,
      "assert": 2928,
      "completeness": 2929,
      "presence": 2930,
      "analys": 2931,
      "criticism": 2932,
      "easy": 2933,
      "finally": 2934,
      "walk": 2935,
      "established": 2936,
      "negative": 2937,
      "attribute": 2938,
      "ignorance": 2939,
      "##orphic": 2940,
      "reflection": 2941,
      "conformity": 2942,
      "imperfect": 2943,
      "Pemberley": 2944,
      "De": 2945,
      "din": 2946,
      "fund": 2947,
      "lady": 2948,
      "terr": 2949,
      "wing": 2950,
      "##hood": 2951,
      "rev": 2952,
      "ask": 2953,
      "##essor": 2954,
      "spread": 2955,
      "##ode": 2956,
      "states": 2957,
      "stages": 2958,
      "##ush": 2959,
      "shape": 2960,
      "meant": 2961,
      "thereof": 2962,
      "adult": 2963,
      "moreover": 2964,
      "partly": 2965,
      "extended": 2966,
      "##oriz": 2967,
      "saying": 2968,
      "views": 2969,
      "largely": 2970,
      "esc": 2971,
      "entered": 2972,
      "aims": 2973,
      "poor": 2974,
      "identical": 2975,
      "cosmological": 2976,
      "dialectical": 2977,
      "strictly": 2978,
      "Professor": 2979,
      "##ograph": 2980,
      "intellectual": 2981,
      "Not": 2982,
      "apart": 2983,
      "jaw": 2984,
      "lived": 2985,
      "mot": 2986,
      "rise": 2987,
      "rare": 2988,
      "test": 2989,
      "typ": 2990,
      "##ram": 2991,
      "##ging": 2992,
      "##lim": 2993,
      "thor": 2994,
      "force": 2995,
      "weight": 2996,
      "##amental": 2997,
      "##ortun": 2998,
      "##ultane": 2999,
      "usual": 3000,
      "art": 3001,
      "became": 3002,
      "lie": 3003,
      "simultane": 3004,
      "occasional": 3005,
      "reader": 3006,
      "resemble": 3007,
      "separate": 3008,
      "super": 3009,
      "receive": 3010,
      "distinguished": 3011,
      "sexual": 3012,
      "plainly": 3013,
      "repeated": 3014,
      "demand": 3015,
      ".[": 3016,
      "23": 3017,
      "Your": 3018,
      "et": 3019,
      "fill": 3020,
      "fair": 3021,
      "nay": 3022,
      "pu": 3023,
      "wat": 3024,
      "##rip": 3025,
      "##lant": 3026,
      "##_1": 3027,
      "##chip": 3028,
      "comfort": 3029,
      "child": 3030,
      "##udes": 3031,
      "generation": 3032,
      "distance": 3033,
      "##ips": 3034,
      "##elag": 3035,
      "cognized": 3036,
      "##ressed": 3037,
      "determines": 3038,
      "empirically": 3039,
      "perform": 3040,
      "yourself": 3041,
      "##oubted": 3042,
      "degrees": 3043,
      "advanced": 3044,
      "respects": 3045,
      "antec": 3046,
      "daughters": 3047,
      "legs": 3048,
      "abstraction": 3049,
      "steps": 3050,
      "cattle": 3051,
      "astonish": 3052,
      "extraordinary": 3053,
      "fundamental": 3054,
      "thorough": 3055,
      "##chipelag": 3056,
      "Brit": 3057,
      "fixed": 3058,
      "lately": 3059,
      "psych": 3060,
      "##ruction": 3061,
      "##iable": 3062,
      "##lay": 3063,
      "##xi": 3064,
      "##xim": 3065,
      "##ores": 3066,
      "##ash": 3067,
      "##stood": 3068,
      "refer": 3069,
      "##like": 3070,
      "tri": 3071,
      "possibly": 3072,
      "quick": 3073,
      "syll": 3074,
      "ago": 3075,
      "recent": 3076,
      "regarding": 3077,
      "##anger": 3078,
      "countries": 3079,
      "remained": 3080,
      "domestication": 3081,
      "predicates": 3082,
      "wonderful": 3083,
      "agreeable": 3084,
      "engaged": 3085,
      "competition": 3086,
      "analytical": 3087,
      "miles": 3088,
      "harmon": 3089,
      "anteced": 3090,
      "33": 3091,
      "Ag": 3092,
      "Acc": 3093,
      "Ros": 3094,
      "_C": 3095,
      "bot": 3096,
      "eight": 3097,
      "fly": 3098,
      "wife": 3099,
      "##ihil": 3100,
      "##oo": 3101,
      "##enc": 3102,
      "##ener": 3103,
      "##ican": 3104,
      "reference": 3105,
      "pride": 3106,
      "accept": 3107,
      "##seless": 3108,
      "desire": 3109,
      "recogn": 3110,
      "considerable": 3111,
      "expressed": 3112,
      "coloured": 3113,
      "##iverse": 3114,
      "returned": 3115,
      "essential": 3116,
      "contradictory": 3117,
      "cousin": 3118,
      "upper": 3119,
      "excellent": 3120,
      "duty": 3121,
      "##chipelago": 3122,
      "17": 3123,
      "born": 3124,
      "rock": 3125,
      "sing": 3126,
      "##rop": 3127,
      "##de": 3128,
      "##dom": 3129,
      "##ior": 3130,
      "##ues": 3131,
      "##IN": 3132,
      "##inant": 3133,
      "##iting": 3134,
      "##ows": 3135,
      "wee": 3136,
      "##aded": 3137,
      "##estrial": 3138,
      "along": 3139,
      "meas": 3140,
      "manners": 3141,
      "disuse": 3142,
      "orders": 3143,
      "commonly": 3144,
      "surr": 3145,
      "observation": 3146,
      "feeling": 3147,
      "answered": 3148,
      "##unctions": 3149,
      "requisite": 3150,
      "improve": 3151,
      "difficulties": 3152,
      "drawn": 3153,
      "beauty": 3154,
      "mentioned": 3155,
      "female": 3156,
      "dogmatical": 3157,
      "Selection": 3158,
      "severe": 3159,
      "Rosings": 3160,
      "24": 3161,
      "Cr": 3162,
      "II": 3163,
      "Ph": 3164,
      "Vari": 3165,
      "book": 3166,
      "dyn": 3167,
      "functions": 3168,
      "hund": 3169,
      "laugh": 3170,
      "ov": 3171,
      "posit": 3172,
      "useless": 3173,
      "ve": 3174,
      "##mit": 3175,
      "##zo": 3176,
      "##erstanding": 3177,
      "##ared": 3178,
      "##ece": 3179,
      "definite": 3180,
      "##ested": 3181,
      "##ensions": 3182,
      "strange": 3183,
      "consist": 3184,
      "regions": 3185,
      "##ologists": 3186,
      "considering": 3187,
      "owing": 3188,
      "dece": 3189,
      "terms": 3190,
      "philosopher": 3191,
      "standard": 3192,
      "adapt": 3193,
      "varying": 3194,
      "North": 3195,
      "information": 3196,
      "civil": 3197,
      "##ltimate": 3198,
      "gentleman": 3199,
      "intercross": 3200,
      "terrestrial": 3201,
      "##ographical": 3202,
      "Do": 3203,
      "Gl": 3204,
      "William": 3205,
      "divid": 3206,
      "face": 3207,
      "sal": 3208,
      "wished": 3209,
      "##ier": 3210,
      "##gence": 3211,
      "##AR": 3212,
      "##itimate": 3213,
      "forward": 3214,
      "##etic": 3215,
      "##amp": 3216,
      "soci": 3217,
      "##lier": 3218,
      "indisp": 3219,
      "arbit": 3220,
      "attach": 3221,
      "presents": 3222,
      "assure": 3223,
      "prey": 3224,
      "connect": 3225,
      "conclusions": 3226,
      "smaller": 3227,
      "particularly": 3228,
      "stands": 3229,
      "intelligence": 3230,
      "south": 3231,
      "constructed": 3232,
      "freely": 3233,
      "analogy": 3234,
      "maj": 3235,
      "property": 3236,
      "diversity": 3237,
      "inquiries": 3238,
      "perceive": 3239,
      "affinity": 3240,
      "affinities": 3241,
      "raised": 3242,
      "rarely": 3243,
      "fortune": 3244,
      "palæ": 3245,
      "28": 3246,
      "Spec": 3247,
      "carriage": 3248,
      "mouth": 3249,
      "wood": 3250,
      "writ": 3251,
      "##shire": 3252,
      "##94": 3253,
      "##erion": 3254,
      "##atum": 3255,
      "##ank": 3256,
      "##oud": 3257,
      "##icip": 3258,
      "deal": 3259,
      "##ogene": 3260,
      "##usc": 3261,
      "universe": 3262,
      "trust": 3263,
      "attended": 3264,
      "gover": 3265,
      "desir": 3266,
      "recoll": 3267,
      "##ertiary": 3268,
      "incap": 3269,
      "constant": 3270,
      "shows": 3271,
      "constitute": 3272,
      "gradu": 3273,
      "anticip": 3274,
      "##exp": 3275,
      "sufficiently": 3276,
      "conviction": 3277,
      "turned": 3278,
      "surprised": 3279,
      "wax": 3280,
      "##ENT": 3281,
      "migration": 3282,
      "chiefly": 3283,
      "girls": 3284,
      "conjunction": 3285,
      "spoke": 3286,
      "links": 3287,
      "##ustaceans": 3288,
      "George": 3289,
      "analysis": 3290,
      "dynam": 3291,
      "Our": 3292,
      "PR": 3293,
      "creat": 3294,
      "cult": 3295,
      "fan": 3296,
      "fif": 3297,
      "move": 3298,
      "sed": 3299,
      "tree": 3300,
      "##ev": 3301,
      "##line": 3302,
      "##EC": 3303,
      "##int": 3304,
      "##lel": 3305,
      "##tern": 3306,
      "##irt": 3307,
      "##irth": 3308,
      "exhib": 3309,
      "fruit": 3310,
      "objection": 3311,
      "reasons": 3312,
      "varied": 3313,
      "##erior": 3314,
      "##ounding": 3315,
      "##ulties": 3316,
      "ages": 3317,
      "attached": 3318,
      "liable": 3319,
      "##ocked": 3320,
      "happened": 3321,
      "confess": 3322,
      "north": 3323,
      "opposed": 3324,
      "depos": 3325,
      "coex": 3326,
      "earlier": 3327,
      "readily": 3328,
      "criterion": 3329,
      "imagine": 3330,
      "American": 3331,
      "guid": 3332,
      "##rels": 3333,
      "sexes": 3334,
      "##rupt": 3335,
      "embryo": 3336,
      "homolog": 3337,
      "solution": 3338,
      "organisms": 3339,
      "reproductive": 3340,
      "acknowled": 3341,
      "enabled": 3342,
      "major": 3343,
      "Yet": 3344,
      "_h": 3345,
      "che": 3346,
      "ep": 3347,
      "pol": 3348,
      "rocks": 3349,
      "sch": 3350,
      "sight": 3351,
      "tre": 3352,
      "void": 3353,
      "##ctic": 3354,
      "##itive": 3355,
      "##ision": 3356,
      "##ster": 3357,
      "##osp": 3358,
      "##ula": 3359,
      "stig": 3360,
      "undoubted": 3361,
      "trif": 3362,
      "tried": 3363,
      "##aria": 3364,
      "##ounded": 3365,
      "supposition": 3366,
      "considerations": 3367,
      "lesser": 3368,
      "advance": 3369,
      "observ": 3370,
      "arrived": 3371,
      "doubtful": 3372,
      "walked": 3373,
      "curious": 3374,
      "Although": 3375,
      "civility": 3376,
      "hours": 3377,
      "mountains": 3378,
      "carry": 3379,
      "injur": 3380,
      "destroyed": 3381,
      "Australia": 3382,
      "rapid": 3383,
      "publ": 3384,
      "Accord": 3385,
      "Glacial": 3386,
      "Mary": 3387,
      "Pl": 3388,
      "_s": 3389,
      "af": 3390,
      "birth": 3391,
      "eag": 3392,
      "ir": 3393,
      "later": 3394,
      "##ience": 3395,
      "##tog": 3396,
      "theology": 3397,
      "##orous": 3398,
      "##ths": 3399,
      "reject": 3400,
      "##uted": 3401,
      "##owed": 3402,
      "unw": 3403,
      "acts": 3404,
      "usually": 3405,
      "extensive": 3406,
      "supplant": 3407,
      "loc": 3408,
      "continually": 3409,
      "obsc": 3410,
      "dominant": 3411,
      "geomet": 3412,
      "interesting": 3413,
      "southern": 3414,
      "teeth": 3415,
      "concerned": 3416,
      "maxim": 3417,
      "assertions": 3418,
      "reduced": 3419,
      "abstract": 3420,
      "prevented": 3421,
      "females": 3422,
      "foregoing": 3423,
      "furnished": 3424,
      "##ancing": 3425,
      "master": 3426,
      "diag": 3427,
      "parallel": 3428,
      "##together": 3429,
      "30": 3430,
      "Here": 3431,
      "Lad": 3432,
      "dare": 3433,
      "horn": 3434,
      "mong": 3435,
      "ner": 3436,
      "race": 3437,
      "ultimate": 3438,
      "vent": 3439,
      "vast": 3440,
      "wind": 3441,
      "##oumen": 3442,
      "##ime": 3443,
      "##urity": 3444,
      "wel": 3445,
      "##ading": 3446,
      "Their": 3447,
      "understood": 3448,
      "gra": 3449,
      "##aught": 3450,
      "##elled": 3451,
      "recently": 3452,
      "obv": 3453,
      "brok": 3454,
      "##yship": 3455,
      "insu": 3456,
      "possession": 3457,
      "geographical": 3458,
      "rests": 3459,
      "philosophers": 3460,
      "gradual": 3461,
      "secondary": 3462,
      "takes": 3463,
      "##airs": 3464,
      "total": 3465,
      "glad": 3466,
      "indicates": 3467,
      "sources": 3468,
      "perceived": 3469,
      "occupied": 3470,
      "comprehend": 3471,
      "emin": 3472,
      "serious": 3473,
      "removed": 3474,
      "reciprocal": 3475,
      "divided": 3476,
      "Ladyship": 3477,
      "Bour": 3478,
      "Hert": 3479,
      "_y": 3480,
      "carried": 3481,
      "mer": 3482,
      "mental": 3483,
      "sor": 3484,
      "tas": 3485,
      "vig": 3486,
      "warm": 3487,
      "##greg": 3488,
      "##miss": 3489,
      "##US": 3490,
      "##omm": 3491,
      "##etr": 3492,
      "##isted": 3493,
      "soph": 3494,
      "forming": 3495,
      "troub": 3496,
      "struck": 3497,
      "strength": 3498,
      "knowing": 3499,
      "##oney": 3500,
      "attent": 3501,
      "charm": 3502,
      "ends": 3503,
      "scale": 3504,
      "whereas": 3505,
      "northern": 3506,
      "changing": 3507,
      "arrive": 3508,
      "morality": 3509,
      "pleased": 3510,
      "##onscious": 3511,
      "wishes": 3512,
      "attempted": 3513,
      "superior": 3514,
      "authors": 3515,
      "satisfaction": 3516,
      "deduced": 3517,
      "talking": 3518,
      "##lemen": 3519,
      "carefully": 3520,
      "presupposes": 3521,
      "indicate": 3522,
      "leads": 3523,
      "profess": 3524,
      "gentlemen": 3525,
      "gained": 3526,
      "approach": 3527,
      "##umption": 3528,
      "oceanic": 3529,
      "temperate": 3530,
      "##fordshire": 3531,
      "dynamical": 3532,
      "eager": 3533,
      "Bourgh": 3534,
      "Hertfordshire": 3535,
      "16": 3536,
      "21": 3537,
      "25": 3538,
      "37": 3539,
      "Well": 3540,
      "besides": 3541,
      "cover": 3542,
      "econ": 3543,
      "loss": 3544,
      "langu": 3545,
      "mass": 3546,
      "night": 3547,
      "noumen": 3548,
      "tertiary": 3549,
      "##ri": 3550,
      "##ges": 3551,
      "##onic": 3552,
      "##at_": 3553,
      "##alth": 3554,
      "retain": 3555,
      "revers": 3556,
      "forg": 3557,
      "exceed": 3558,
      "##ulate": 3559,
      "height": 3560,
      "unf": 3561,
      "door": 3562,
      "quad": 3563,
      "level": 3564,
      "distr": 3565,
      "compare": 3566,
      "instr": 3567,
      "##anged": 3568,
      "##ficial": 3569,
      "originally": 3570,
      "faculties": 3571,
      "taking": 3572,
      "##orses": 3573,
      "destruction": 3574,
      "physi": 3575,
      "preservation": 3576,
      "teach": 3577,
      "talked": 3578,
      "defined": 3579,
      "pigeons": 3580,
      "branches": 3581,
      "exclus": 3582,
      "detail": 3583,
      "authority": 3584,
      "accumulated": 3585,
      "spirits": 3586,
      "transcendent": 3587,
      "situation": 3588,
      "isolated": 3589,
      "syllogism": 3590,
      "hundred": 3591,
      "diagram": 3592,
      "insuffici": 3593,
      "task": 3594,
      "26": 3595,
      "aver": 3596,
      "bo": 3597,
      "bat": 3598,
      "horses": 3599,
      "ur": 3600,
      "##bed": 3601,
      "##inter": 3602,
      "inev": 3603,
      "##arch": 3604,
      "hair": 3605,
      "##urd": 3606,
      "##idd": 3607,
      "altogether": 3608,
      "##akes": 3609,
      "abrupt": 3610,
      "adequ": 3611,
      "##ensible": 3612,
      "quality": 3613,
      "enorm": 3614,
      "enlar": 3615,
      "phenomenal": 3616,
      "composition": 3617,
      "aggreg": 3618,
      "##ertebr": 3619,
      "Forster": 3620,
      "sensible": 3621,
      "happen": 3622,
      "confine": 3623,
      "smil": 3624,
      "One": 3625,
      "invari": 3626,
      "opportun": 3627,
      "illustr": 3628,
      "showing": 3629,
      "commence": 3630,
      "antin": 3631,
      "marine": 3632,
      "nearest": 3633,
      "motion": 3634,
      "annihil": 3635,
      "larvæ": 3636,
      "subordinate": 3637,
      "handsome": 3638,
      "indispens": 3639,
      "incapable": 3640,
      "guidance": 3641,
      "12": 3642,
      "Even": 3643,
      "Many": 3644,
      "Never": 3645,
      "Zeal": 3646,
      "bound": 3647,
      "cuck": 3648,
      "fa": 3649,
      "##aight": 3650,
      "##me": 3651,
      "##enced": 3652,
      "ants": 3653,
      "##urst": 3654,
      "##acity": 3655,
      "weak": 3656,
      "##amed": 3657,
      "hem": 3658,
      "qual": 3659,
      "straight": 3660,
      "##actory": 3661,
      "characteristic": 3662,
      "##izing": 3663,
      "obtain": 3664,
      "supposing": 3665,
      "flor": 3666,
      "statement": 3667,
      "secure": 3668,
      "justice": 3669,
      "ways": 3670,
      "domesticated": 3671,
      "metam": 3672,
      "including": 3673,
      "guard": 3674,
      "Conception": 3675,
      "write": 3676,
      "deny": 3677,
      "drawing": 3678,
      "disappoin": 3679,
      "discussion": 3680,
      "attributed": 3681,
      "States": 3682,
      "minutes": 3683,
      "acquainted": 3684,
      "engage": 3685,
      "converted": 3686,
      "foot": 3687,
      "transitional": 3688,
      "experiment": 3689,
      "etc": 3690,
      "##_14": 3691,
      "Species": 3692,
      "average": 3693,
      "Zealand": 3694,
      "Le": 3695,
      "More": 3696,
      "Phil": 3697,
      "bar": 3698,
      "beds": 3699,
      "cal": 3700,
      "eld": 3701,
      "rid": 3702,
      "##rt": 3703,
      "##aves": 3704,
      "##with": 3705,
      "##be": 3706,
      "##erb": 3707,
      "##ered": 3708,
      "reached": 3709,
      "notice": 3710,
      "##ulated": 3711,
      "stam": 3712,
      "##ils": 3713,
      "##ferent": 3714,
      "tru": 3715,
      "##opy": 3716,
      "##aun": 3717,
      "arm": 3718,
      "naturalist": 3719,
      "##heres": 3720,
      "subjected": 3721,
      "assist": 3722,
      "consequences": 3723,
      "continents": 3724,
      "confidence": 3725,
      "possessed": 3726,
      "observe": 3727,
      "inhabited": 3728,
      "gradually": 3729,
      "display": 3730,
      "critical": 3731,
      "universality": 3732,
      "##raid": 3733,
      "European": 3734,
      "communic": 3735,
      "contingency": 3736,
      "frequent": 3737,
      "leaving": 3738,
      "conceal": 3739,
      "United": 3740,
      "claims": 3741,
      "veget": 3742,
      "cultiv": 3743,
      "homologous": 3744,
      "stigma": 3745,
      "trifling": 3746,
      "published": 3747,
      "afraid": 3748,
      "Af": 3749,
      "AN": 3750,
      "Fitz": 3751,
      "Gä": 3752,
      "Sc": 3753,
      "au": 3754,
      "hive": 3755,
      "pat": 3756,
      "van": 3757,
      "##ral": 3758,
      "##aise": 3759,
      "##william": 3760,
      "##UR": 3761,
      "##oms": 3762,
      "##ller": 3763,
      "##ira": 3764,
      "##ldom": 3765,
      "seldom": 3766,
      "unn": 3767,
      "cho": 3768,
      "chain": 3769,
      "paras": 3770,
      "diff": 3771,
      "grant": 3772,
      "knows": 3773,
      "amiable": 3774,
      "compelled": 3775,
      "crustaceans": 3776,
      "everybody": 3777,
      "firm": 3778,
      "recomm": 3779,
      "instantly": 3780,
      "seek": 3781,
      "assign": 3782,
      "humour": 3783,
      "standing": 3784,
      "maintained": 3785,
      "Allen": 3786,
      "similarity": 3787,
      "1894": 3788,
      "discussed": 3789,
      "Princ": 3790,
      "diversified": 3791,
      "study": 3792,
      "mutual": 3793,
      "described": 3794,
      "ranges": 3795,
      "assumed": 3796,
      "build": 3797,
      "##ogeneous": 3798,
      "acknowledged": 3799,
      "broken": 3800,
      "sorry": 3801,
      "trouble": 3802,
      "insufficient": 3803,
      "commencement": 3804,
      "cuckoo": 3805,
      "Philips": 3806,
      "##rtner": 3807,
      "Fitzwilliam": 3808,
      "Gärtner": 3809,
      "Can": 3810,
      "Gener": 3811,
      "Miv": 3812,
      "Sy": 3813,
      "flight": 3814,
      "hur": 3815,
      "king": 3816,
      "mort": 3817,
      "ni": 3818,
      "pet": 3819,
      "rich": 3820,
      "tou": 3821,
      "tum": 3822,
      "voice": 3823,
      "##teen": 3824,
      "##och": 3825,
      "##ool": 3826,
      "##ATION": 3827,
      "##enance": 3828,
      "##edd": 3829,
      "##itum": 3830,
      "##origin": 3831,
      "tol": 3832,
      "forced": 3833,
      "forget": 3834,
      "##ilst": 3835,
      "speculation": 3836,
      "across": 3837,
      "therein": 3838,
      "adj": 3839,
      "clos": 3840,
      "arises": 3841,
      "resist": 3842,
      "naturalised": 3843,
      "transmitted": 3844,
      "attr": 3845,
      "##itten": 3846,
      "believes": 3847,
      "producing": 3848,
      "probability": 3849,
      "##matical": 3850,
      "excess": 3851,
      "constitutes": 3852,
      "prevail": 3853,
      "attempts": 3854,
      "proceeding": 3855,
      "universally": 3856,
      "talk": 3857,
      "concerns": 3858,
      "presuppose": 3859,
      "apparent": 3860,
      "limitation": 3861,
      "signific": 3862,
      "assertion": 3863,
      "increasing": 3864,
      "multitude": 3865,
      "##ney": 3866,
      "##odeict": 3867,
      "observations": 3868,
      "quadrup": 3869,
      "invariably": 3870,
      "opportunity": 3871,
      "indispensable": 3872,
      "##opyright": 3873,
      "Mivart": 3874,
      "38": 3875,
      "Crit": 3876,
      "Had": 3877,
      "Hook": 3878,
      "Hurst": 3879,
      "]]": 3880,
      "_I": 3881,
      "bounds": 3882,
      "cut": 3883,
      "danger": 3884,
      "late": 3885,
      "pist": 3886,
      "##aff": 3887,
      "##AT": 3888,
      "##OG": 3889,
      "##itic": 3890,
      "##ou_": 3891,
      "##iced": 3892,
      "beet": 3893,
      "whilst": 3894,
      "conject": 3895,
      "sugg": 3896,
      "spot": 3897,
      "##ivity": 3898,
      "unav": 3899,
      "aborigin": 3900,
      "impress": 3901,
      "twel": 3902,
      "prep": 3903,
      "absurd": 3904,
      "thoughts": 3905,
      "feath": 3906,
      "unconscious": 3907,
      "invitation": 3908,
      "discovery": 3909,
      "entit": 3910,
      "arrival": 3911,
      "slaves": 3912,
      "written": 3913,
      "minute": 3914,
      "beneficial": 3915,
      "inquiry": 3916,
      "apodeict": 3917,
      "silence": 3918,
      "aware": 3919,
      "fertilised": 3920,
      "devi": 3921,
      "neighbourhood": 3922,
      "figure": 3923,
      "escape": 3924,
      "astonishment": 3925,
      "psychology": 3926,
      "_Copyright": 3927,
      "treated": 3928,
      "injurious": 3929,
      "feathers": 3930,
      "III": 3931,
      "Mal": 3932,
      "Ow": 3933,
      "bal": 3934,
      "bones": 3935,
      "dance": 3936,
      "duck": 3937,
      "gre": 3938,
      "gard": 3939,
      "germ": 3940,
      "lat": 3941,
      "mag": 3942,
      "pap": 3943,
      "scept": 3944,
      "##after": 3945,
      "##nest": 3946,
      "##e_": 3947,
      "##eterm": 3948,
      "##00": 3949,
      "##come": 3950,
      "##pic": 3951,
      "##fast": 3952,
      "##ictions": 3953,
      "##ceeds": 3954,
      "##urs": 3955,
      "##uration": 3956,
      "spite": 3957,
      "##ifying": 3958,
      "delic": 3959,
      "##ogical": 3960,
      "intention": 3961,
      "grand": 3962,
      "enable": 3963,
      "events": 3964,
      "resolved": 3965,
      "composite": 3966,
      "##erto": 3967,
      "prepar": 3968,
      "affect": 3969,
      "flat": 3970,
      "concret": 3971,
      "continu": 3972,
      "decided": 3973,
      "examination": 3974,
      "countenance": 3975,
      "restr": 3976,
      "comparative": 3977,
      "Nothing": 3978,
      "older": 3979,
      "leading": 3980,
      "circumstance": 3981,
      "pretensions": 3982,
      "benef": 3983,
      "nests": 3984,
      "identity": 3985,
      "skin": 3986,
      "Archipelago": 3987,
      "accidental": 3988,
      "bringing": 3989,
      "ascertain": 3990,
      "infinity": 3991,
      "Understanding": 3992,
      "officers": 3993,
      "jaws": 3994,
      "Again": 3995,
      "##encies": 3996,
      "surrounding": 3997,
      "improvement": 3998,
      "society": 3999,
      "arbitrary": 4000,
      "epoch": 4001,
      "undoubtedly": 4002,
      "stamens": 4003,
      "kingdom": 4004,
      "Hooker": 4005,
      "twelve": 4006,
      "concreto": 4007,
      "27": 4008,
      "Anal": 4009,
      "Ide": 4010,
      "Made": 4011,
      "Par": 4012,
      "_d": 4013,
      "hat": 4014,
      "##ren": 4015,
      "##rical": 4016,
      "##eed": 4017,
      "##AC": 4018,
      "##ony": 4019,
      "##itably": 4020,
      "##orical": 4021,
      "ready": 4022,
      "##uter": 4023,
      "##irect": 4024,
      "##itherto": 4025,
      "##ets": 4026,
      "sequ": 4027,
      "stock": 4028,
      "death": 4029,
      "heav": 4030,
      "health": 4031,
      "sheep": 4032,
      "doing": 4033,
      "accur": 4034,
      "works": 4035,
      "modes": 4036,
      "credit": 4037,
      "subsequently": 4038,
      "supply": 4039,
      "founded": 4040,
      "effort": 4041,
      "feed": 4042,
      "proble": 4043,
      "news": 4044,
      "statements": 4045,
      "confirm": 4046,
      "whereby": 4047,
      "reply": 4048,
      "hereafter": 4049,
      "justified": 4050,
      "constitutive": 4051,
      "previously": 4052,
      "##appear": 4053,
      "earnest": 4054,
      "inferred": 4055,
      "dependent": 4056,
      "interests": 4057,
      "construct": 4058,
      "walking": 4059,
      "demonstration": 4060,
      "growing": 4061,
      "signification": 4062,
      "fossils": 4063,
      "cosmical": 4064,
      "collected": 4065,
      "encour": 4066,
      "mistaken": 4067,
      "palæont": 4068,
      "##irtue": 4069,
      "obvious": 4070,
      "sophist": 4071,
      "Nevertheless": 4072,
      "Moreover": 4073,
      "truly": 4074,
      "unavoid": 4075,
      "##etermined": 4076,
      "Madeira": 4077,
      "Aust": 4078,
      "Cl": 4079,
      "_à": 4080,
      "duration": 4081,
      "faun": 4082,
      "pub": 4083,
      "resent": 4084,
      "virtue": 4085,
      "wis": 4086,
      "yes": 4087,
      "##ron": 4088,
      "##rica": 4089,
      "##ozo": 4090,
      "##lish": 4091,
      "##pon": 4092,
      "##ples": 4093,
      "##ining": 4094,
      "##oretical": 4095,
      "##aries": 4096,
      "##let": 4097,
      "priv": 4098,
      "##ids": 4099,
      "spaces": 4100,
      "##aint": 4101,
      "alarm": 4102,
      "##lig": 4103,
      "uns": 4104,
      "acted": 4105,
      "##umerable": 4106,
      "choice": 4107,
      "##astic": 4108,
      "##uns": 4109,
      "subjects": 4110,
      "##ifice": 4111,
      "continue": 4112,
      "kindness": 4113,
      "limbs": 4114,
      "smile": 4115,
      "examples": 4116,
      "address": 4117,
      "directed": 4118,
      "eleg": 4119,
      "secondly": 4120,
      "relationship": 4121,
      "ceas": 4122,
      "cease": 4123,
      "admirable": 4124,
      "provided": 4125,
      "primal": 4126,
      "suspic": 4127,
      "reproduction": 4128,
      "operations": 4129,
      "_that_": 4130,
      "dinner": 4131,
      "simultaneously": 4132,
      "botan": 4133,
      "economy": 4134,
      "exclusively": 4135,
      "adequate": 4136,
      "antinomy": 4137,
      "hemisp": 4138,
      "Africa": 4139,
      ".)": 4140,
      "36": 4141,
      "Cam": 4142,
      "Po": 4143,
      "XX": 4144,
      "ease": 4145,
      "got": 4146,
      "hitherto": 4147,
      "il": 4148,
      "ren": 4149,
      "tit": 4150,
      "##night": 4151,
      "##xious": 4152,
      "##OL": 4153,
      "##is_": 4154,
      "prosp": 4155,
      "##tered": 4156,
      "##imilar": 4157,
      "##acious": 4158,
      "##ained": 4159,
      "search": 4160,
      "stated": 4161,
      "##ches": 4162,
      "held": 4163,
      "unus": 4164,
      "##aps": 4165,
      "enj": 4166,
      "##ounce": 4167,
      "selected": 4168,
      "desp": 4169,
      "priori_": 4170,
      "brief": 4171,
      "decide": 4172,
      "invol": 4173,
      "smallest": 4174,
      "passing": 4175,
      "philosophical": 4176,
      "quantities": 4177,
      "Lyell": 4178,
      "dogs": 4179,
      "asserted": 4180,
      "swim": 4181,
      "beneath": 4182,
      "accumulation": 4183,
      "admiration": 4184,
      "spirit": 4185,
      "hopes": 4186,
      "introduced": 4187,
      "compliment": 4188,
      "simply": 4189,
      "thickness": 4190,
      "accompan": 4191,
      "motive": 4192,
      "##riped": 4193,
      "harmony": 4194,
      "week": 4195,
      "attachment": 4196,
      "graduated": 4197,
      "fancy": 4198,
      "exceedingly": 4199,
      "tumbl": 4200,
      "Critique": 4201,
      "Austen": 4202,
      "39": 4203,
      "31": 4204,
      "Per": 4205,
      "nect": 4206,
      "vertebr": 4207,
      "##rec": 4208,
      "##aus": 4209,
      "##ike": 4210,
      "##erate": 4211,
      "##enetr": 4212,
      "##esc": 4213,
      "##icul": 4214,
      "##asc": 4215,
      "##leg": 4216,
      "##osity": 4217,
      "##acted": 4218,
      "spring": 4219,
      "##ains": 4220,
      "del": 4221,
      "canon": 4222,
      "##usory": 4223,
      "proceeds": 4224,
      "##ourse": 4225,
      "undetermined": 4226,
      "##otent": 4227,
      "anybody": 4228,
      "##ections": 4229,
      "##ipient": 4230,
      "##ung": 4231,
      "agency": 4232,
      "attac": 4233,
      "liked": 4234,
      "prefer": 4235,
      "judgment": 4236,
      "admiss": 4237,
      "admitting": 4238,
      "Heading": 4239,
      "containing": 4240,
      "immigr": 4241,
      "examined": 4242,
      "respecting": 4243,
      "concluded": 4244,
      "blue": 4245,
      "sciences": 4246,
      "pleasing": 4247,
      "favoured": 4248,
      "improb": 4249,
      "receiving": 4250,
      "satisfactory": 4251,
      "applicable": 4252,
      "profound": 4253,
      "pretty": 4254,
      "supported": 4255,
      "encl": 4256,
      "volume": 4257,
      "accident": 4258,
      "multip": 4259,
      "declared": 4260,
      "innumerable": 4261,
      "safely": 4262,
      "England": 4263,
      "district": 4264,
      "inevitably": 4265,
      "metamorph": 4266,
      "Owen": 4267,
      "garden": 4268,
      "public": 4269,
      "19": 4270,
      "13": 4271,
      "20": 4272,
      "22": 4273,
      ":--": 4274,
      "amp": 4275,
      "blo": 4276,
      "base": 4277,
      "dark": 4278,
      "horiz": 4279,
      "money": 4280,
      "pair": 4281,
      "rat": 4282,
      "son": 4283,
      "sir": 4284,
      "tast": 4285,
      "##ium": 4286,
      "##gone": 4287,
      "##sth": 4288,
      "##jud": 4289,
      "##TR": 4290,
      "##ering": 4291,
      "##itated": 4292,
      "##alk": 4293,
      "white": 4294,
      "rever": 4295,
      "reappear": 4296,
      "ascend": 4297,
      "press": 4298,
      "forces": 4299,
      "##he_": 4300,
      "##ift": 4301,
      "sty": 4302,
      "##pped": 4303,
      "##ching": 4304,
      "union": 4305,
      "unequ": 4306,
      "shores": 4307,
      "exposition": 4308,
      "try": 4309,
      "reasoning": 4310,
      "##opter": 4311,
      "enem": 4312,
      "indirect": 4313,
      "empty": 4314,
      "##ipline": 4315,
      "arising": 4316,
      "composed": 4317,
      "##erty": 4318,
      "interrup": 4319,
      "incipient": 4320,
      "throw": 4321,
      "serves": 4322,
      "image": 4323,
      "believing": 4324,
      "##oining": 4325,
      "flo": 4326,
      "flatter": 4327,
      "says": 4328,
      "appearing": 4329,
      "insight": 4330,
      "##arrass": 4331,
      "viol": 4332,
      "mature": 4333,
      "doubted": 4334,
      "examine": 4335,
      "oppon": 4336,
      "humble": 4337,
      "expressions": 4338,
      "blame": 4339,
      "pleasant": 4340,
      "circle": 4341,
      "workers": 4342,
      "inclination": 4343,
      "included": 4344,
      "humanity": 4345,
      "utility": 4346,
      "utmost": 4347,
      "185": 4348,
      "infinitely": 4349,
      "tele": 4350,
      "breeding": 4351,
      "surprising": 4352,
      "demonstrate": 4353,
      "endeavoured": 4354,
      "materials": 4355,
      "reflect": 4356,
      "foreign": 4357,
      "dialectic": 4358,
      "becoming": 4359,
      "succeeding": 4360,
      "joined": 4361,
      "centur": 4362,
      "dimin": 4363,
      "persuaded": 4364,
      "Exp": 4365,
      "Space": 4366,
      "striped": 4367,
      "dissimilar": 4368,
      "breakfast": 4369,
      "indifference": 4370,
      "triang": 4371,
      "measure": 4372,
      "positive": 4373,
      "urged": 4374,
      "Conceptions": 4375,
      "##withstanding": 4376,
      "blood": 4377,
      "29": 4378,
      "Cosm": 4379,
      "Good": 4380,
      "La": 4381,
      "aqu": 4382,
      "bad": 4383,
      "lose": 4384,
      "narr": 4385,
      "pup": 4386,
      "##iality": 4387,
      "##son": 4388,
      "##crib": 4389,
      "##ug": 4390,
      "##form": 4391,
      "##RAN": 4392,
      "theoretical": 4393,
      "##ator": 4394,
      "##atur": 4395,
      "##itate": 4396,
      "##isc": 4397,
      "##reed": 4398,
      "##urch": 4399,
      "##osure": 4400,
      "season": 4401,
      "butter": 4402,
      "unite": 4403,
      "intended": 4404,
      "undergone": 4405,
      "##apse": 4406,
      "applies": 4407,
      "regiment": 4408,
      "intuited": 4409,
      "##orious": 4410,
      "substr": 4411,
      "##ologist": 4412,
      "prior": 4413,
      "obst": 4414,
      "##look": 4415,
      "younger": 4416,
      "uncom": 4417,
      "indefinite": 4418,
      "----": 4419,
      "root": 4420,
      "purposes": 4421,
      "tends": 4422,
      "##aphr": 4423,
      "previous": 4424,
      "hearing": 4425,
      "advantageous": 4426,
      "critique": 4427,
      "inclined": 4428,
      "presupposition": 4429,
      "hypothetical": 4430,
      "demonstrated": 4431,
      "elsewhere": 4432,
      "membr": 4433,
      "silent": 4434,
      "altern": 4435,
      "converse": 4436,
      "spoken": 4437,
      "listen": 4438,
      "liberty": 4439,
      "learned": 4440,
      "children": 4441,
      "quickly": 4442,
      "singular": 4443,
      "school": 4444,
      "mongrels": 4445,
      "attentions": 4446,
      "forgot": 4447,
      "augment": 4448,
      "significance": 4449,
      "problematical": 4450,
      "illeg": 4451,
      "taste": 4452,
      "substratum": 4453,
      "illegitimate": 4454,
      "Car": 4455,
      "Huns": 4456,
      "IN": 4457,
      "_O": 4458,
      "breat": 4459,
      "dw": 4460,
      "dread": 4461,
      "hind": 4462,
      "lame": 4463,
      "laid": 4464,
      "pict": 4465,
      "send": 4466,
      "wall": 4467,
      "women": 4468,
      "”,": 4469,
      "##iet": 4470,
      "##ole": 4471,
      "##nitz": 4472,
      "##eas": 4473,
      "##lings": 4474,
      "##OO": 4475,
      "##EL": 4476,
      "##orth": 4477,
      "##entific": 4478,
      "##lebr": 4479,
      "retained": 4480,
      "anxious": 4481,
      "##ams": 4482,
      "seven": 4483,
      "star": 4484,
      "stocked": 4485,
      "##ibnitz": 4486,
      "##umm": 4487,
      "##quire": 4488,
      "parties": 4489,
      "##eriori": 4490,
      "thank": 4491,
      "cloth": 4492,
      "whenever": 4493,
      "##ounted": 4494,
      "attend": 4495,
      "farther": 4496,
      "obtained": 4497,
      "assur": 4498,
      "connecting": 4499,
      "##brian": 4500,
      "overlook": 4501,
      "systems": 4502,
      "secre": 4503,
      "match": 4504,
      "double": 4505,
      "doubts": 4506,
      "decre": 4507,
      "immense": 4508,
      "entail": 4509,
      "illustration": 4510,
      "black": 4511,
      "scientific": 4512,
      "conven": 4513,
      "embarrass": 4514,
      "proceeded": 4515,
      "marks": 4516,
      "fourth": 4517,
      "wrote": 4518,
      "curi": 4519,
      "permanence": 4520,
      "Nature": 4521,
      "homogeneous": 4522,
      "progenitors": 4523,
      "##END": 4524,
      "monstr": 4525,
      "months": 4526,
      "celebr": 4527,
      "introduction": 4528,
      "posteriori": 4529,
      "correlated": 4530,
      "spontaneous": 4531,
      "exterminated": 4532,
      "indifferent": 4533,
      "thoroughly": 4534,
      "Britain": 4535,
      "deceived": 4536,
      "creature": 4537,
      "language": 4538,
      "enormous": 4539,
      "Leibnitz": 4540,
      "General": 4541,
      "quadrupeds": 4542,
      "entitled": 4543,
      "apodeictic": 4544,
      "magn": 4545,
      "unavoidable": 4546,
      "Cambrian": 4547,
      "##ripedes": 4548,
      "Perhaps": 4549,
      "nectar": 4550,
      "triangle": 4551,
      "narrow": 4552,
      "##aphrod": 4553,
      "Hunsford": 4554,
      "celebrated": 4555,
      "Bright": 4556,
      "Derb": 4557,
      "Hu": 4558,
      "Me": 4559,
      "Mü": 4560,
      "Sw": 4561,
      "Whe": 4562,
      "_S": 4563,
      "fat": 4564,
      "fle": 4565,
      "jour": 4566,
      "mus": 4567,
      "pounds": 4568,
      "sinc": 4569,
      "sought": 4570,
      "##ians": 4571,
      "##maphrod": 4572,
      "##UL": 4573,
      "##SC": 4574,
      "##ature": 4575,
      "##atus": 4576,
      "##atory": 4577,
      "##isen": 4578,
      "proud": 4579,
      "praise": 4580,
      "anc": 4581,
      "stem": 4582,
      "hermaphrod": 4583,
      "unim": 4584,
      "dislike": 4585,
      "##ersal": 4586,
      "strata": 4587,
      "propag": 4588,
      "Inst": 4589,
      "arch": 4590,
      "arctic": 4591,
      "compan": 4592,
      "##ounter": 4593,
      "recover": 4594,
      "presenting": 4595,
      "completed": 4596,
      "##yshire": 4597,
      "admire": 4598,
      "opened": 4599,
      "caused": 4600,
      "originated": 4601,
      "decl": 4602,
      "constantly": 4603,
      "minds": 4604,
      "illusory": 4605,
      "arranged": 4606,
      "letters": 4607,
      "road": 4608,
      "objectively": 4609,
      "advantages": 4610,
      "peculiarity": 4611,
      "includes": 4612,
      "capacity": 4613,
      "finite": 4614,
      "mars": 4615,
      "guide": 4616,
      "introduce": 4617,
      "expectation": 4618,
      "behind": 4619,
      "misund": 4620,
      "endeavours": 4621,
      "metaphysical": 4622,
      "lowest": 4623,
      "meeting": 4624,
      "distinguishing": 4625,
      "scheme": 4626,
      "##ricts": 4627,
      "raise": 4628,
      "altered": 4629,
      "Islands": 4630,
      "essentially": 4631,
      "simpl": 4632,
      "ascrib": 4633,
      "transported": 4634,
      "spontaneity": 4635,
      "British": 4636,
      "adaptation": 4637,
      "govern": 4638,
      "##ENTAL": 4639,
      "sediment": 4640,
      "graf": 4641,
      "Scot": 4642,
      "vanity": 4643,
      "parasitic": 4644,
      "suspicion": 4645,
      "improbable": 4646,
      "##sthetic": 4647,
      "aquatic": 4648,
      "curiosity": 4649,
      "Brighton": 4650,
      "Derbyshire": 4651,
      "Müller": 4652,
      "Both": 4653,
      "Cand": 4654,
      "Gal": 4655,
      "Se": 4656,
      "Time": 4657,
      "_w": 4658,
      "axi": 4659,
      "drew": 4660,
      "lapse": 4661,
      "pou": 4662,
      "page": 4663,
      "paid": 4664,
      "tall": 4665,
      "vict": 4666,
      "winter": 4667,
      "”;": 4668,
      "##rence": 4669,
      "##az": 4670,
      "##nally": 4671,
      "##pine": 4672,
      "##eration": 4673,
      "##inal": 4674,
      "inquire": 4675,
      "congr": 4676,
      "reve": 4677,
      "relie": 4678,
      "ones": 4679,
      "forb": 4680,
      "exec": 4681,
      "##iding": 4682,
      "##hew": 4683,
      "stocks": 4684,
      "attained": 4685,
      "defic": 4686,
      "depart": 4687,
      "specim": 4688,
      "specially": 4689,
      "alike": 4690,
      "##cepted": 4691,
      "unh": 4692,
      "##olle": 4693,
      "perp": 4694,
      "adop": 4695,
      "reasonable": 4696,
      "generic": 4697,
      "impr": 4698,
      "impat": 4699,
      "differently": 4700,
      "consol": 4701,
      "company": 4702,
      "represents": 4703,
      "incon": 4704,
      "##izes": 4705,
      "thinks": 4706,
      "produces": 4707,
      "##ormal": 4708,
      "confusion": 4709,
      "valu": 4710,
      "originate": 4711,
      "begins": 4712,
      "dispute": 4713,
      "estim": 4714,
      "Therefore": 4715,
      "inference": 4716,
      "inferences": 4717,
      "final": 4718,
      "authoriz": 4719,
      "satisfy": 4720,
      "glacial": 4721,
      "opinions": 4722,
      "wanted": 4723,
      "wrong": 4724,
      "denied": 4725,
      "negl": 4726,
      "bearing": 4727,
      "swe": 4728,
      "informed": 4729,
      "fortnight": 4730,
      "defence": 4731,
      "divergence": 4732,
      "delighted": 4733,
      "ocean": 4734,
      "holds": 4735,
      "deserve": 4736,
      "deserves": 4737,
      "quarter": 4738,
      "angles": 4739,
      "gratitude": 4740,
      "type": 4741,
      "types": 4742,
      "According": 4743,
      "horns": 4744,
      "instrum": 4745,
      "physiological": 4746,
      "aggregate": 4747,
      "qualities": 4748,
      "adjoining": 4749,
      "enjoy": 4750,
      "enemies": 4751,
      "lamell": 4752,
      "Whether": 4753,
      "journey": 4754,
      "Candolle": 4755,
      ")—": 4756,
      "Sil": 4757,
      "_f": 4758,
      "bats": 4759,
      "dro": 4760,
      "dancing": 4761,
      "fant": 4762,
      "kill": 4763,
      "ru": 4764,
      "rising": 4765,
      "vex": 4766,
      "war": 4767,
      "##ius": 4768,
      "##ials": 4769,
      "##tes": 4770,
      "##che": 4771,
      "##phew": 4772,
      "##OUS": 4773,
      "##erably": 4774,
      "##onc": 4775,
      "##eses": 4776,
      "##ortions": 4777,
      "##ico": 4778,
      "##eces": 4779,
      "##econd": 4780,
      "forth": 4781,
      "##urian": 4782,
      "notwithstanding": 4783,
      "##idæ": 4784,
      "##iest": 4785,
      "##acing": 4786,
      "spent": 4787,
      "##ames": 4788,
      "ste": 4789,
      "stre": 4790,
      "##using": 4791,
      "##olf": 4792,
      "nephew": 4793,
      "undergo": 4794,
      "anyone": 4795,
      "##pleas": 4796,
      "grie": 4797,
      "##udent": 4798,
      "disg": 4799,
      "regret": 4800,
      "##iples": 4801,
      "artic": 4802,
      "##agger": 4803,
      "subsequ": 4804,
      "goes": 4805,
      "##elling": 4806,
      "representative": 4807,
      "Eliza": 4808,
      "incomp": 4809,
      "determinable": 4810,
      "insisted": 4811,
      "effici": 4812,
      "admits": 4813,
      "endless": 4814,
      "degr": 4815,
      "##icians": 4816,
      "adds": 4817,
      "##itute": 4818,
      "elect": 4819,
      "elaps": 4820,
      "favourite": 4821,
      "antith": 4822,
      "contradictions": 4823,
      "include": 4824,
      "##iana": 4825,
      "imaginary": 4826,
      "corresponds": 4827,
      "Without": 4828,
      "preserve": 4829,
      "excepting": 4830,
      "investigations": 4831,
      "profitable": 4832,
      "avail": 4833,
      "subsidence": 4834,
      "embryos": 4835,
      "embryonic": 4836,
      "precedes": 4837,
      "extends": 4838,
      "affirmative": 4839,
      "delightful": 4840,
      "conjoin": 4841,
      "##liest": 4842,
      "Indeed": 4843,
      "embr": 4844,
      "furnish": 4845,
      "hoped": 4846,
      "directions": 4847,
      "marrying": 4848,
      "library": 4849,
      "experiments": 4850,
      "relatively": 4851,
      "performed": 4852,
      "flying": 4853,
      "borne": 4854,
      "intercrossing": 4855,
      "salt": 4856,
      "deposited": 4857,
      "coexistence": 4858,
      "ultimately": 4859,
      "covered": 4860,
      "reversion": 4861,
      "fault": 4862,
      "_I_": 4863,
      "aboriginal": 4864,
      "Analy": 4865,
      "efforts": 4866,
      "sophistical": 4867,
      "##ozoic": 4868,
      "enclosed": 4869,
      "Cosmological": 4870,
      "##ummary": 4871,
      "congrat": 4872,
      "subsequent": 4873,
      "elapsed": 4874,
      "Dom": 4875,
      "Ha": 4876,
      "Hy": 4877,
      "Ne": 4878,
      "Nay": 4879,
      "Sever": 4880,
      "TRAN": 4881,
      "Very": 4882,
      "_her": 4883,
      "dress": 4884,
      "fanc": 4885,
      "mill": 4886,
      "nut": 4887,
      "pay": 4888,
      "pause": 4889,
      "portion": 4890,
      "wand": 4891,
      "##y_": 4892,
      "##cl": 4893,
      "##bes": 4894,
      "##LE": 4895,
      "##IT": 4896,
      "thin": 4897,
      "##era": 4898,
      "inexp": 4899,
      "##arp": 4900,
      "##semb": 4901,
      "##imum": 4902,
      "orch": 4903,
      "sun": 4904,
      "spheres": 4905,
      "##iferous": 4906,
      "depr": 4907,
      "##ivable": 4908,
      "##add": 4909,
      "accepted": 4910,
      "native": 4911,
      "geneal": 4912,
      "##opical": 4913,
      "##apag": 4914,
      "enum": 4915,
      "induce": 4916,
      "##orted": 4917,
      "distur": 4918,
      "distress": 4919,
      "districts": 4920,
      "##els": 4921,
      "arisen": 4922,
      "reser": 4923,
      "extr": 4924,
      "##ounced": 4925,
      "goose": 4926,
      "recur": 4927,
      "affair": 4928,
      "product": 4929,
      "organised": 4930,
      "endure": 4931,
      "contriv": 4932,
      "advice": 4933,
      "prescrib": 4934,
      "corp": 4935,
      "Only": 4936,
      "reptil": 4937,
      "active": 4938,
      "sooner": 4939,
      "facility": 4940,
      "##licable": 4941,
      "realiss": 4942,
      "substant": 4943,
      "excited": 4944,
      "estate": 4945,
      "inferior": 4946,
      "renders": 4947,
      "proofs": 4948,
      "##arriers": 4949,
      "presupposed": 4950,
      "summer": 4951,
      "negation": 4952,
      "habitually": 4953,
      "falls": 4954,
      "derive": 4955,
      "conceive": 4956,
      "defect": 4957,
      "Everything": 4958,
      "India": 4959,
      "central": 4960,
      "fertilisation": 4961,
      "climates": 4962,
      "assuredly": 4963,
      "serviceable": 4964,
      "deposits": 4965,
      "parallelism": 4966,
      "venture": 4967,
      "eminently": 4968,
      "_you_": 4969,
      "cultivated": 4970,
      "choose": 4971,
      "pistil": 4972,
      "benefit": 4973,
      "hatched": 4974,
      "hemisphere": 4975,
      "briefly": 4976,
      "forgotten": 4977,
      "picture": 4978,
      "##ENDENTAL": 4979,
      "##SCENDENTAL": 4980,
      "ancest": 4981,
      "Galapag": 4982,
      "instrument": 4983,
      "Several": 4984,
      "TRANSCENDENTAL": 4985,
      "_her_": 4986,
      "reptiles": 4987,
      "Galapagos": 4988,
      "App": 4989,
      "Br": 4990,
      "Besides": 4991,
      "Comp": 4992,
      "DI": 4993,
      "Dif": 4994,
      "Mat": 4995,
      "OR": 4996,
      "Wor": 4997,
      "_a": 4998,
      "_T": 4999,
      "bud": 5000,
      "bold": 5001,
      "edition": 5002,
      "gall": 5003,
      "hes": 5004,
      "mad": 5005,
      "rash": 5006,
      "sn": 5007,
      "sitting": 5008,
      "tone": 5009,
      "wise": 5010,
      "##res": 5011,
      "##rim": 5012,
      "##næ": 5013,
      "##sc": 5014,
      "##ms": 5015,
      "##isable": 5016,
      "##omed": 5017,
      "whence": 5018,
      "rej": 5019,
      "pron": 5020,
      "ont": 5021,
      "##osc": 5022,
      "##osen": 5023,
      "##acr": 5024,
      "##eties": 5025,
      "##uls": 5026,
      "alluded": 5027,
      "project": 5028,
      "##umb": 5029,
      "intimate": 5030,
      "chosen": 5031,
      "trace": 5032,
      "abund": 5033,
      "##ops": 5034,
      "grown": 5035,
      "implies": 5036,
      "evil": 5037,
      "accounted": 5038,
      "propos": 5039,
      "amuse": 5040,
      "repro": 5041,
      "modern": 5042,
      "compass": 5043,
      "everywhere": 5044,
      "incom": 5045,
      "assumption": 5046,
      "##fulness": 5047,
      "perfected": 5048,
      "acting": 5049,
      "discovering": 5050,
      "morrow": 5051,
      "restric": 5052,
      "excre": 5053,
      "connections": 5054,
      "colon": 5055,
      "settle": 5056,
      "occurs": 5057,
      "request": 5058,
      "embedd": 5059,
      "##ucky": 5060,
      "divisions": 5061,
      "piece": 5062,
      "wanting": 5063,
      "##TIC": 5064,
      "careful": 5065,
      "curr": 5066,
      "legis": 5067,
      "pretend": 5068,
      "opening": 5069,
      "poly": 5070,
      "##III": 5071,
      "migrated": 5072,
      "primitive": 5073,
      "suspected": 5074,
      "_me_": 5075,
      "promised": 5076,
      "idealism": 5077,
      "listened": 5078,
      "persuade": 5079,
      "problems": 5080,
      "safe": 5081,
      "check": 5082,
      "contempt": 5083,
      "##xiety": 5084,
      "movements": 5085,
      "irreg": 5086,
      "geometrical": 5087,
      "noumena": 5088,
      "disappoint": 5089,
      "eldest": 5090,
      "niece": 5091,
      "beetles": 5092,
      "conjecture": 5093,
      "comparatively": 5094,
      "accompanied": 5095,
      "conversely": 5096,
      "breath": 5097,
      "sincere": 5098,
      "perpet": 5099,
      "lamellæ": 5100,
      "Silurian": 5101,
      "Domestic": 5102,
      "inexplicable": 5103,
      "realissimum": 5104,
      "World": 5105,
      "embedded": 5106,
      ";”": 5107,
      "Are": 5108,
      "Certain": 5109,
      "IV": 5110,
      "Maria": 5111,
      "ON": 5112,
      "Second": 5113,
      "Wall": 5114,
      "_p": 5115,
      "bor": 5116,
      "card": 5117,
      "midd": 5118,
      "named": 5119,
      "pig": 5120,
      "sound": 5121,
      "tear": 5122,
      "##iety": 5123,
      "##gent": 5124,
      "##hy": 5125,
      "##yl": 5126,
      "##uing": 5127,
      "##mm": 5128,
      "##erg": 5129,
      "##inally": 5130,
      "##iter": 5131,
      "##itect": 5132,
      "##isely": 5133,
      "##utive": 5134,
      "##utious": 5135,
      "anxiety": 5136,
      "suff": 5137,
      "##etch": 5138,
      "##ament": 5139,
      "##ilarly": 5140,
      "propr": 5141,
      "perish": 5142,
      "trying": 5143,
      "##emic": 5144,
      "differs": 5145,
      "relating": 5146,
      "twice": 5147,
      "resolution": 5148,
      "transform": 5149,
      "subtle": 5150,
      "##ellow": 5151,
      "incid": 5152,
      "incred": 5153,
      "thrown": 5154,
      "##eption": 5155,
      "prejud": 5156,
      "##ocene": 5157,
      "cautious": 5158,
      "endemic": 5159,
      "confl": 5160,
      "classed": 5161,
      "employing": 5162,
      "##licity": 5163,
      "entr": 5164,
      "entreat": 5165,
      "slightest": 5166,
      "please": 5167,
      "expresses": 5168,
      "command": 5169,
      "disposed": 5170,
      "dispersal": 5171,
      "cirripedes": 5172,
      "speech": 5173,
      "earliest": 5174,
      "visc": 5175,
      "visited": 5176,
      "separation": 5177,
      "particulars": 5178,
      "legitimate": 5179,
      "hypotheses": 5180,
      "errors": 5181,
      "avicul": 5182,
      "subsistent": 5183,
      "agreement": 5184,
      "giraff": 5185,
      "seedlings": 5186,
      "Alpine": 5187,
      "oblig": 5188,
      "interval": 5189,
      "affectionate": 5190,
      "analytic": 5191,
      "familiar": 5192,
      "succeeded": 5193,
      "##fortun": 5194,
      "Org": 5195,
      "climb": 5196,
      "pursue": 5197,
      "stripes": 5198,
      "Australian": 5199,
      "infinitum": 5200,
      "survive": 5201,
      "extermination": 5202,
      "failed": 5203,
      "witness": 5204,
      "English": 5205,
      "##limat": 5206,
      "simultaneous": 5207,
      "##ropri": 5208,
      "Accordingly": 5209,
      "obscure": 5210,
      "charming": 5211,
      "syllogisms": 5212,
      "enlarge": 5213,
      "engagement": 5214,
      "assistance": 5215,
      "diffused": 5216,
      "recommend": 5217,
      "Principles": 5218,
      "Malay": 5219,
      "botanists": 5220,
      "title": 5221,
      "style": 5222,
      "opponent": 5223,
      "##orthy": 5224,
      "specimens": 5225,
      "genealogical": 5226,
      "madam": 5227,
      "legisl": 5228,
      "Wallace": 5229,
      "middle": 5230,
      "giraffe": 5231,
      "42": 5232,
      "Ed": 5233,
      "Fl": 5234,
      "Finally": 5235,
      "Lam": 5236,
      "Man": 5237,
      "bed": 5238,
      "dry": 5239,
      "data": 5240,
      "fash": 5241,
      "mine": 5242,
      "rad": 5243,
      "wants": 5244,
      "zo": 5245,
      "##ray": 5246,
      "##tom": 5247,
      "##ox": 5248,
      "##oci": 5249,
      "##vable": 5250,
      "##bation": 5251,
      "##bles": 5252,
      "##bert": 5253,
      "##mits": 5254,
      "##ST": 5255,
      "thir": 5256,
      "##atures": 5257,
      "##ital": 5258,
      "##ices": 5259,
      "##icity": 5260,
      "##ecutive": 5261,
      "##lying": 5262,
      "beat": 5263,
      "##asp": 5264,
      "##vey": 5265,
      "nobody": 5266,
      "assemb": 5267,
      "##utation": 5268,
      "##utable": 5269,
      "##iders": 5270,
      "##aci": 5271,
      "##iff": 5272,
      "##ables": 5273,
      "##ulations": 5274,
      "stood": 5275,
      "start": 5276,
      "unch": 5277,
      "unexp": 5278,
      "neut": 5279,
      "trim": 5280,
      "trave": 5281,
      "##ariæ": 5282,
      "##arium": 5283,
      "plum": 5284,
      "##opod": 5285,
      "grass": 5286,
      "grains": 5287,
      "partial": 5288,
      "##udation": 5289,
      "disgr": 5290,
      "quiet": 5291,
      "differed": 5292,
      "consistent": 5293,
      "consecutive": 5294,
      "##inea": 5295,
      "##ellariæ": 5296,
      "representing": 5297,
      "recept": 5298,
      "associ": 5299,
      "While": 5300,
      "similarly": 5301,
      "caves": 5302,
      "principal": 5303,
      "endowed": 5304,
      "finds": 5305,
      "report": 5306,
      "grounded": 5307,
      "observing": 5308,
      "geology": 5309,
      "remaining": 5310,
      "passage": 5311,
      "courage": 5312,
      "evidently": 5313,
      "coast": 5314,
      "mainland": 5315,
      "##edicellariæ": 5316,
      "colours": 5317,
      "practice": 5318,
      "entering": 5319,
      "##keep": 5320,
      "acquire": 5321,
      "housekeep": 5322,
      "deduce": 5323,
      "turning": 5324,
      "nearer": 5325,
      "wonderfully": 5326,
      "errone": 5327,
      "resemblances": 5328,
      "played": 5329,
      "##umph": 5330,
      "##portant": 5331,
      "promise": 5332,
      "Existence": 5333,
      "worthy": 5334,
      "correlation": 5335,
      "masters": 5336,
      "suffered": 5337,
      "remembered": 5338,
      "quarters": 5339,
      "checked": 5340,
      "artific": 5341,
      "triumph": 5342,
      "antecedent": 5343,
      "weeks": 5344,
      "coexistent": 5345,
      "majority": 5346,
      "unwill": 5347,
      "local": 5348,
      "noumenon": 5349,
      "boast": 5350,
      "confinement": 5351,
      "unnecess": 5352,
      "System": 5353,
      "petals": 5354,
      "excessively": 5355,
      "deviations": 5356,
      "paper": 5357,
      "scepticism": 5358,
      "Ideas": 5359,
      "sequence": 5360,
      "faunas": 5361,
      "tumbler": 5362,
      "attacks": 5363,
      "uncommon": 5364,
      "unimportant": 5365,
      "unhapp": 5366,
      "sweet": 5367,
      "fantail": 5368,
      "Having": 5369,
      "Cape": 5370,
      "Emp": 5371,
      "Ext": 5372,
      "Hil": 5373,
      "Imp": 5374,
      "Kent": 5375,
      "Old": 5376,
      "Sm": 5377,
      "_M": 5378,
      "barr": 5379,
      "caught": 5380,
      "eth": 5381,
      "fit": 5382,
      "fles": 5383,
      "mediate": 5384,
      "musc": 5385,
      "osc": 5386,
      "pedicellariæ": 5387,
      "##rid": 5388,
      "##iew": 5389,
      "##eem": 5390,
      "##fare": 5391,
      "##mas": 5392,
      "##OD": 5393,
      "##erning": 5394,
      "theological": 5395,
      "##iteness": 5396,
      "##icable": 5397,
      "##asing": 5398,
      "whale": 5399,
      "##stairs": 5400,
      "novel": 5401,
      "pred": 5402,
      "##irst": 5403,
      "##abb": 5404,
      "station": 5405,
      "##ilities": 5406,
      "dead": 5407,
      "##oreal": 5408,
      "##antic": 5409,
      "unlim": 5410,
      "##umin": 5411,
      "share": 5412,
      "expose": 5413,
      "park": 5414,
      "##oted": 5415,
      "undert": 5416,
      "youth": 5417,
      "abn": 5418,
      "aband": 5419,
      "plates": 5420,
      "partner": 5421,
      "##udence": 5422,
      "disag": 5423,
      "consent": 5424,
      "clover": 5425,
      "Int": 5426,
      "Its": 5427,
      "amaz": 5428,
      "##oke": 5429,
      "attack": 5430,
      "seeking": 5431,
      "sensations": 5432,
      "bred": 5433,
      "absent": 5434,
      "##tened": 5435,
      "discipline": 5436,
      "flow": 5437,
      "Whatever": 5438,
      "judging": 5439,
      "##ocking": 5440,
      "calling": 5441,
      "contrib": 5442,
      "finding": 5443,
      "scene": 5444,
      "schemat": 5445,
      "remarkably": 5446,
      "justify": 5447,
      "involved": 5448,
      "powerful": 5449,
      "addressed": 5450,
      "##flies": 5451,
      "passes": 5452,
      "impossibility": 5453,
      "synthetically": 5454,
      "gradation": 5455,
      "slave": 5456,
      "esteem": 5457,
      "persons": 5458,
      "peculiarities": 5459,
      "requiring": 5460,
      "felicity": 5461,
      "analogies": 5462,
      "Ant": 5463,
      "indicated": 5464,
      "Charles": 5465,
      "Character": 5466,
      "aided": 5467,
      "Before": 5468,
      "homes": 5469,
      "competent": 5470,
      "detected": 5471,
      "servant": 5472,
      "skull": 5473,
      "annually": 5474,
      "occupies": 5475,
      "definitions": 5476,
      "fortunate": 5477,
      "operation": 5478,
      "seriously": 5479,
      "exceptions": 5480,
      "educ": 5481,
      "ranging": 5482,
      "contempl": 5483,
      "repeatedly": 5484,
      "demands": 5485,
      "##ECTION": 5486,
      "rapidly": 5487,
      "geometry": 5488,
      "nerves": 5489,
      "welfare": 5490,
      "eminent": 5491,
      "_your": 5492,
      "vigorous": 5493,
      "smiled": 5494,
      "flora": 5495,
      "calc": 5496,
      "displayed": 5497,
      "vegetable": 5498,
      "assigned": 5499,
      "touch": 5500,
      "tolerably": 5501,
      "suggested": 5502,
      "encourage": 5503,
      "resentment": 5504,
      "elegant": 5505,
      "renew": 5506,
      "prospect": 5507,
      "unusual": 5508,
      "floated": 5509,
      "Huber": 5510,
      "architect": 5511,
      "reveal": 5512,
      "valuable": 5513,
      "ontological": 5514,
      "restricted": 5515,
      "disappointment": 5516,
      "borrow": 5517,
      "conflict": 5518,
      "viscid": 5519,
      "thirty": 5520,
      "travell": 5521,
      "receptivity": 5522,
      "unlimited": 5523,
      "disagree": 5524,
      "Last": 5525,
      "Look": 5526,
      "Mamm": 5527,
      "Str": 5528,
      "Solution": 5529,
      "Satur": 5530,
      "Upon": 5531,
      "barriers": 5532,
      "counter": 5533,
      "fond": 5534,
      "glo": 5535,
      "glands": 5536,
      "hook": 5537,
      "lying": 5538,
      "lives": 5539,
      "medi": 5540,
      "mech": 5541,
      "pel": 5542,
      "rh": 5543,
      "warn": 5544,
      "æsthetic": 5545,
      "##rac": 5546,
      "##iæ": 5547,
      "##ture": 5548,
      "##low": 5549,
      "##hound": 5550,
      "##uel": 5551,
      "##AM": 5552,
      "##zen": 5553,
      "##SIS": 5554,
      "##ërial": 5555,
      "##ena": 5556,
      "##atural": 5557,
      "##org": 5558,
      "##oral": 5559,
      "##anent": 5560,
      "##arc": 5561,
      "##eck": 5562,
      "conqu": 5563,
      "reared": 5564,
      "noble": 5565,
      "asking": 5566,
      "anten": 5567,
      "exagger": 5568,
      "##imal": 5569,
      "##ura": 5570,
      "noticed": 5571,
      "##ifies": 5572,
      "seated": 5573,
      "seize": 5574,
      "sto": 5575,
      "story": 5576,
      "stead": 5577,
      "##ivorous": 5578,
      "##ests": 5579,
      "unal": 5580,
      "##oline": 5581,
      "chose": 5582,
      "##aped": 5583,
      "##apit": 5584,
      "grate": 5585,
      "grav": 5586,
      "Though": 5587,
      "pha": 5588,
      "indul": 5589,
      "regular": 5590,
      "regularly": 5591,
      "working": 5592,
      "proposed": 5593,
      "##awn": 5594,
      "archipelago": 5595,
      "modify": 5596,
      "##orial": 5597,
      "desert": 5598,
      "Forbes": 5599,
      "incess": 5600,
      "incons": 5601,
      "thrush": 5602,
      "numer": 5603,
      "completion": 5604,
      "considerably": 5605,
      "consequent": 5606,
      "concerning": 5607,
      "judged": 5608,
      "connects": 5609,
      "insens": 5610,
      "shallow": 5611,
      "advisable": 5612,
      "##upials": 5613,
      "confused": 5614,
      "looks": 5615,
      "secret": 5616,
      "causing": 5617,
      "##parably": 5618,
      "wherever": 5619,
      "observer": 5620,
      "adding": 5621,
      "##fluous": 5622,
      "geologists": 5623,
      "lastly": 5624,
      "constituted": 5625,
      "elev": 5626,
      "comparing": 5627,
      "##peck": 5628,
      "mainly": 5629,
      "matters": 5630,
      "finished": 5631,
      "totally": 5632,
      "adaptive": 5633,
      "physico": 5634,
      "oldest": 5635,
      "entertain": 5636,
      "glaci": 5637,
      "analogical": 5638,
      "stronger": 5639,
      "moments": 5640,
      "denudation": 5641,
      "attributes": 5642,
      "bears": 5643,
      "leaf": 5644,
      "minor": 5645,
      "signs": 5646,
      "lowlands": 5647,
      "wait": 5648,
      "Unity": 5649,
      "apt": 5650,
      "thousands": 5651,
      "Indian": 5652,
      "sentiments": 5653,
      "hopeless": 5654,
      "beaks": 5655,
      "keeping": 5656,
      "disappears": 5657,
      "dimorphic": 5658,
      "persuasion": 5659,
      "proportional": 5660,
      "afforded": 5661,
      "survival": 5662,
      "##ICAL": 5663,
      "deeply": 5664,
      "angry": 5665,
      "dining": 5666,
      "motives": 5667,
      "superfluous": 5668,
      "filled": 5669,
      "fairly": 5670,
      "books": 5671,
      "movement": 5672,
      "exhibit": 5673,
      "politeness": 5674,
      "supplanted": 5675,
      "vigour": 5676,
      "eagerly": 5677,
      "battle": 5678,
      "annihilated": 5679,
      "barb": 5680,
      "firmly": 5681,
      "building": 5682,
      "closest": 5683,
      "prevailed": 5684,
      "delicate": 5685,
      "heavy": 5686,
      "##ligion": 5687,
      "unequal": 5688,
      "teleological": 5689,
      "diminished": 5690,
      "butterflies": 5691,
      "membrane": 5692,
      "Caroline": 5693,
      "_On": 5694,
      "assurance": 5695,
      "companion": 5696,
      "electric": 5697,
      "antithesis": 5698,
      "propriety": 5699,
      "fashion": 5700,
      "Saturday": 5701,
      "glaciers": 5702,
      ".’": 5703,
      "Ab": 5704,
      "During": 5705,
      "First": 5706,
      "Great": 5707,
      "Kö": 5708,
      "Log": 5709,
      "Lord": 5710,
      "Rud": 5711,
      "_c": 5712,
      "bur": 5713,
      "bond": 5714,
      "carri": 5715,
      "dine": 5716,
      "fire": 5717,
      "game": 5718,
      "hint": 5719,
      "irr": 5720,
      "lively": 5721,
      "mand": 5722,
      "mud": 5723,
      "nine": 5724,
      "ray": 5725,
      "section": 5726,
      "sangu": 5727,
      "##ax": 5728,
      "##aved": 5729,
      "##aire": 5730,
      "##iation": 5731,
      "##off": 5732,
      "##lre": 5733,
      "##hes": 5734,
      "##vous": 5735,
      "##kon": 5736,
      "##junc": 5737,
      "##OM": 5738,
      "##IV": 5739,
      "##ION": 5740,
      "##eduction": 5741,
      "##itas": 5742,
      "inex": 5743,
      "##ora": 5744,
      "##ored": 5745,
      "##orane": 5746,
      "##omal": 5747,
      "##enth": 5748,
      "aside": 5749,
      "asham": 5750,
      "prod": 5751,
      "anomal": 5752,
      "##etaphys": 5753,
      "seas": 5754,
      "##ills": 5755,
      "##ourish": 5756,
      "unlike": 5757,
      "unfortun": 5758,
      "##olving": 5759,
      "intim": 5760,
      "permitted": 5761,
      "trib": 5762,
      "objected": 5763,
      "##arded": 5764,
      "##plex": 5765,
      "gran": 5766,
      "Then": 5767,
      "##eria": 5768,
      "##erience": 5769,
      "differing": 5770,
      "myst": 5771,
      "##aceous": 5772,
      "considers": 5773,
      "acclimat": 5774,
      "worse": 5775,
      "##agon": 5776,
      "upstairs": 5777,
      "modest": 5778,
      "composure": 5779,
      "##assiz": 5780,
      "reception": 5781,
      "presently": 5782,
      "instant": 5783,
      "sav": 5784,
      "discurs": 5785,
      "Where": 5786,
      "outer": 5787,
      "##icked": 5788,
      "score": 5789,
      "causal": 5790,
      "youngest": 5791,
      "##lication": 5792,
      "##ician": 5793,
      "depth": 5794,
      "illusions": 5795,
      "blown": 5796,
      "passages": 5797,
      "showed": 5798,
      "grades": 5799,
      "reading": 5800,
      "Rev": 5801,
      "precisely": 5802,
      "destitute": 5803,
      "plains": 5804,
      "mammal": 5805,
      "limitations": 5806,
      "precede": 5807,
      "progression": 5808,
      "competit": 5809,
      "define": 5810,
      "diverse": 5811,
      "divergent": 5812,
      "solid": 5813,
      "alteration": 5814,
      "collection": 5815,
      "suspect": 5816,
      "combined": 5817,
      "fool": 5818,
      "refr": 5819,
      "refuse": 5820,
      "imperfection": 5821,
      "larva": 5822,
      "Origin": 5823,
      "learnt": 5824,
      "establishment": 5825,
      "edifice": 5826,
      "reciprocally": 5827,
      "subordinated": 5828,
      "running": 5829,
      "assuming": 5830,
      "contemporane": 5831,
      "##ription": 5832,
      "referred": 5833,
      "antecedes": 5834,
      "Agassiz": 5835,
      "Varieties": 5836,
      "woodpeck": 5837,
      "writing": 5838,
      "anticipated": 5839,
      "fifty": 5840,
      "cheer": 5841,
      "_she_": 5842,
      "window": 5843,
      "welcome": 5844,
      "warmth": 5845,
      "details": 5846,
      "elder": 5847,
      "granted": 5848,
      "Principle": 5849,
      "Synth": 5850,
      "tolerable": 5851,
      "unconsciously": 5852,
      "palæontologists": 5853,
      "##optera": 5854,
      "schools": 5855,
      "magnitude": 5856,
      "declare": 5857,
      "grafted": 5858,
      "axioms": 5859,
      "deficient": 5860,
      "neglect": 5861,
      "killed": 5862,
      "steady": 5863,
      "Analytic": 5864,
      "million": 5865,
      "disturbed": 5866,
      "compassion": 5867,
      "entrance": 5868,
      "disgrace": 5869,
      "housekeeper": 5870,
      "unnecessary": 5871,
      "Hilaire": 5872,
      "oscill": 5873,
      "abnormal": 5874,
      "Lastly": 5875,
      "mechan": 5876,
      "Kölre": 5877,
      "##junctive": 5878,
      "ashamed": 5879,
      "Kölreuter": 5880,
      "Am": 5881,
      "Cir": 5882,
      "Caus": 5883,
      "Deduction": 5884,
      "Frit": 5885,
      "Id": 5886,
      "Jud": 5887,
      "Pars": 5888,
      "Qu": 5889,
      "aph": 5890,
      "cens": 5891,
      "dict": 5892,
      "er": 5893,
      "joy": 5894,
      "nasc": 5895,
      "om": 5896,
      "ped": 5897,
      "pop": 5898,
      "penetr": 5899,
      "rain": 5900,
      "taught": 5901,
      "vib": 5902,
      "##riment": 5903,
      "##ipp": 5904,
      "##oon": 5905,
      "##oad": 5906,
      "##gen": 5907,
      "##giana": 5908,
      "##wo": 5909,
      "##sis": 5910,
      "##cess": 5911,
      "##uits": 5912,
      "##UM": 5913,
      "##OS": 5914,
      "##ID": 5915,
      "##EM": 5916,
      "##eral": 5917,
      "##erity": 5918,
      "##inia": 5919,
      "inade": 5920,
      "##anth": 5921,
      "##alæ": 5922,
      "##set": 5923,
      "##terior": 5924,
      "notions": 5925,
      "##thers": 5926,
      "spend": 5927,
      "##abor": 5928,
      "deb": 5929,
      "##iven": 5930,
      "##ivision": 5931,
      "##usal": 5932,
      "proving": 5933,
      "##ossibility": 5934,
      "heath": 5935,
      "unre": 5936,
      "uneas": 5937,
      "##umed": 5938,
      "shame": 5939,
      "sharp": 5940,
      "permit": 5941,
      "tra": 5942,
      "tropical": 5943,
      "undergoing": 5944,
      "dozen": 5945,
      "ability": 5946,
      "grave": 5947,
      "parted": 5948,
      "partiality": 5949,
      "apprec": 5950,
      "disjunctive": 5951,
      "##aceæ": 5952,
      "stranger": 5953,
      "closed": 5954,
      "##ollusc": 5955,
      "propose": 5956,
      "Ins": 5957,
      "around": 5958,
      "experienced": 5959,
      "betray": 5960,
      "recourse": 5961,
      "reckon": 5962,
      "interference": 5963,
      "characterist": 5964,
      "serving": 5965,
      "preh": 5966,
      "preference": 5967,
      "fluct": 5968,
      "concur": 5969,
      "products": 5970,
      "confid": 5971,
      "pointed": 5972,
      "possessing": 5973,
      "belonged": 5974,
      "uncertain": 5975,
      "justly": 5976,
      "externally": 5977,
      "excuse": 5978,
      "eleph": 5979,
      "elevation": 5980,
      "disputes": 5981,
      "elabor": 5982,
      "sets": 5983,
      "occurrence": 5984,
      "retr": 5985,
      "explains": 5986,
      "intelligent": 5987,
      "dearest": 5988,
      "dependence": 5989,
      "heads": 5990,
      "returning": 5991,
      "explanations": 5992,
      "investigate": 5993,
      "progeny": 5994,
      "embryological": 5995,
      "misery": 5996,
      "Herbert": 5997,
      "peace": 5998,
      "metaphysic": 5999,
      "branchiæ": 6000,
      "informs": 6001,
      "fossiliferous": 6002,
      "extending": 6003,
      "Geoff": 6004,
      "sketch": 6005,
      "falsely": 6006,
      "Lucases": 6007,
      "affirmed": 6008,
      "affirmation": 6009,
      "collect": 6010,
      "oceans": 6011,
      "primary": 6012,
      "rarer": 6013,
      "Gray": 6014,
      "mistake": 6015,
      "sentence": 6016,
      "disappeared": 6017,
      "larval": 6018,
      "astonished": 6019,
      "innate": 6020,
      "protected": 6021,
      "Georgiana": 6022,
      "acknowledge": 6023,
      "Under": 6024,
      "gratified": 6025,
      "bottom": 6026,
      "Phenomen": 6027,
      "Philosop": 6028,
      "adaptations": 6029,
      "palæozoic": 6030,
      "desired": 6031,
      "PROO": 6032,
      "advancement": 6033,
      "Plata": 6034,
      "merit": 6035,
      "approaching": 6036,
      "masses": 6037,
      "retaining": 6038,
      "unfavour": 6039,
      "unnatural": 6040,
      "hurry": 6041,
      "mortal": 6042,
      "closer": 6043,
      "impressions": 6044,
      "grey": 6045,
      "latitude": 6046,
      "XXX": 6047,
      "admissible": 6048,
      "indirectly": 6049,
      "interrupted": 6050,
      "centuries": 6051,
      "decrease": 6052,
      "fatal": 6053,
      "inconven": 6054,
      "##oncil": 6055,
      "conjoined": 6056,
      "corporeal": 6057,
      "currents": 6058,
      "irregular": 6059,
      "incidental": 6060,
      "climbing": 6061,
      "unexpected": 6062,
      "unwilling": 6063,
      "_your_": 6064,
      "disagreeable": 6065,
      "antennæ": 6066,
      "prodig": 6067,
      "Synthetical": 6068,
      "Fritz": 6069,
      "nascent": 6070,
      "omn": 6071,
      "inadequ": 6072,
      "fluctu": 6073,
      "Geoffroy": 6074,
      "PROOF": 6075,
      ";--": 6076,
      "Creat": 6077,
      "Did": 6078,
      "Ego": 6079,
      "Have": 6080,
      "Most": 6081,
      "Pac": 6082,
      "Summary": 6083,
      "Take": 6084,
      "Wats": 6085,
      "XL": 6086,
      "ax": 6087,
      "ban": 6088,
      "cop": 6089,
      "elong": 6090,
      "fing": 6091,
      "fight": 6092,
      "fast": 6093,
      "gig": 6094,
      "hall": 6095,
      "lips": 6096,
      "ming": 6097,
      "mid": 6098,
      "mol": 6099,
      "misf": 6100,
      "pos": 6101,
      "patter": 6102,
      "rose": 6103,
      "sick": 6104,
      "wedd": 6105,
      "wolf": 6106,
      "##don": 6107,
      "##oly": 6108,
      "##otion": 6109,
      "##oof": 6110,
      "##lished": 6111,
      "##vity": 6112,
      "##kind": 6113,
      "##kward": 6114,
      "##bted": 6115,
      "##ming": 6116,
      "##OC": 6117,
      "##IR": 6118,
      "##ED": 6119,
      "##onage": 6120,
      "##att": 6121,
      "##atio": 6122,
      "##estern": 6123,
      "inse": 6124,
      "inorg": 6125,
      "##orp": 6126,
      "##ann": 6127,
      "##ancy": 6128,
      "##isure": 6129,
      "##alog": 6130,
      "##reen": 6131,
      "##reet": 6132,
      "##asted": 6133,
      "##asions": 6134,
      "whisp": 6135,
      "##step": 6136,
      "religion": 6137,
      "##owing": 6138,
      "note": 6139,
      "withd": 6140,
      "suit": 6141,
      "##essed": 6142,
      "##acles": 6143,
      "web": 6144,
      "##ifically": 6145,
      "##isting": 6146,
      "##aining": 6147,
      "seat": 6148,
      "stop": 6149,
      "##ilt": 6150,
      "##ads": 6151,
      "##adv": 6152,
      "##adation": 6153,
      "proves": 6154,
      "specifically": 6155,
      "alive": 6156,
      "##usted": 6157,
      "unl": 6158,
      "shire": 6159,
      "mel": 6160,
      "pardon": 6161,
      "##aking": 6162,
      "aberr": 6163,
      "aborted": 6164,
      "##oph": 6165,
      "##ensation": 6166,
      "##ffects": 6167,
      "generated": 6168,
      "impert": 6169,
      "impenetr": 6170,
      "thanks": 6171,
      "leisure": 6172,
      "Intr": 6173,
      "##acts": 6174,
      "shoulder": 6175,
      "charge": 6176,
      "inters": 6177,
      "characterised": 6178,
      "##ittest": 6179,
      "thence": 6180,
      "Who": 6181,
      "judges": 6182,
      "##strich": 6183,
      "features": 6184,
      "##olds": 6185,
      "contrast": 6186,
      "possessor": 6187,
      "activity": 6188,
      "immanent": 6189,
      "respectable": 6190,
      "indebted": 6191,
      "excav": 6192,
      "driven": 6193,
      "bases": 6194,
      "basins": 6195,
      "wishing": 6196,
      "##rehensible": 6197,
      "instinctive": 6198,
      "vision": 6199,
      "visits": 6200,
      "description": 6201,
      "colouring": 6202,
      "##ontal": 6203,
      "entertained": 6204,
      "glance": 6205,
      "fourteen": 6206,
      "tempt": 6207,
      "especial": 6208,
      "conducted": 6209,
      "falling": 6210,
      "apparatus": 6211,
      "Still": 6212,
      "preceded": 6213,
      "##orphism": 6214,
      "##retched": 6215,
      "conceivable": 6216,
      "clearness": 6217,
      "moved": 6218,
      "moving": 6219,
      "movable": 6220,
      "swarm": 6221,
      "Alph": 6222,
      "lowly": 6223,
      "month": 6224,
      "exclaim": 6225,
      "distinguishable": 6226,
      "apolog": 6227,
      "lays": 6228,
      "skill": 6229,
      "visitors": 6230,
      "admired": 6231,
      "province": 6232,
      "_my_": 6233,
      "rarity": 6234,
      "additional": 6235,
      "comprehensible": 6236,
      "awkward": 6237,
      "volition": 6238,
      "devour": 6239,
      "142": 6240,
      "accomplished": 6241,
      "describe": 6242,
      "yielded": 6243,
      "situated": 6244,
      "watched": 6245,
      "astonishing": 6246,
      "psychological": 6247,
      "measured": 6248,
      "trusted": 6249,
      "fifth": 6250,
      "schol": 6251,
      "Plat": 6252,
      "rejected": 6253,
      "unworthy": 6254,
      "maxims": 6255,
      "mongrel": 6256,
      "annihilate": 6257,
      "disappointed": 6258,
      "communication": 6259,
      "patron": 6260,
      "attraction": 6261,
      "green": 6262,
      "prepared": 6263,
      "ascertained": 6264,
      "feeding": 6265,
      "wisdom": 6266,
      "private": 6267,
      "immigration": 6268,
      "horizontal": 6269,
      "music": 6270,
      "hermaphrodites": 6271,
      "misunderstanding": 6272,
      "relief": 6273,
      "orchids": 6274,
      "pronounced": 6275,
      "Worlds": 6276,
      "##ergy": 6277,
      "incredible": 6278,
      "avicularia": 6279,
      "Organs": 6280,
      "neuters": 6281,
      "trimorphic": 6282,
      "abandon": 6283,
      "schemata": 6284,
      "education": 6285,
      "Rudimentary": 6286,
      "sanguinea": 6287,
      "discursive": 6288,
      "oscillations": 6289,
      "Ideal": 6290,
      "Parsonage": 6291,
      "characteristics": 6292,
      "unfavourable": 6293,
      "inadequate": 6294,
      "Watson": 6295,
      "elongated": 6296,
      "misfortun": 6297,
      "pattern": 6298,
      "wedding": 6299,
      "inorganic": 6300,
      "impertin": 6301,
      "69": 6302,
      "Com": 6303,
      "CON": 6304,
      "Disc": 6305,
      "GE": 6306,
      "Mars": 6307,
      "Oce": 6308,
      "Object": 6309,
      "Sch": 6310,
      "Typ": 6311,
      "VI": 6312,
      "_t": 6313,
      "_Y": 6314,
      "bit": 6315,
      "dig": 6316,
      "dign": 6317,
      "danced": 6318,
      "dared": 6319,
      "hot": 6320,
      "host": 6321,
      "la": 6322,
      "lens": 6323,
      "mim": 6324,
      "mouse": 6325,
      "names": 6326,
      "ostrich": 6327,
      "pun": 6328,
      "rig": 6329,
      "river": 6330,
      "rises": 6331,
      "sand": 6332,
      "sack": 6333,
      "tur": 6334,
      "tables": 6335,
      "upr": 6336,
      "vag": 6337,
      "##rated": 6338,
      "##ried": 6339,
      "##ais": 6340,
      "##iate": 6341,
      "##iated": 6342,
      "##iating": 6343,
      "##ob": 6344,
      "##nith": 6345,
      "##gments": 6346,
      "##gyp": 6347,
      "##ey": 6348,
      "##ement": 6349,
      "##uity": 6350,
      "##val": 6351,
      "##AS": 6352,
      "##OP": 6353,
      "##BR": 6354,
      "##erv": 6355,
      "##erland": 6356,
      "thesis": 6357,
      "##inations": 6358,
      "toes": 6359,
      "##alis": 6360,
      "##aring": 6361,
      "##lets": 6362,
      "pray": 6363,
      "forc": 6364,
      "anger": 6365,
      "anterior": 6366,
      "##terday": 6367,
      "##ired": 6368,
      "##osities": 6369,
      "##istinction": 6370,
      "frag": 6371,
      "front": 6372,
      "stations": 6373,
      "delay": 6374,
      "##gements": 6375,
      "unm": 6376,
      "formula": 6377,
      "##uman": 6378,
      "intensive": 6379,
      "sho": 6380,
      "##uccess": 6381,
      "perplex": 6382,
      "##ards": 6383,
      "adher": 6384,
      "willing": 6385,
      "partially": 6386,
      "##present": 6387,
      "append": 6388,
      "enounce": 6389,
      "accust": 6390,
      "empir": 6391,
      "distressed": 6392,
      "worked": 6393,
      "arose": 6394,
      "##unci": 6395,
      "remind": 6396,
      "modality": 6397,
      "craw": 6398,
      "##cience": 6399,
      "agencies": 6400,
      "selecting": 6401,
      "attending": 6402,
      "presentation": 6403,
      "subjectively": 6404,
      "Form": 6405,
      "saved": 6406,
      "served": 6407,
      "supplied": 6408,
      "bright": 6409,
      "##ava": 6410,
      "flies": 6411,
      "nowhere": 6412,
      "productive": 6413,
      "organon": 6414,
      "organized": 6415,
      "yours": 6416,
      "lessened": 6417,
      "##ission": 6418,
      "cave": 6419,
      "overcome": 6420,
      "successful": 6421,
      "valued": 6422,
      "fewer": 6423,
      "examining": 6424,
      "observers": 6425,
      "arriving": 6426,
      "##typ": 6427,
      "geese": 6428,
      "changeable": 6429,
      "bladd": 6430,
      "answers": 6431,
      "elim": 6432,
      "cogitating": 6433,
      "setting": 6434,
      "infert": 6435,
      "criteria": 6436,
      "explaining": 6437,
      "visible": 6438,
      "separating": 6439,
      "correspondence": 6440,
      "shortly": 6441,
      "independence": 6442,
      "divisible": 6443,
      "deduc": 6444,
      "tea": 6445,
      "breeders": 6446,
      "expectations": 6447,
      "momenta": 6448,
      "tempted": 6449,
      "Street": 6450,
      "memory": 6451,
      "pretended": 6452,
      "conceived": 6453,
      "Pray": 6454,
      "resembling": 6455,
      "excluded": 6456,
      "requirement": 6457,
      "conformably": 6458,
      "servants": 6459,
      "chapters": 6460,
      "silly": 6461,
      "##ubb": 6462,
      "falsehood": 6463,
      "occupy": 6464,
      "honest": 6465,
      "combination": 6466,
      "##itzerland": 6467,
      "painful": 6468,
      "attainment": 6469,
      "110": 6470,
      "volunt": 6471,
      "disappearance": 6472,
      "declares": 6473,
      "mutually": 6474,
      "stripe": 6475,
      "correlate": 6476,
      "spontaneously": 6477,
      "neighbours": 6478,
      "correctness": 6479,
      "108": 6480,
      "328": 6481,
      "imperfectly": 6482,
      "##ushed": 6483,
      "waters": 6484,
      "intercrossed": 6485,
      "governing": 6486,
      "recollection": 6487,
      "recollected": 6488,
      "fanci": 6489,
      "_his_": 6490,
      "obscurity": 6491,
      "maximum": 6492,
      "##idden": 6493,
      "enlarged": 6494,
      "weakness": 6495,
      "calm": 6496,
      "##belie": 6497,
      "concealed": 6498,
      "vegetation": 6499,
      "recommended": 6500,
      "baleen": 6501,
      "Idea": 6502,
      "sequel": 6503,
      "accurate": 6504,
      "accuracy": 6505,
      "confirmation": 6506,
      "yesterday": 6507,
      "ceased": 6508,
      "##OLOG": 6509,
      "involves": 6510,
      "admission": 6511,
      "ascending": 6512,
      "century": 6513,
      "Experience": 6514,
      "pupæ": 6515,
      "seasons": 6516,
      "clothes": 6517,
      "overlooked": 6518,
      "convenience": 6519,
      "embarrassment": 6520,
      "Switzerland": 6521,
      "stems": 6522,
      "victory": 6523,
      "adopt": 6524,
      "enjoyment": 6525,
      "degradation": 6526,
      "contrivance": 6527,
      "rejo": 6528,
      "amusement": 6529,
      "reproach": 6530,
      "breathing": 6531,
      "obligation": 6532,
      "##opods": 6533,
      "erroneous": 6534,
      "unhappy": 6535,
      "##racula": 6536,
      "grateful": 6537,
      "phaenomen": 6538,
      "mandible": 6539,
      "Judgements": 6540,
      "popular": 6541,
      "Creator": 6542,
      "axis": 6543,
      "gigantic": 6544,
      "##advant": 6545,
      "##gypt": 6546,
      "(“": 6547,
      "Ad": 6548,
      "Categ": 6549,
      "Denn": 6550,
      "Effects": 6551,
      "Egypt": 6552,
      "Germ": 6553,
      "Hab": 6554,
      "Hume": 6555,
      "Metaphys": 6556,
      "Pers": 6557,
      "Rams": 6558,
      "Sal": 6559,
      "Tues": 6560,
      "Use": 6561,
      "Woll": 6562,
      "_E": 6563,
      "bow": 6564,
      "bore": 6565,
      "bars": 6566,
      "cater": 6567,
      "carn": 6568,
      "ego": 6569,
      "fil": 6570,
      "fost": 6571,
      "fix": 6572,
      "folly": 6573,
      "honey": 6574,
      "hidden": 6575,
      "ice": 6576,
      "mir": 6577,
      "mice": 6578,
      "mixed": 6579,
      "medit": 6580,
      "nin": 6581,
      "neck": 6582,
      "pond": 6583,
      "sink": 6584,
      "sacr": 6585,
      "tong": 6586,
      "wretched": 6587,
      "##ige": 6588,
      "##oir": 6589,
      "##nes": 6590,
      "##ee": 6591,
      "##hn": 6592,
      "##hal": 6593,
      "##yr": 6594,
      "##pill": 6595,
      "##kes": 6596,
      "##kins": 6597,
      "##breed": 6598,
      "##fold": 6599,
      "##fty": 6600,
      "##UC": 6601,
      "##CE": 6602,
      "thread": 6603,
      "##enes": 6604,
      "##inous": 6605,
      "##inable": 6606,
      "##inarily": 6607,
      "##atorial": 6608,
      "##iture": 6609,
      "##itative": 6610,
      "##itates": 6611,
      "##itious": 6612,
      "##orter": 6613,
      "##anqu": 6614,
      "beast": 6615,
      "below": 6616,
      "whales": 6617,
      "##vell": 6618,
      "asp": 6619,
      "anthers": 6620,
      "##ternal": 6621,
      "exemp": 6622,
      "##im_": 6623,
      "##owd": 6624,
      "##osis": 6625,
      "##acle": 6626,
      "##itions": 6627,
      "##etition": 6628,
      "weap": 6629,
      "weigh": 6630,
      "spect": 6631,
      "##aments": 6632,
      "##odents": 6633,
      "##ulous": 6634,
      "##ilis": 6635,
      "deli": 6636,
      "##pping": 6637,
      "solic": 6638,
      "specified": 6639,
      "heat": 6640,
      "heter": 6641,
      "##lipon": 6642,
      "unp": 6643,
      "unint": 6644,
      "##ande": 6645,
      "shorter": 6646,
      "neuter": 6647,
      "natured": 6648,
      "tranqu": 6649,
      "abom": 6650,
      "existences": 6651,
      "Those": 6652,
      "appropri": 6653,
      "displeas": 6654,
      "disadvant": 6655,
      "generous": 6656,
      "imposed": 6657,
      "imposes": 6658,
      "indign": 6659,
      "induced": 6660,
      "##ortic": 6661,
      "consult": 6662,
      "distances": 6663,
      "##urality": 6664,
      "proportions": 6665,
      "##earance": 6666,
      "amb": 6667,
      "##aston": 6668,
      "remove": 6669,
      "moderate": 6670,
      "idle": 6671,
      "cry": 6672,
      "cruel": 6673,
      "agreed": 6674,
      "subd": 6675,
      "reconcil": 6676,
      "interbreed": 6677,
      "ideality": 6678,
      "##ephal": 6679,
      "sensitive": 6680,
      "##anges": 6681,
      "supposes": 6682,
      "loved": 6683,
      "lofty": 6684,
      "brings": 6685,
      "premiss": 6686,
      "accords": 6687,
      "owe": 6688,
      "affecting": 6689,
      "flu": 6690,
      "##finitum": 6691,
      "occasions": 6692,
      "##yss": 6693,
      "insup": 6694,
      "outward": 6695,
      "fee": 6696,
      "##olded": 6697,
      "endured": 6698,
      "oftenest": 6699,
      "goodness": 6700,
      "systemat": 6701,
      "purch": 6702,
      "maturity": 6703,
      "##mbell": 6704,
      "faced": 6705,
      "Asa": 6706,
      "indefinitum": 6707,
      "deposition": 6708,
      "expressing": 6709,
      "drop": 6710,
      "equator": 6711,
      "disputed": 6712,
      "elope": 6713,
      "estimate": 6714,
      "coach": 6715,
      "effectually": 6716,
      "##aired": 6717,
      "attempting": 6718,
      "convince": 6719,
      "imagined": 6720,
      "caps": 6721,
      "divine": 6722,
      "separately": 6723,
      "lands": 6724,
      "Concl": 6725,
      "186": 6726,
      "184": 6727,
      "regressive": 6728,
      "Any": 6729,
      "summits": 6730,
      "indicating": 6731,
      "contingencies": 6732,
      "flowering": 6733,
      "tells": 6734,
      "fulf": 6735,
      "catch": 6736,
      "accumulating": 6737,
      "personal": 6738,
      "diverged": 6739,
      "diverging": 6740,
      "offers": 6741,
      "offered": 6742,
      "treatment": 6743,
      "combat": 6744,
      "strike": 6745,
      "##uitous": 6746,
      "centre": 6747,
      "repeat": 6748,
      "simplicity": 6749,
      "maintains": 6750,
      "pursued": 6751,
      "extraordinarily": 6752,
      "##ustacea": 6753,
      "cousins": 6754,
      "surviving": 6755,
      "checks": 6756,
      "paralogism": 6757,
      "enables": 6758,
      "isolation": 6759,
      "spreading": 6760,
      "comfortable": 6761,
      "Croll": 6762,
      "laughed": 6763,
      "positively": 6764,
      "social": 6765,
      "writings": 6766,
      "desirable": 6767,
      "fifteen": 6768,
      "_him_": 6769,
      "carrying": 6770,
      "languages": 6771,
      "teaches": 6772,
      "enormously": 6773,
      "florets": 6774,
      "engagements": 6775,
      "arms": 6776,
      "communicated": 6777,
      "ANTI": 6778,
      "##URE": 6779,
      "nieces": 6780,
      "touched": 6781,
      "pistils": 6782,
      "impression": 6783,
      "sceptical": 6784,
      "delicacy": 6785,
      "continuity": 6786,
      "heaven": 6787,
      "earnestly": 6788,
      "fauna": 6789,
      "elegance": 6790,
      "unusually": 6791,
      "310": 6792,
      "accidentally": 6793,
      "metamorphosis": 6794,
      "ample": 6795,
      "horizon": 6796,
      "ratio": 6797,
      "revert": 6798,
      "violent": 6799,
      "Melipon": 6800,
      "Instinct": 6801,
      "ascribe": 6802,
      "ascribed": 6803,
      "Scotland": 6804,
      "See": 6805,
      "grieved": 6806,
      "disgu": 6807,
      "efficient": 6808,
      "congratulations": 6809,
      "fancied": 6810,
      "enumer": 6811,
      "reserve": 6812,
      "defective": 6813,
      "ancestor": 6814,
      "Secondly": 6815,
      "Extinction": 6816,
      "Smith": 6817,
      "rhom": 6818,
      "gravity": 6819,
      "acclimatisation": 6820,
      "competitors": 6821,
      "vibracula": 6822,
      "unreason": 6823,
      "Insects": 6824,
      "elephant": 6825,
      "Phenomena": 6826,
      "greyhound": 6827,
      "Pacific": 6828,
      "mingled": 6829,
      "Introduc": 6830,
      "Plato": 6831,
      "_You_": 6832,
      "accustomed": 6833,
      "Denny": 6834,
      "Tuesday": 6835,
      "caterpill": 6836,
      "beasts": 6837,
      "weapons": 6838,
      "interbreeding": 6839,
      "Melipona": 6840,
      ".;": 6841,
      "40": 6842,
      "59": 6843,
      "66": 6844,
      "Az": 6845,
      "Aff": 6846,
      "Barr": 6847,
      "Division": 6848,
      "Es": 6849,
      "Each": 6850,
      "Himal": 6851,
      "Hipp": 6852,
      "Lep": 6853,
      "May": 6854,
      "Mod": 6855,
      "NAT": 6856,
      "Other": 6857,
      "PL": 6858,
      "Pict": 6859,
      "Palæ": 6860,
      "RE": 6861,
      "Rec": 6862,
      "Rem": 6863,
      "Supp": 6864,
      "Tot": 6865,
      "UN": 6866,
      "Will": 6867,
      "Water": 6868,
      "_n": 6869,
      "_A": 6870,
      "_not": 6871,
      "cert": 6872,
      "dang": 6873,
      "dances": 6874,
      "eat": 6875,
      "faint": 6876,
      "fittest": 6877,
      "ga": 6878,
      "hate": 6879,
      "lif": 6880,
      "lung": 6881,
      "moth": 6882,
      "mund": 6883,
      "nak": 6884,
      "null": 6885,
      "oak": 6886,
      "odd": 6887,
      "pit": 6888,
      "potent": 6889,
      "portions": 6890,
      "rude": 6891,
      "song": 6892,
      "squir": 6893,
      "ter": 6894,
      "tiss": 6895,
      "vac": 6896,
      "varies": 6897,
      "wider": 6898,
      "western": 6899,
      "zones": 6900,
      "##ruct": 6901,
      "##aërial": 6902,
      "##ii": 6903,
      "##iol": 6904,
      "##to": 6905,
      "##ohn": 6906,
      "##lour": 6907,
      "##lace": 6908,
      "##yx": 6909,
      "##uv": 6910,
      "##uge": 6911,
      "##pt": 6912,
      "##ps": 6913,
      "##bled": 6914,
      "##morphic": 6915,
      "##ximate": 6916,
      "##xagon": 6917,
      "##ze": 6918,
      "##IG": 6919,
      "##IM": 6920,
      "thither": 6921,
      "##eræ": 6922,
      "##inus": 6923,
      "##atr": 6924,
      "##itating": 6925,
      "inner": 6926,
      "inability": 6927,
      "##alks": 6928,
      "##icle": 6929,
      "##stances": 6930,
      "notorious": 6931,
      "##idity": 6932,
      "##verse": 6933,
      "##actions": 6934,
      "##iferæ": 6935,
      "frame": 6936,
      "fruits": 6937,
      "segments": 6938,
      "##oulders": 6939,
      "##iles": 6940,
      "##ilful": 6941,
      "##ogen": 6942,
      "compr": 6943,
      "##ender": 6944,
      "aloud": 6945,
      "hexagon": 6946,
      "##ourished": 6947,
      "##lia": 6948,
      "unpleas": 6949,
      "##oles": 6950,
      "##olves": 6951,
      "shook": 6952,
      "shaken": 6953,
      "##que": 6954,
      "exposing": 6955,
      "permiss": 6956,
      "mankind": 6957,
      "cham": 6958,
      "chick": 6959,
      "chaise": 6960,
      "parish": 6961,
      "parlour": 6962,
      "##otyp": 6963,
      "abode": 6964,
      "##plete": 6965,
      "placing": 6966,
      "##oping": 6967,
      "existent": 6968,
      "disbelie": 6969,
      "quit": 6970,
      "impart": 6971,
      "contents": 6972,
      "##ishes": 6973,
      "striving": 6974,
      "symm": 6975,
      "experiences": 6976,
      "##aging": 6977,
      "##ounces": 6978,
      "intuite": 6979,
      "crop": 6980,
      "crowd": 6981,
      "agent": 6982,
      "subaërial": 6983,
      "income": 6984,
      "instruction": 6985,
      "##berry": 6986,
      "##anging": 6987,
      "supper": 6988,
      "brain": 6989,
      "##avag": 6990,
      "insp": 6991,
      "caud": 6992,
      "caution": 6993,
      "continental": 6994,
      "##soever": 6995,
      "advancing": 6996,
      "newly": 6997,
      "presume": 6998,
      "presumption": 6999,
      "##urning": 7000,
      "confounded": 7001,
      "security": 7002,
      "immort": 7003,
      "inval": 7004,
      "invited": 7005,
      "discoverable": 7006,
      "concluding": 7007,
      "concludes": 7008,
      "ordered": 7009,
      "deposit": 7010,
      "adduced": 7011,
      "morph": 7012,
      "blank": 7013,
      "##lessness": 7014,
      "commend": 7015,
      "##unct": 7016,
      "quantum": 7017,
      "coinc": 7018,
      "readers": 7019,
      "occurring": 7020,
      "contradistinction": 7021,
      "eastern": 7022,
      "resembles": 7023,
      "divide": 7024,
      "destination": 7025,
      "predicated": 7026,
      "allowing": 7027,
      "182": 7028,
      "preserving": 7029,
      "hypost": 7030,
      "##key": 7031,
      "divisibility": 7032,
      "amongst": 7033,
      "summon": 7034,
      "denom": 7035,
      "wondered": 7036,
      ").—": 7037,
      "behaved": 7038,
      "Prob": 7039,
      "endeavouring": 7040,
      "influences": 7041,
      "conceit": 7042,
      "Prot": 7043,
      "reduce": 7044,
      "reduction": 7045,
      "branched": 7046,
      "branching": 7047,
      "poison": 7048,
      "exclude": 7049,
      "apprehend": 7050,
      "specialised": 7051,
      "defend": 7052,
      "getting": 7053,
      "layer": 7054,
      "laying": 7055,
      "visitor": 7056,
      "Arctic": 7057,
      "migrate": 7058,
      "##arsi": 7059,
      "provide": 7060,
      "applying": 7061,
      "Grant": 7062,
      "accidents": 7063,
      "introducing": 7064,
      "fears": 7065,
      "feared": 7066,
      "_the": 7067,
      "complain": 7068,
      "compliments": 7069,
      "climat": 7070,
      "pursuit": 7071,
      "pursues": 7072,
      "removing": 7073,
      "honoured": 7074,
      "accomplish": 7075,
      "##ltry": 7076,
      "protection": 7077,
      "affords": 7078,
      "exterminate": 7079,
      "100": 7080,
      "107": 7081,
      "##ESS": 7082,
      "labours": 7083,
      "figures": 7084,
      "##ebra": 7085,
      "345": 7086,
      "revolution": 7087,
      "watching": 7088,
      "335": 7089,
      "recognize": 7090,
      "173": 7091,
      "Variability": 7092,
      "laughing": 7093,
      "##zoa": 7094,
      "##ARY": 7095,
      "##ARI": 7096,
      "southward": 7097,
      "anticipate": 7098,
      "confessed": 7099,
      "302": 7100,
      "nerve": 7101,
      "nervous": 7102,
      "ventured": 7103,
      "attentive": 7104,
      "abruptly": 7105,
      "illustrate": 7106,
      "guarded": 7107,
      "hurried": 7108,
      "attract": 7109,
      "cutting": 7110,
      "beetle": 7111,
      "balance": 7112,
      "germinated": 7113,
      "restraint": 7114,
      "Poly": 7115,
      "vertebræ": 7116,
      "vertebrate": 7117,
      "metamorphosed": 7118,
      "dissimilarity": 7119,
      "dreadful": 7120,
      "clothed": 7121,
      "monstrous": 7122,
      "monstrosities": 7123,
      "flex": 7124,
      "hermaphrodite": 7125,
      "propagated": 7126,
      "recovered": 7127,
      "misunder": 7128,
      "simplest": 7129,
      "governed": 7130,
      "poultry": 7131,
      "execution": 7132,
      "consolation": 7133,
      "drove": 7134,
      "##chetyp": 7135,
      "Hybrid": 7136,
      "nutriment": 7137,
      "wander": 7138,
      "extravag": 7139,
      "abundant": 7140,
      "proposal": 7141,
      "colonists": 7142,
      "polymorphic": 7143,
      "tears": 7144,
      "beaten": 7145,
      "Empirical": 7146,
      "barren": 7147,
      "flesh": 7148,
      "borrowed": 7149,
      "stopped": 7150,
      "steadily": 7151,
      "unaltered": 7152,
      "insensibly": 7153,
      "woodpecker": 7154,
      "Among": 7155,
      "Causes": 7156,
      "aphides": 7157,
      "fluctuating": 7158,
      "fighting": 7159,
      "posited": 7160,
      "webbed": 7161,
      "bladder": 7162,
      "phaenomenon": 7163,
      "Wollaston": 7164,
      "insuperable": 7165,
      "##mbelliferæ": 7166,
      "elopement": 7167,
      "Barrande": 7168,
      "Himalay": 7169,
      "Pictet": 7170,
      "naked": 7171,
      "territ": 7172,
      "(§": 7173,
      ",[": 7174,
      "56": 7175,
      "75": 7176,
      "Ac": 7177,
      "Bates": 7178,
      "Bra": 7179,
      "Could": 7180,
      "Cons": 7181,
      "Go": 7182,
      "Hope": 7183,
      "Human": 7184,
      "John": 7185,
      "King": 7186,
      "Lin": 7187,
      "Mountain": 7188,
      "Pre": 7189,
      "Pyr": 7190,
      "Ver": 7191,
      "VII": 7192,
      "Vertebr": 7193,
      "XV": 7194,
      "bul": 7195,
      "boulders": 7196,
      "cere": 7197,
      "cord": 7198,
      "dre": 7199,
      "die": 7200,
      "dull": 7201,
      "etern": 7202,
      "fed": 7203,
      "fellow": 7204,
      "harm": 7205,
      "hoof": 7206,
      "lac": 7207,
      "lot": 7208,
      "luck": 7209,
      "lament": 7210,
      "mic": 7211,
      "mocking": 7212,
      "mollusc": 7213,
      "nons": 7214,
      "rough": 7215,
      "sess": 7216,
      "sif": 7217,
      "sad": 7218,
      "tu": 7219,
      "tub": 7220,
      "tarsi": 7221,
      "verm": 7222,
      "yellow": 7223,
      "zebra": 7224,
      "##rus": 7225,
      "##aised": 7226,
      "##iance": 7227,
      "##oe": 7228,
      "##occ": 7229,
      "##ease": 7230,
      "##ls": 7231,
      "##hor": 7232,
      "##hall": 7233,
      "##scept": 7234,
      "##pi": 7235,
      "##bton": 7236,
      "##fly": 7237,
      "##mes": 7238,
      "##just": 7239,
      "##UT": 7240,
      "##TY": 7241,
      "##zil": 7242,
      "##IA": 7243,
      "##PH": 7244,
      "##ero": 7245,
      "##onstr": 7246,
      "##inion": 7247,
      "##inating": 7248,
      "##ativ": 7249,
      "##atisf": 7250,
      "##escend": 7251,
      "##itudes": 7252,
      "##isition": 7253,
      "##icate": 7254,
      "begg": 7255,
      "##llars": 7256,
      "convey": 7257,
      "##sters": 7258,
      "##sem": 7259,
      "reaction": 7260,
      "asks": 7261,
      "prudent": 7262,
      "forty": 7263,
      "suscept": 7264,
      "##vered": 7265,
      "##acc": 7266,
      "spher": 7267,
      "##istot": 7268,
      "fright": 7269,
      "##odon": 7270,
      "seized": 7271,
      "seizing": 7272,
      "##ulg": 7273,
      "stup": 7274,
      "##char": 7275,
      "##gel": 7276,
      "##ivation": 7277,
      "soil": 7278,
      "solem": 7279,
      "alle": 7280,
      "unce": 7281,
      "unjust": 7282,
      "##anded": 7283,
      "##olve": 7284,
      "acute": 7285,
      "##ums": 7286,
      "shr": 7287,
      "shut": 7288,
      "shad": 7289,
      "shove": 7290,
      "expense": 7291,
      "chim": 7292,
      "church": 7293,
      "hast": 7294,
      "haste": 7295,
      "doors": 7296,
      "dollars": 7297,
      "plurality": 7298,
      "genu": 7299,
      "##igs": 7300,
      "grasp": 7301,
      "Thr": 7302,
      "##ensile": 7303,
      "##achians": 7304,
      "appeal": 7305,
      "dissem": 7306,
      "dischar": 7307,
      "generality": 7308,
      "evolution": 7309,
      "conspic": 7310,
      "console": 7311,
      "##ultural": 7312,
      "clust": 7313,
      "cliff": 7314,
      "##ipe": 7315,
      "symp": 7316,
      "archetyp": 7317,
      "whatsoever": 7318,
      "resear": 7319,
      "##unal": 7320,
      "modifying": 7321,
      "compensation": 7322,
      "crust": 7323,
      "crown": 7324,
      "##orily": 7325,
      "select": 7326,
      "firstly": 7327,
      "##ization": 7328,
      "##othrus": 7329,
      "brows": 7330,
      "immat": 7331,
      "discern": 7332,
      "##anean": 7333,
      "lessen": 7334,
      "larg": 7335,
      "continual": 7336,
      "kindly": 7337,
      "probosc": 7338,
      "##ieu": 7339,
      "happiest": 7340,
      "##uously": 7341,
      "##oups": 7342,
      "coroll": 7343,
      "overstep": 7344,
      "Bennets": 7345,
      "secrec": 7346,
      "grouped": 7347,
      "scr": 7348,
      "scatter": 7349,
      "wherein": 7350,
      "repetition": 7351,
      "decis": 7352,
      "decomp": 7353,
      "invent": 7354,
      "##igned": 7355,
      "conclus": 7356,
      "begun": 7357,
      "blended": 7358,
      "descending": 7359,
      "tender": 7360,
      "metaph": 7361,
      "drink": 7362,
      "equatorial": 7363,
      "speed": 7364,
      "widest": 7365,
      "selfish": 7366,
      "##ext": 7367,
      "##fting": 7368,
      "speaks": 7369,
      "rooms": 7370,
      "capt": 7371,
      "finish": 7372,
      "Reyn": 7373,
      "receives": 7374,
      "marg": 7375,
      "bestowed": 7376,
      "rendering": 7377,
      "allowance": 7378,
      "unconditionally": 7379,
      "acquisition": 7380,
      "talent": 7381,
      "infall": 7382,
      "regressus": 7383,
      "Another": 7384,
      "curved": 7385,
      "tempor": 7386,
      "discussing": 7387,
      "##uggle": 7388,
      "mamma": 7389,
      "subsisting": 7390,
      "fallacious": 7391,
      "Proof": 7392,
      "memoir": 7393,
      "miserable": 7394,
      "miscon": 7395,
      "moon": 7396,
      "waiting": 7397,
      "inquiring": 7398,
      "catalog": 7399,
      "compete": 7400,
      "excluding": 7401,
      "methods": 7402,
      "methodical": 7403,
      "Aristot": 7404,
      "dogmatism": 7405,
      "approbation": 7406,
      "approximate": 7407,
      "collecting": 7408,
      "##iquity": 7409,
      "historical": 7410,
      "treats": 7411,
      "treatises": 7412,
      "mistress": 7413,
      "furniture": 7414,
      "pains": 7415,
      "sixty": 7416,
      "112": 7417,
      "milk": 7418,
      "linked": 7419,
      "##while": 7420,
      "injured": 7421,
      "confines": 7422,
      "surfaces": 7423,
      "continuously": 7424,
      "declaration": 7425,
      "heartily": 7426,
      "friendship": 7427,
      "recorded": 7428,
      "yielding": 7429,
      "staying": 7430,
      "rapt": 7431,
      "353": 7432,
      "325": 7433,
      "uniformity": 7434,
      "asserts": 7435,
      "reflections": 7436,
      "winged": 7437,
      "review": 7438,
      "238": 7439,
      "watch": 7440,
      "harmonize": 7441,
      "338": 7442,
      "recognised": 7443,
      "174": 7444,
      "##ING": 7445,
      "Crustaceans": 7446,
      "Crustacea": 7447,
      "ovules": 7448,
      "deceive": 7449,
      "##amples": 7450,
      "287": 7451,
      "mouths": 7452,
      "##ogeneity": 7453,
      "graduate": 7454,
      "anticipation": 7455,
      "sedimentary": 7456,
      "exhibited": 7457,
      "chem": 7458,
      "profession": 7459,
      "reversed": 7460,
      "instruct": 7461,
      "physiology": 7462,
      "inevitable": 7463,
      "smiling": 7464,
      "boundaries": 7465,
      "experimented": 7466,
      "cultivation": 7467,
      "patience": 7468,
      "resisting": 7469,
      "aboriginally": 7470,
      "preparing": 7471,
      "restrict": 7472,
      "Poor": 7473,
      "397": 7474,
      "delib": 7475,
      "interruption": 7476,
      "Exposition": 7477,
      "butterfly": 7478,
      "membran": 7479,
      "listening": 7480,
      "dwelling": 7481,
      "##OOK": 7482,
      "##ELL": 7483,
      "convenient": 7484,
      "pouter": 7485,
      "executed": 7486,
      "imprudent": 7487,
      "impatience": 7488,
      "authorized": 7489,
      "vexation": 7490,
      "warmer": 7491,
      "stream": 7492,
      "incompet": 7493,
      "Neither": 7494,
      "substantial": 7495,
      "Mathemat": 7496,
      "_Th": 7497,
      "proposals": 7498,
      "perpetually": 7499,
      "Certainly": 7500,
      "pigs": 7501,
      "suffice": 7502,
      "prejudice": 7503,
      "Lambton": 7504,
      "unchange": 7505,
      "artificial": 7506,
      "ethics": 7507,
      "mediately": 7508,
      "amazement": 7509,
      "encouragement": 7510,
      "globe": 7511,
      "Logic": 7512,
      "carrier": 7513,
      "intimacy": 7514,
      "tribunal": 7515,
      "contemporaneously": 7516,
      "debts": 7517,
      "travel": 7518,
      "prehensile": 7519,
      "prodigious": 7520,
      "fingers": 7521,
      "whisper": 7522,
      "unlucky": 7523,
      "##ophag": 7524,
      "scholastic": 7525,
      "Discipline": 7526,
      "bitter": 7527,
      "punish": 7528,
      "adhering": 7529,
      "Habit": 7530,
      "carnivorous": 7531,
      "foster": 7532,
      "sacrifice": 7533,
      "tongue": 7534,
      "heterogeneous": 7535,
      "premisses": 7536,
      "unreasonable": 7537,
      "Lepid": 7538,
      "hexagonal": 7539,
      "chickens": 7540,
      "hypostat": 7541,
      "Polyzoa": 7542,
      "Brazil": 7543,
      "eternity": 7544,
      "solemn": 7545,
      "shoveller": 7546,
      "secrecy": 7547,
      "Reynolds": 7548,
      "Aristotle": 7549,
      "*/": 7550,
      "/*": 7551,
      "000": 7552,
      "57": 7553,
      "78": 7554,
      "79": 7555,
      "73": 7556,
      "Abs": 7557,
      "Bet": 7558,
      "Bron": 7559,
      "Dog": 7560,
      "Dear": 7561,
      "Dialect": 7562,
      "Ech": 7563,
      "Fre": 7564,
      "Gould": 7565,
      "Hist": 7566,
      "Jen": 7567,
      "Know": 7568,
      "Law": 7569,
      "Ple": 7570,
      "Pige": 7571,
      "Ster": 7572,
      "Sund": 7573,
      "Sex": 7574,
      "Two": 7575,
      "VARI": 7576,
      "Wed": 7577,
      "West": 7578,
      "_D": 7579,
      "_he_": 7580,
      "bord": 7581,
      "bank": 7582,
      "cou": 7583,
      "cock": 7584,
      "cabb": 7585,
      "da": 7586,
      "duc": 7587,
      "damp": 7588,
      "datur": 7589,
      "fell": 7590,
      "fiction": 7591,
      "fitting": 7592,
      "gn": 7593,
      "gown": 7594,
      "grew": 7595,
      "hen": 7596,
      "hal": 7597,
      "hun": 7598,
      "hollow": 7599,
      "lur": 7600,
      "lest": 7601,
      "lane": 7602,
      "nic": 7603,
      "py": 7604,
      "pen": 7605,
      "pity": 7606,
      "ram": 7607,
      "sle": 7608,
      "sections": 7609,
      "tech": 7610,
      "ver": 7611,
      "vest": 7612,
      "”—": 7613,
      "##rist": 7614,
      "##rarily": 7615,
      "##rosc": 7616,
      "##aur": 7617,
      "##iently": 7618,
      "##iarly": 7619,
      "##iency": 7620,
      "##tically": 7621,
      "##nected": 7622,
      "##lend": 7623,
      "##ha": 7624,
      "##hand": 7625,
      "##hyn": 7626,
      "##yll": 7627,
      "##wood": 7628,
      "##s_": 7629,
      "##ses": 7630,
      "##canic": 7631,
      "##uality": 7632,
      "##vis": 7633,
      "##fam": 7634,
      "##GAN": 7635,
      "##UD": 7636,
      "##IX": 7637,
      "##IP": 7638,
      "##ET": 7639,
      "##DER": 7640,
      "##PER": 7641,
      "threw": 7642,
      "##erately": 7643,
      "##ina": 7644,
      "##inately": 7645,
      "inad": 7646,
      "##orically": 7647,
      "##orhyn": 7648,
      "##isk": 7649,
      "##alcon": 7650,
      "##arant": 7651,
      "##represent": 7652,
      "##oming": 7653,
      "##ases": 7654,
      "##ased": 7655,
      "##lex": 7656,
      "##throp": 7657,
      "##utability": 7658,
      "anthrop": 7659,
      "##ational": 7660,
      "exert": 7661,
      "##idation": 7662,
      "##acies": 7663,
      "##acech": 7664,
      "##etace": 7665,
      "spr": 7666,
      "sport": 7667,
      "spare": 7668,
      "spared": 7669,
      "splend": 7670,
      "##aming": 7671,
      "sep": 7672,
      "##ulata": 7673,
      "stret": 7674,
      "stalk": 7675,
      "allies": 7676,
      "allude": 7677,
      "##ilion": 7678,
      "##ivil": 7679,
      "##iveness": 7680,
      "heredit": 7681,
      "specification": 7682,
      "ung": 7683,
      "unions": 7684,
      "uniting": 7685,
      "unaff": 7686,
      "##olent": 7687,
      "acut": 7688,
      "intending": 7689,
      "shocked": 7690,
      "##uces": 7691,
      "natives": 7692,
      "parad": 7693,
      "traces": 7694,
      "traced": 7695,
      "somewhere": 7696,
      "##ditions": 7697,
      "willingly": 7698,
      "ours": 7699,
      "reasonably": 7700,
      "gracious": 7701,
      "parting": 7702,
      "##ensed": 7703,
      "disd": 7704,
      "dish": 7705,
      "dismiss": 7706,
      "quitted": 7707,
      "##erial": 7708,
      "impuls": 7709,
      "enunci": 7710,
      "indig": 7711,
      "castes": 7712,
      "evils": 7713,
      "##ultur": 7714,
      "clergy": 7715,
      "##elt": 7716,
      "worn": 7717,
      "worst": 7718,
      "twigs": 7719,
      "##onday": 7720,
      "cognizing": 7721,
      "model": 7722,
      "compound": 7723,
      "compounded": 7724,
      "twofold": 7725,
      "intuitive": 7726,
      "agric": 7727,
      "submit": 7728,
      "subfam": 7729,
      "charged": 7730,
      "recon": 7731,
      "recall": 7732,
      "recapit": 7733,
      "interp": 7734,
      "internally": 7735,
      "save": 7736,
      "throws": 7737,
      "##berg": 7738,
      "likes": 7739,
      "obl": 7740,
      "longed": 7741,
      "broad": 7742,
      "prem": 7743,
      "imitation": 7744,
      "imitated": 7745,
      "##aven": 7746,
      "affairs": 7747,
      "discl": 7748,
      "discont": 7749,
      "flourish": 7750,
      "thinker": 7751,
      "##aneous": 7752,
      "insist": 7753,
      "insensible": 7754,
      "##velope": 7755,
      "enduring": 7756,
      "##isms": 7757,
      "advances": 7758,
      "##ermost": 7759,
      "overt": 7760,
      "overth": 7761,
      "breast": 7762,
      "secured": 7763,
      "survey": 7764,
      "successfully": 7765,
      "viewed": 7766,
      "uncivil": 7767,
      "decline": 7768,
      "immers": 7769,
      "immutable": 7770,
      "immutability": 7771,
      "groundless": 7772,
      "##ails": 7773,
      "depths": 7774,
      "arrog": 7775,
      "directs": 7776,
      "geologist": 7777,
      "offended": 7778,
      "feels": 7779,
      "tendr": 7780,
      "categorical": 7781,
      "commission": 7782,
      "dried": 7783,
      "equival": 7784,
      "intermitt": 7785,
      "prevents": 7786,
      "clever": 7787,
      "cogitable": 7788,
      "cogitates": 7789,
      "sufficiency": 7790,
      "interested": 7791,
      "Reg": 7792,
      "successively": 7793,
      "guarant": 7794,
      "surely": 7795,
      "physics": 7796,
      "rightly": 7797,
      "glass": 7798,
      "contented": 7799,
      "183": 7800,
      "However": 7801,
      "creations": 7802,
      "##OND": 7803,
      "pieces": 7804,
      "summit": 7805,
      "exertion": 7806,
      "practically": 7807,
      "disappro": 7808,
      "condescend": 7809,
      "demonstrations": 7810,
      "behold": 7811,
      "fallen": 7812,
      "fallacy": 7813,
      "fallacies": 7814,
      "openly": 7815,
      "influenced": 7816,
      "increases": 7817,
      "##vening": 7818,
      "abstracted": 7819,
      "Gardiners": 7820,
      "plays": 7821,
      "cats": 7822,
      "rudiments": 7823,
      "identically": 7824,
      "##ealous": 7825,
      "conformable": 7826,
      "essay": 7827,
      "essence": 7828,
      "apology": 7829,
      "visiting": 7830,
      "gaining": 7831,
      "analytically": 7832,
      "dogmatic": 7833,
      "dogmatist": 7834,
      "raising": 7835,
      "approached": 7836,
      "doctrines": 7837,
      "sorts": 7838,
      "holding": 7839,
      "treating": 7840,
      "Gracech": 7841,
      "mistakes": 7842,
      "sentiment": 7843,
      "sixth": 7844,
      "sixteen": 7845,
      "115": 7846,
      "linking": 7847,
      "putting": 7848,
      "refusal": 7849,
      "operating": 7850,
      "declaring": 7851,
      "pursuing": 7852,
      "studied": 7853,
      "edges": 7854,
      "deserved": 7855,
      "154": 7856,
      "protest": 7857,
      "protested": 7858,
      "prototyp": 7859,
      "beautifully": 7860,
      "##ISM": 7861,
      "Self": 7862,
      "deeper": 7863,
      "angle": 7864,
      "office": 7865,
      "revolving": 7866,
      "escaped": 7867,
      "Yours": 7868,
      "filling": 7869,
      "recognized": 7870,
      "surrounded": 7871,
      "240": 7872,
      "246": 7873,
      "243": 7874,
      "Phys": 7875,
      "arbitrarily": 7876,
      "exhibits": 7877,
      "northward": 7878,
      "obscured": 7879,
      "grafting": 7880,
      "obviously": 7881,
      "strengthened": 7882,
      "258": 7883,
      "covering": 7884,
      "econom": 7885,
      "##rium": 7886,
      "exclusive": 7887,
      "detailed": 7888,
      "smiles": 7889,
      "faith": 7890,
      "securely": 7891,
      "metamorphic": 7892,
      "ridicul": 7893,
      "ANAL": 7894,
      "chooses": 7895,
      "quadruped": 7896,
      "##OGR": 7897,
      "deviation": 7898,
      "latest": 7899,
      "kingdoms": 7900,
      "##ACE": 7901,
      "privile": 7902,
      "alarmed": 7903,
      "hemispheres": 7904,
      "preferred": 7905,
      "immigrants": 7906,
      "unequally": 7907,
      "##opterous": 7908,
      "1859": 7909,
      "roots": 7910,
      "alternate": 7911,
      "thankful": 7912,
      "assurances": 7913,
      "secreted": 7914,
      "_Summary": 7915,
      "fleet": 7916,
      "propagate": 7917,
      "Instead": 7918,
      "declined": 7919,
      "marsupials": 7920,
      "grafts": 7921,
      "imprudence": 7922,
      "impatient": 7923,
      "estimated": 7924,
      "incomprehensible": 7925,
      "available": 7926,
      "dressing": 7927,
      "contrivances": 7928,
      "prescribes": 7929,
      "ORGAN": 7930,
      "_a_14": 7931,
      "_The": 7932,
      "buds": 7933,
      "gallant": 7934,
      "incomparably": 7935,
      "incomplete": 7936,
      "sincerely": 7937,
      "legislation": 7938,
      "assembly": 7939,
      "plumage": 7940,
      "quietly": 7941,
      "uncommonly": 7942,
      "muscles": 7943,
      "Intu": 7944,
      "travelling": 7945,
      "Struggle": 7946,
      "hooks": 7947,
      "exaggerated": 7948,
      "deserts": 7949,
      "incessantly": 7950,
      "numerical": 7951,
      "unfortunate": 7952,
      "modesty": 7953,
      "savages": 7954,
      "Circ": 7955,
      "omnip": 7956,
      "midst": 7957,
      "withdr": 7958,
      "aberrant": 7959,
      "impenetrability": 7960,
      "intersection": 7961,
      "misfortune": 7962,
      "Ocean": 7963,
      "dignity": 7964,
      "vague": 7965,
      "##nithorhyn": 7966,
      "empiricism": 7967,
      "voluntarily": 7968,
      "rejoiced": 7969,
      "Categories": 7970,
      "Ramsay": 7971,
      "##nesday": 7972,
      "##kinson": 7973,
      "disadvantage": 7974,
      "ambig": 7975,
      "Instincts": 7976,
      "caterpillar": 7977,
      "Affin": 7978,
      "Totality": 7979,
      "_not_": 7980,
      "dangerous": 7981,
      "lungs": 7982,
      "unpleasant": 7983,
      "permission": 7984,
      "chamber": 7985,
      "morphological": 7986,
      "Mountains": 7987,
      "Vertebrata": 7988,
      "ceremon": 7989,
      "microsc": 7990,
      "sessile": 7991,
      "hastily": 7992,
      "Through": 7993,
      "proboscis": 7994,
      "scattered": 7995,
      "decisive": 7996,
      "catalogue": 7997,
      "Between": 7998,
      "Bronn": 7999
    }
  }
}